/* weights_biases.h — AUTO-GENERATED by train_and_export.py */
/* DO NOT EDIT: re-run train_and_export.py to regenerate.   */
/*                                                           */
/* INT8 weights/biases packed as uint32_t (little-endian,   */
/* 4 bytes per word).  Row-major [out_features, in_features] */
/* for weight matrices.  Zero-padded to 4-byte boundary.    */

#ifndef WEIGHTS_BIASES_H
#define WEIGHTS_BIASES_H

#include <stdint.h>

/* ── Network dimensions ──────────────────────────────────────── */
#define MLP_FC1_IN    784U
#define MLP_FC1_OUT    64U
#define MLP_FC2_IN     64U
#define MLP_FC2_OUT    32U
#define MLP_FC3_IN     32U
#define MLP_FC3_OUT    10U

/* ── Array sizes (uint32_t words per parameter block) ────────── */
#define FC1_WEIGHT_WORDS  12544U
#define FC1_BIAS_WORDS    64U
#define FC2_WEIGHT_WORDS  512U
#define FC2_BIAS_WORDS    32U
#define FC3_WEIGHT_WORDS  80U
#define FC3_BIAS_WORDS    10U

/* ── BRAM byte offsets from MLP_BRAM_BASE_ADDR ─────────────────── */
/* Set MLP_BRAM_BASE_ADDR in mlp_bram_init.h to match the address  */
/* assigned to your AXI BRAM Controller in Vivado's Address Editor. */
#define FC1_WEIGHT_BRAM_OFFSET  0x00000000UL
#define FC1_BIAS_BRAM_OFFSET    0x0000C400UL
#define FC2_WEIGHT_BRAM_OFFSET  0x0000C500UL
#define FC2_BIAS_BRAM_OFFSET    0x0000CD00UL
#define FC3_WEIGHT_BRAM_OFFSET  0x0000CD80UL
#define FC3_BIAS_BRAM_OFFSET    0x0000CEC0UL
#define MLP_PARAM_TOTAL_BYTES   52968U  /* 51.7 KB */

/* ── Input normalization constants (MNIST) ───────────────────────── */
/* PS C code must normalize each uint8 pixel before writing to BRAM: */
/*   x_float = (pixel / 255.0f - MLP_INPUT_MEAN) / MLP_INPUT_STD     */
/*   x_int8  = clamp(roundf(x_float / MLP_INPUT_SCALE), -128, 127)   */
#define MLP_INPUT_MEAN   0.1307f
#define MLP_INPUT_STD    0.3081f
#define MLP_INPUT_SCALE  0.02221643f

/* ── Inter-layer requantization right-shifts ─────────────────────── */
/* RTL applies:  act_int8 = clip(ReLU(acc_int32 >> k), 0, 127)       */
/* k is computed so that 2^(-k) approximates M_req =                 */
/*   (w_scale * x_scale) / act_scale                                 */
/* Without these shifts, every positive FC accumulator (magnitude    */
/* ~10 000-50 000) clips to 127, collapsing hidden layers to binary. */
#define MLP_REQ_SHIFT_FC1  11U
#define MLP_REQ_SHIFT_FC2  8U

/* ── Weight / bias quantization scale factors (fc1, fc2, fc3 order) */
/* weight_scale[i]: dequantize via  w_float = w_int8 * scale          */
static const float mlp_weight_scales[3] = { 0.00441922f, 0.00473907f, 0.00482744f };
static const float mlp_bias_scales[3]   = { 0.00009818f, 0.00079055f, 0.00091863f };

/* ── Parameter arrays ────────────────────────────────────────── */
/* Include this header in exactly ONE .c file (mlp_bram_init.c). */

/* fc1 weights  [64×784 INT8]  →  12544 uint32_t words */
static const uint32_t fc1_weights[FC1_WEIGHT_WORDS] = {
    0x1107100FU, 0x0E050B07U, 0x0B100310U, 0x080D0A0FU, 0x0B050A0FU, 0x0E060805U, 0x04070503U, 0x0210010AU,
    0x06030A0FU, 0x01060BFEU, 0x0B0BFF01U, 0x0A0B040CU, 0x05FE010CU, 0x0C0B1003U, 0x020F090CU, 0xFB070409U,
    0xEEFCF8F7U, 0x05FEE8E7U, 0x0309040DU, 0x0A060A02U, 0x060D0403U, 0x000E070EU, 0xF1020A02U, 0xEEE6DFE0U,
    0xF0E8D0E5U, 0xFFFE0907U, 0xFCFE0208U, 0x0B1104FEU, 0x0604020CU, 0xF6FAFF0AU, 0xF9F4E4EEU, 0xEBF3F5F9U,
    0x1515FF03U, 0x08101B0AU, 0x070B0107U, 0x030F030CU, 0x120D1003U, 0xFF19010EU, 0xC4E4E1F9U, 0x1C260EE7U,
    0x170F101EU, 0x10FE061AU, 0x0505050BU, 0x0E181508U, 0xE7FB1004U, 0x96CAF0F7U, 0x151801C5U, 0x1E12020BU,
    0x0708050DU, 0x0A0B0909U, 0x01181900U, 0xF9FBF0EDU, 0xB2CFFAFFU, 0x1B190FDAU, 0x141C0506U, 0x07040200U,
    0x10130E01U, 0x00041105U, 0x0B0C06ECU, 0xB6BCEB08U, 0x01151CF4U, 0x07000204U, 0x010004F8U, 0x04090508U,
    0xEE0109FFU, 0x0409FBFBU, 0xBBB3F80CU, 0xFD08170CU, 0xE6020B12U, 0x010902E7U, 0x06060407U, 0xF4E101F0U,
    0x0E02FCFDU, 0xCCABD109U, 0x0A0A1E0DU, 0xD5EDFB01U, 0x0B0309F3U, 0x060C0906U, 0x02FEFFEAU, 0x1E110B07U,
    0xE4B1BE09U, 0xFE0B0B08U, 0xDEF6F4F3U, 0x030DF9E6U, 0xFC040D08U, 0x02FAEFEDU, 0x271E00FAU, 0xF2C4DC15U,
    0x030A1607U, 0xEFFCF8FFU, 0x0A02FDF6U, 0xFA090A0DU, 0x0703FBF3U, 0x1F1A0703U, 0xE8E2E011U, 0xFE0F0D07U,
    0xF4090C03U, 0x0603FF02U, 0x040A0C0FU, 0x070A1A11U, 0x131C1804U, 0xF9FAF50BU, 0x10081304U, 0xFD110E1BU,
    0x04FE01F9U, 0x14030609U, 0x06051821U, 0x0515110BU, 0x04FF0F06U, 0x0B0B1405U, 0x02100800U, 0x0FFEECF3U,
    0x0307030FU, 0x14100908U, 0xEE020E07U, 0x040903FCU, 0x0109070DU, 0xEE031310U, 0x0DF9F3FCU, 0x0D090405U,
    0x12080A1CU, 0xF101FB04U, 0x0C0E09F8U, 0xF5120C0BU, 0xF3F21000U, 0x0F0901FDU, 0x0E050D0FU, 0xFE070B0CU,
    0xE9F1FE05U, 0xFD0BFF03U, 0xF9030604U, 0xF1EBF2F7U, 0x050B0300U, 0x120F1108U, 0x02FD0605U, 0xEBF0F6EDU,
    0xF8FFF7F4U, 0xFC02F9FAU, 0xF2E703FCU, 0x110D010AU, 0x040B110FU, 0xECEEF2FDU, 0xF1ECDBE7U, 0xFAF0F3F5U,
    0xFF0A06F8U, 0x0AFC050CU, 0x0904000BU, 0x0B0C0B0AU, 0xE4E7F7FCU, 0x05F9EEF7U, 0x01F2F5FCU, 0x03FEF9F4U,
    0x0E0E1A15U, 0x090C0605U, 0x0C06030AU, 0xEFEFFCFFU, 0x0AF5E7EDU, 0xFBF6FBFBU, 0x1404FCF4U, 0x0401180BU,
    0x0E10FB07U, 0x060B0501U, 0xFF06FD04U, 0x07FDF300U, 0x0B0CFFFFU, 0x140AFDFEU, 0xFE060F00U, 0x0D0802FEU,
    0x0F030D11U, 0xF8F90306U, 0xFCEDF0FAU, 0xFF0411FFU, 0xFA01FA06U, 0x03FEF8E6U, 0x11051003U, 0x0205050EU,
    0xF804FD0AU, 0x06F2F7F3U, 0xFAFAF003U, 0xCEECE504U, 0x06FEEED1U, 0x020C0CFEU, 0x020F0501U, 0x0A0A0B02U,
    0xF1F4F2F5U, 0xFBEBF5F8U, 0xDEE1E0F0U, 0x0A04FFF0U, 0x04110905U, 0x11040D09U, 0xFB050705U, 0xFF080BF8U,
    0x08050F02U, 0x05010303U, 0x08080603U, 0x0C0B060AU, 0x0C0E0206U, 0x0F061206U, 0x030F030EU, 0x12050906U,
    0x0F030D08U, 0x0E0B0407U, 0x0C060511U, 0x080E0D0CU, 0x0C07100EU, 0x02020F0AU, 0x010D0601U, 0x080E0408U,
    0x0D020402U, 0x060C0905U, 0x0304020CU, 0x03090707U, 0xF8FE0A07U, 0x00F5FAF1U, 0x090800FEU, 0x040C0007U,
    0x0C101106U, 0x1209030BU, 0xFF040A0CU, 0xF1F5F3FBU, 0xDDE1E1EDU, 0xF6F4F5E9U, 0x030100FBU, 0x0D0F0A07U,
    0x07080707U, 0xFE0D1012U, 0xE8DDF1F9U, 0xD2C1DBECU, 0x06F6EAF0U, 0x0E0F1B11U, 0x0A0000FDU, 0x0F070812U,
    0x00121008U, 0x01FC0A0BU, 0xF0EDF200U, 0xE6E7F2EAU, 0x0E0C07EFU, 0x07FE01FDU, 0xFF0E0E10U, 0x09130D03U,
    0xF9EE0E0AU, 0xF0FD02FEU, 0xF6FC0BFEU, 0x011004F6U, 0x1210FDFDU, 0x0F0E060CU, 0xF4FA0BFAU, 0xFDFC0E05U,
    0xF0FEFAFBU, 0x05050B00U, 0x0EFAFC04U, 0x070EFE08U, 0xFE0C0706U, 0x06FC07FCU, 0x0B031011U, 0xF9EEF0F2U,
    0x000C04FDU, 0x0302F0F9U, 0x11020407U, 0x0007050EU, 0x08F303F9U, 0x03FCFC04U, 0x02F2F200U, 0xFB100903U,
    0xFAFDEFFBU, 0x1202F2F1U, 0x04010D04U, 0xFBFC0504U, 0xFFF90302U, 0x13E2E400U, 0xFCF50209U, 0xF506F0F6U,
    0x0E03E9E9U, 0x070C0D03U, 0xFDFC03F8U, 0x120E08FDU, 0x2001E507U, 0x03040E1AU, 0xE2F4FFF6U, 0x0D09F7DEU,
    0xFF090406U, 0x0E02E9FDU, 0x1A060112U, 0x2415F400U, 0x0F181618U, 0xE3020AFCU, 0x02FCF2EDU, 0x0D030D0EU,
    0x1502FF08U, 0x03080712U, 0x2B19FAEDU, 0x14152110U, 0xEC000E0DU, 0x0C04F3EEU, 0x0A110E0FU, 0x0CFF151BU,
    0xF700020CU, 0x291405F7U, 0x18191621U, 0xF6F8FD14U, 0x12FDF6F0U, 0x070D0407U, 0xFD000B1CU, 0x0A081311U,
    0x1E17FF04U, 0x0A1B2918U, 0x0E11020FU, 0x0B09EFF3U, 0xFE0C0D0CU, 0x07F90507U, 0xFF090605U, 0x1F190D09U,
    0xFC091A20U, 0xF9EA0004U, 0x0300FBEFU, 0xFB02110CU, 0xEFE4FD08U, 0xF5FBEBF5U, 0x110405F3U, 0xE9F6F70DU,
    0xE0D8EDE8U, 0x020A04E7U, 0x05110D0CU, 0xD8D8DEFFU, 0xE9D7DDD9U, 0xF3F8F8E6U, 0xCBDAD8E4U, 0xD3C7E3D1U,
    0x071100EDU, 0x04010908U, 0xEFDDD5E7U, 0xEEE7E5E9U, 0xE4E7EDDAU, 0xD4CCDAE6U, 0xD0DDE3D5U, 0x0C0BFAEAU,
    0xFF03050BU, 0xF3E7E1E8U, 0xFB0100FBU, 0xE1E5EFECU, 0xD7DCE5E7U, 0xDCE3E2D8U, 0x120A05F9U, 0xFE0A0207U,
    0xFDF3F3F4U, 0xF30D080BU, 0xEDDDEBFAU, 0xE4E5DFF1U, 0xF4EFEAE7U, 0x030301FAU, 0xFF040207U, 0x0303F7EBU,
    0xFD050006U, 0xF7F8F7F6U, 0xFDFCF6F6U, 0xF4F1F1EDU, 0x0709FF02U, 0x030F0707U, 0x06FF02F5U, 0x06040406U,
    0xF1F9FFFDU, 0x0B0CFCF4U, 0xFEFDF6F7U, 0x040B100AU, 0xFF100D0CU, 0x01FF10FCU, 0xF0FCF802U, 0xFBFEFAEFU,
    0x0402F6F0U, 0x050106FFU, 0x05040D04U, 0x110D0708U, 0xF6F5140FU, 0xEEEEEEF9U, 0xECFBF4DEU, 0xDDF6EBEEU,
    0x0902F5FEU, 0x11060D08U, 0x0F0B0F0EU, 0x0D1D1713U, 0x0A100D0DU, 0xFB010208U, 0xFFFDF8FBU, 0x050502FDU,
    0x0706080BU, 0x120D1207U, 0x090D0C0CU, 0x09070401U, 0x0C0E0B0CU, 0x04010206U, 0x07110D0DU, 0x0D0A0809U,
    0x0B090908U, 0x070A0306U, 0x07080C04U, 0x0A010704U, 0x09090D08U, 0x0D040E0AU, 0x030B030AU, 0x0F030406U,
    0x07010C01U, 0x0B050E08U, 0x100B0D0AU, 0x061100FDU, 0x06110B0AU, 0x0B0C0602U, 0x010C060FU, 0x030D0C0BU,
    0xFAF80103U, 0x150705FDU, 0x180D1115U, 0x04191513U, 0x0508FE06U, 0x020D040BU, 0x050D020DU, 0xDCEFF701U,
    0xF0E4E4D7U, 0x130604F2U, 0x1C202010U, 0x060EFD0BU, 0x0E0E0706U, 0xFFFF0A09U, 0xC7D6E9EAU, 0xE1E5F1D7U,
    0x0B0602F0U, 0x241A120CU, 0x080D060FU, 0x100D0E08U, 0xF2060A05U, 0xCED4D7E4U, 0xF3EFF1E2U, 0x000303EEU,
    0x230E101AU, 0x0B0C0415U, 0x0E03050AU, 0xEFF50509U, 0xE2CFC6DBU, 0x0903F0FAU, 0xFD0501F0U, 0x1808FA11U,
    0x08000501U, 0x0C090501U, 0xE0F50109U, 0xEDDAC6D0U, 0xFC07FD0BU, 0xFAF4FBF8U, 0x14090506U, 0x010901FEU,
    0x01060F01U, 0xE0FAF702U, 0xF8CAB9CCU, 0xF905150FU, 0xF9F7F0F5U, 0x15050FF6U, 0x0F050D18U, 0x01090B02U,
    0xD7F1F906U, 0xFEDBC0C6U, 0xFB09190DU, 0xEEF0EFF7U, 0x160A05EDU, 0x01071217U, 0xF80A020EU, 0xE0E9FF04U,
    0x07E0B6C7U, 0x08131C1DU, 0xEEE6EEF3U, 0x160AF5E5U, 0x07FB0916U, 0x01080B02U, 0xD6F4FBFFU, 0x03F0C7C6U,
    0x0F121515U, 0xE5E9F0FCU, 0xF3EDE1D4U, 0x0802FC05U, 0x07FF0C0FU, 0xDAECFE04U, 0x10FADFD8U, 0x0A1B1417U,
    0xE8F2FB06U, 0xE0D7DDEAU, 0x05F4F5F3U, 0x05FF0C01U, 0xDDF1F109U, 0x0C08FEF8U, 0x0C151712U, 0xEEEB0113U,
    0xDAD0E6F6U, 0x09FFECD7U, 0x0B060909U, 0xE6DEF602U, 0xFC0B0AF5U, 0x081114F8U, 0xFBEDF501U, 0xDEE7F70BU,
    0x06FAF8F0U, 0x0B070907U, 0xE8F1F809U, 0xF7F301F3U, 0xFB15150DU, 0xFFFDF7FFU, 0xE3EF0710U, 0x00FCF1E7U,
    0x03FF040FU, 0xE1050608U, 0xFAF0F5EEU, 0x0E1A1007U, 0x0300F0F7U, 0xF0F6FF14U, 0x03F6EAF0U, 0x0802080BU,
    0xF9020A0AU, 0x030DFEFCU, 0x000702FCU, 0x110FEFECU, 0xEDF5FE1FU, 0x09FEF7F8U, 0xFB060F00U, 0xFA01F904U,
    0xFF0711F2U, 0xFA0A0900U, 0x0D0BFFF5U, 0xE0D3EE01U, 0x0105FFF5U, 0xF004050FU, 0x0A05FCF6U, 0x04080B04U,
    0xF6020302U, 0x010201FFU, 0xF7DFE1EFU, 0x020F0605U, 0xF00B0C0EU, 0xFF0300E6U, 0x0206FC08U, 0xFDFCE7F7U,
    0xFDFF0CFEU, 0xF4EBE8FCU, 0x0E100307U, 0xF9FF0E0EU, 0xF7FCF4F6U, 0x070002FAU, 0xF1FFFE00U, 0x03130FF3U,
    0x06EBEEF7U, 0x0005070AU, 0x03000A09U, 0xF4F2F9F5U, 0xFC02F6EFU, 0x07000303U, 0xF6090B0EU, 0x0CFDF5EDU,
    0x0A09070BU, 0x04010F07U, 0x0704FBF5U, 0xFBFF080BU, 0x07FF0005U, 0xF108060DU, 0x0004F9FFU, 0x01030E10U,
    0x000B0608U, 0xFAF9F0F8U, 0xEFFD0F0AU, 0xFEE4E6F3U, 0xFC02F80EU, 0x07100902U, 0x0006050CU, 0x0C08100FU,
    0xE1F4F703U, 0xF8F9FDEEU, 0xF2E6F0EBU, 0x02100602U, 0x07101005U, 0x0D090402U, 0x0101050CU, 0xFDFE0406U,
    0xFB010204U, 0x030B0AFCU, 0x00070F11U, 0x00080203U, 0x0F100507U, 0x0A06090DU, 0x06070503U, 0x040C0A00U,
    0x09050309U, 0x05030A11U, 0x07080B0CU, 0x09040505U, 0x02000804U, 0x04030507U, 0x0002FB02U, 0x09030909U,
    0x010909FDU, 0x02FFFFFBU, 0xFFFE03FAU, 0xFDFA00FDU, 0xFB090702U, 0xFFFBFD05U, 0xFCFCFAFBU, 0xFCFD0408U,
    0x06FDFCFBU, 0xFD07FE04U, 0x04FD03FBU, 0x04FCFE08U, 0x00F906F9U, 0xFEFBF0F5U, 0xF7F7FFFFU, 0xF900FE00U,
    0x08FD07FBU, 0xFD090402U, 0xF6030300U, 0xF6F2F1FCU, 0xE0D4E4EBU, 0xEDEAEEE5U, 0x00090806U, 0x0907020AU,
    0xFD09FE02U, 0xF5FBF807U, 0xF1ECF7F3U, 0xE2E1EAF8U, 0xF801F4E5U, 0x04FDFBFBU, 0x0900080DU, 0xFFFFFE03U,
    0xFE060506U, 0x01E7E0F6U, 0xF7040B04U, 0xFAEFFFFDU, 0xEDF3FBF7U, 0x000B1005U, 0x08FCFB07U, 0xF8F90701U,
    0x0B111200U, 0x140E0B12U, 0xF8070D11U, 0x0CF60D0BU, 0x01FA04FFU, 0x050A06FAU, 0xFD01F80BU, 0x0D101316U,
    0x0E040E09U, 0xFE06070AU, 0x0A030701U, 0xFC04FFFDU, 0x07FDFB00U, 0x0914010BU, 0x0D0D0C18U, 0x0C070814U,
    0xF9010015U, 0x0B1C05FEU, 0x0A0D02F8U, 0x040409FEU, 0x0B23120AU, 0x0D060717U, 0xFE010A13U, 0xF6F40303U,
    0x1E1507F7U, 0xFC0B040FU, 0xFFFF0A06U, 0x1220201BU, 0x070E0E0FU, 0xE9F60501U, 0xFAFDFAFFU, 0x110BFD03U,
    0x00FFF50AU, 0x03FCFFFCU, 0x16111F15U, 0x0A050A0DU, 0xEBF905F7U, 0xFA09F7ECU, 0x1719F912U, 0x03020E0DU,
    0x100A05FCU, 0xFB031510U, 0xE6EAF3FAU, 0xF1ECF5ECU, 0x0F090804U, 0x14211214U, 0x05111A09U, 0x0B040A07U,
    0xF4F2F5FDU, 0xE4EBE5F2U, 0x06F6F1E6U, 0x03111112U, 0x03141D24U, 0x08080AF7U, 0x0DFA0505U, 0xF1F0E5EAU,
    0xF2F4E8F0U, 0x0B02FDF3U, 0x0B061E17U, 0xE7E2FEFDU, 0x04FFFFE3U, 0x0402FEFAU, 0xE4E0E3EFU, 0xFCF7E2E7U,
    0x19010BFEU, 0xFD09160DU, 0xE4EFEBFFU, 0x0408FBF8U, 0xFB090906U, 0xE9E2E2FBU, 0x0000FBF6U, 0x04FF0D05U,
    0xFF040812U, 0xF2EDEA02U, 0x0103FDECU, 0xFD07FC09U, 0xF3E5EEF4U, 0x0EF70308U, 0xFD060E16U, 0xF6F4F5FDU,
    0xE0E2F2F7U, 0x0502FEF1U, 0x03FDFB03U, 0xFB03F0F8U, 0x130D0600U, 0xFBF9FF11U, 0xF4F4FBEFU, 0xDCF2F4FBU,
    0xFAFAF8E7U, 0xF70309FCU, 0x03F9F8F8U, 0x0A100606U, 0xF5FBF80BU, 0x04F6F7F5U, 0xF0F3F3FCU, 0x04FF04F1U,
    0xFFFCFC02U, 0x07F5EDECU, 0x04060408U, 0x07F1EEF8U, 0xFFF5F6FEU, 0xEEF6F6F2U, 0xFCFE0503U, 0xFDF808FCU,
    0x04FFF3F2U, 0xEFF6F9FCU, 0xFEF0F4F7U, 0xF8FCF0F4U, 0x0001EEEBU, 0xFBFEFBFDU, 0xEF06FFFBU, 0x06FAF1F6U,
    0xFFF9F3FBU, 0x01000307U, 0xEDFFFBEEU, 0x00FDF7FBU, 0xFB030002U, 0xFFFA07FDU, 0xFCFDF806U, 0x0EF8F708U,
    0x01FC0503U, 0xFC0E0AFDU, 0x110E080BU, 0xFC06FD02U, 0x04050103U, 0x030BFC05U, 0x0608F70BU, 0x060605FDU,
    0x17010902U, 0x100E0403U, 0x0805FA03U, 0x0A040208U, 0x18080408U, 0x140F1414U, 0x111E050FU, 0x1F0E1511U,
    0xFAFA0510U, 0xFE000600U, 0xFBFF0302U, 0x1607FDFDU, 0x10191B16U, 0x0E1C190DU, 0x181314FEU, 0xFFFA090CU,
    0x09FF0805U, 0x02FEFD00U, 0x03FE0500U, 0xFC0409FDU, 0x03090402U, 0x02030108U, 0x08010803U, 0xFE01FD08U,
    0x04060107U, 0xFFFCFEFEU, 0xFD0A0406U, 0x0704FC03U, 0x0B010BFCU, 0x010B0802U, 0x08FD0802U, 0x00FE0BFFU,
    0x090B000AU, 0x0103FC0AU, 0x0607FE06U, 0x0108FE03U, 0x0206060AU, 0x09FD0103U, 0x090108FFU, 0x030AFF0BU,
    0x010003FBU, 0x02FF02F6U, 0x0804F6FFU, 0x0A0A02FFU, 0x02000A09U, 0xFE060800U, 0x06FAFD03U, 0x090501FAU,
    0x11080B0DU, 0xF6FF0C09U, 0x02F8F1F9U, 0xFFFE080AU, 0x0006050AU, 0x00F80304U, 0x15110305U, 0x19261616U,
    0xFC070410U, 0xF5F504F7U, 0xFEFE03F4U, 0x080107FDU, 0x01010100U, 0x040D1500U, 0x13141301U, 0x04FF0007U,
    0xDFFE00F9U, 0xFE05FFF3U, 0x09FF0301U, 0xF6030907U, 0xF8FDFD10U, 0xF0F4FEF6U, 0x030000FEU, 0xDEF60709U,
    0xFC09FBFBU, 0x09FF0102U, 0xFDF2EF06U, 0xED03F5F5U, 0x060003FCU, 0x090A0404U, 0xFCF90A12U, 0xFF08F9F2U,
    0x0604FC06U, 0xFE05FBF4U, 0xF708FF02U, 0x211B0A05U, 0x081A1B1BU, 0xF5131412U, 0x0502EEE8U, 0x0302FFFDU,
    0x0C0B0007U, 0xFF130903U, 0x181F06F9U, 0x14112526U, 0xFD070715U, 0x02FCE9E9U, 0x05090006U, 0xF8090513U,
    0xF904FE00U, 0x1121F9FBU, 0x0B141821U, 0x03130E20U, 0x02F7E8DBU, 0x070F0C06U, 0xF9FBF606U, 0x0B05F606U,
    0x0E1904ECU, 0x161514FBU, 0x03191824U, 0x060BFCDFU, 0x120B03FEU, 0xF6F70D14U, 0x0116FFFEU, 0x0F0DF0F3U,
    0x0A131B10U, 0x0E210D14U, 0x04F9F8EEU, 0x10FF04FCU, 0xF90B1413U, 0xFBF6FA01U, 0xFEFBEAEFU, 0x10090D0AU,
    0xF3FF0FFEU, 0x0404EFE5U, 0x01FF0302U, 0xFF0E1602U, 0xF602EFFEU, 0x1301EBF8U, 0x010B0604U, 0xF6F90E01U,
    0x05FAF0FCU, 0xF00005FFU, 0x0A0C1B06U, 0x02F7F3FCU, 0xFFEEF4F5U, 0x0E00F700U, 0x0D010108U, 0x0B02F109U,
    0xF10204FEU, 0xF2FD1B0FU, 0xFA040909U, 0xEBE2EAEBU, 0xF7FCF8FBU, 0xFDFEEDF8U, 0x00FAEBF4U, 0x09020701U,
    0x04EE0201U, 0xF70408FCU, 0xEAE7EF05U, 0x05FE01F3U, 0xF802F8FDU, 0x0D05F6F7U, 0x07000707U, 0xF9F1F9F0U,
    0x0605050DU, 0xFDFDF2FCU, 0x0B0BFAFAU, 0xE7F5FF12U, 0x0103FCE1U, 0x02FE0B09U, 0xEEF9F800U, 0xF9F9F601U,
    0xFE03FB0BU, 0x0D0903F1U, 0xDFE8EC05U, 0x0C03FDEEU, 0xFAFF01FCU, 0xF0FE04F2U, 0xFA03EFFDU, 0xF1FCFD06U,
    0xFCFAFDE8U, 0xDBD9E7FCU, 0x080B02FAU, 0x04020B02U, 0xF808F9ECU, 0x03FAF7F7U, 0xE7F1F404U, 0xF3FEF6F6U,
    0xE2D8DFEAU, 0xFD0A09F8U, 0x01FD01FEU, 0x0004F1E3U, 0x00FFF1F4U, 0x01120E0CU, 0xDFEA060BU, 0xFEF0E4D0U,
    0xFE0B0402U, 0xFD080602U, 0x09F4F1F4U, 0xFD04F8F6U, 0x07101C09U, 0xCBD3F603U, 0xFB02E4DDU, 0xFEFCFA0AU,
    0x0C0A090AU, 0x1D121406U, 0xF8FDFE15U, 0xF5F10402U, 0xEED8ECE5U, 0x0A0EFC04U, 0x00090308U, 0x050608FFU,
    0x15161402U, 0x05F8141DU, 0x01070007U, 0x1DFC020AU, 0x0D110F1BU, 0x0B070707U, 0x05040404U, 0x0D0406FFU,
    0x17172013U, 0x212D2C20U, 0x2125192EU, 0x0803101CU, 0xFF02FF0AU, 0x01080507U, 0x07FF00FCU, 0xFE08FE0BU,
    0x05090201U, 0x08120E09U, 0xFF0B0606U, 0x06FEFC0AU, 0x060904FFU, 0x01FEFF0AU, 0x0A02FF01U, 0x070606FEU,
    0xFE06FF04U, 0xFC090AFDU, 0x0A040409U, 0x00070002U, 0x0309FF00U, 0xFD0200FAU, 0xFF01FA03U, 0x060409FEU,
    0x060403FDU, 0x07FC0100U, 0x07060608U, 0xFF03050AU, 0xF4FEFDF4U, 0xFEE8E6F1U, 0x0004FCFFU, 0xFEFE0003U,
    0x03FE040AU, 0x030802FAU, 0xF8F9FA04U, 0xF4F8E5E4U, 0xF7F0D9EEU, 0x1703FDF5U, 0xFD030B03U, 0x04FE04F9U,
    0x0400FC09U, 0xF5010105U, 0x01F1F0F0U, 0x0D0A00FAU, 0x000003F7U, 0x07EEFAECU, 0x0404020FU, 0x04060906U,
    0x020FFC06U, 0x0E06FDFEU, 0xFEFFF4F7U, 0xEFF10813U, 0x07FFECFFU, 0xFDFEFF10U, 0x0AFF01FDU, 0x0D0C1403U,
    0xFCFF0908U, 0xF7FD03F4U, 0xF5EFF4F7U, 0x12020305U, 0x06040B08U, 0xFD060805U, 0x090E1D13U, 0xEEF7F203U,
    0xF0FDF6ECU, 0xFAF603F7U, 0x0D0C0802U, 0x04120B17U, 0x0C07FE01U, 0x01080A07U, 0xFAFCFEF6U, 0x01F8F1F5U,
    0xFB060304U, 0x070E0D0CU, 0x010A0F25U, 0x0CFEFBFAU, 0x1803FC08U, 0xFC080701U, 0xF7FCFDF4U, 0x0A0B0605U,
    0x0C081611U, 0xFE071F16U, 0x06FF02FEU, 0x01ECEE05U, 0xE9F6F9F1U, 0x04F5F6F5U, 0xFC01FE00U, 0xF1F400F6U,
    0x040D0806U, 0xFD01F902U, 0xF6F9F0FFU, 0xFA06FCF2U, 0xFFEBF003U, 0xECF7E9FBU, 0xE2E6D9EAU, 0xFE0406F5U,
    0x02F90607U, 0x0504F1F4U, 0x041005F0U, 0xFAFD0704U, 0xEBE9E1E9U, 0xEDEDE7FFU, 0xFFF7E9F4U, 0x03FD0107U,
    0x131414FCU, 0x02150D04U, 0xF4EC030EU, 0x02F7F6FCU, 0xEDFC0B09U, 0x00F1D8E6U, 0xFBF80600U, 0x14162903U,
    0x000C1215U, 0x00FE0702U, 0xF6F90907U, 0xF3FE09FCU, 0x04F2D3E4U, 0x00080A05U, 0x1F051907U, 0x1010221EU,
    0xFF06040EU, 0xF8F2F701U, 0x120B00F6U, 0x0204E0F3U, 0xF9FE00FEU, 0x0C00FAE6U, 0x0F171720U, 0x08051E24U,
    0x0303F2F8U, 0x090508F9U, 0x05F1E607U, 0x00030A09U, 0x06F1EBE9U, 0x131307FCU, 0xFB062214U, 0xFA0CFF01U,
    0x0BF0F2F4U, 0x07F1E0F7U, 0xFB040004U, 0xE2CDDCEAU, 0xFEEBE4D6U, 0xFBFF02F5U, 0xF7F60203U, 0x08F7F4F9U,
    0x05F9EAFAU, 0xFBFFFBFCU, 0xC1CADEE7U, 0xC4BDB3B0U, 0xF6E5DCBAU, 0xFF100B0EU, 0xFEFD0100U, 0x03FDEBFAU,
    0x0F0BFB01U, 0xC6D3DDF3U, 0xCFC2CEC1U, 0xFEF2E2CCU, 0x06150A05U, 0x10140AFAU, 0x03FEF8F4U, 0x050305FAU,
    0xEFE6EC05U, 0x05F1F2FBU, 0x0AFBFCFDU, 0x050D080BU, 0x1C1312FAU, 0x060807FCU, 0x0EFFFD07U, 0x0BFA0212U,
    0x181A120FU, 0x04090706U, 0x000B0E09U, 0x110B0301U, 0xFD0608FFU, 0x0707050AU, 0x191B121DU, 0x14251921U,
    0x070A140EU, 0xF9070005U, 0x0CFEFB0CU, 0x050B0901U, 0x0001FFFBU, 0x181C1B15U, 0x211D1C1CU, 0x05131910U,
    0xF9FDF2FDU, 0x0500FB04U, 0xFE00FBFCU, 0x0407FC09U, 0xFE0C0F05U, 0x05F7F5FCU, 0xFBF4FFF6U, 0xF9EFE3EAU,
    0x0107FEF4U, 0x0AFD0507U, 0xFE020909U, 0xFBFE04FEU, 0xFFE6EEF6U, 0xE5ECF602U, 0xF1EDE0EEU, 0x09FE01FAU,
    0x04020507U, 0x05FE050AU, 0x00FC02FFU, 0x0A09FE01U, 0xFFFB01FBU, 0xFEFCFB01U, 0x0301FA0AU, 0x04070308U,
    0x0B060308U, 0x06090000U, 0xFFFB06FBU, 0x0A010706U, 0x00FC090BU, 0x05020A04U, 0x0BFEFF07U, 0x00FB0903U,
    0xF7040209U, 0xF800FD06U, 0xFBFDF6F4U, 0x040005FBU, 0xFC0801FEU, 0x01010A00U, 0xFF04FF04U, 0xF9FD0106U,
    0xF4F303FEU, 0xE6FBFBEDU, 0xF9F2F4EEU, 0xFCFCFEFFU, 0x020300FCU, 0x0004FC09U, 0xF8FF0A04U, 0x03F2EFF3U,
    0xF0F6E9EBU, 0xF2F0ECEBU, 0xFCF1F8ECU, 0x040702F9U, 0x0AFFFF0AU, 0xF80004FCU, 0xE3E7F2F0U, 0xF1F3E9E0U,
    0xE1E8E4E4U, 0x00F907FAU, 0xFD0C0219U, 0x09010504U, 0xF7EAEDF4U, 0xF7F70205U, 0xE9EFE2E6U, 0xD9DBE4DBU,
    0x0101F4EDU, 0x0A030501U, 0xF8FD0306U, 0xE8E6F8F9U, 0xF1ECEFFBU, 0xF50601FDU, 0xEAEEF4EFU, 0xF901F9E9U,
    0x020C0208U, 0x0302FDFEU, 0xE6EEEAEDU, 0xFDF9FAF4U, 0xF9060F03U, 0x0003FFFFU, 0x0203FA02U, 0x090E0101U,
    0xFA04FC09U, 0xFCF2F1E7U, 0xF9EA0304U, 0x010302FDU, 0x0104FC01U, 0x0C080905U, 0x03FD140FU, 0x0301070AU,
    0x090FF8ECU, 0x0DF6F6FEU, 0x04F8FF0AU, 0x0E0503FAU, 0xFAF0FC08U, 0x02FB1008U, 0xFB090BFBU, 0x0F0BFDFCU,
    0x120C160CU, 0x0AFC0B08U, 0x0C0CFB07U, 0xFFF2F100U, 0x0011150CU, 0x01FF0905U, 0x010AEFF5U, 0x15081518U,
    0x13090614U, 0x10090B0EU, 0xF7F4E9FEU, 0xFEFC0BEFU, 0xFF000B00U, 0x0E02F0F1U, 0x160B0717U, 0x0D000819U,
    0x04070307U, 0xDDECEFEDU, 0x0007FED5U, 0xF3030309U, 0x12FDEFFCU, 0x0A140F16U, 0x08FE0011U, 0x00FF080AU,
    0xCDEDEDFBU, 0x0AFC02E3U, 0xFF09FFFFU, 0x1801F300U, 0x09091110U, 0x08F5FD0DU, 0x00131412U, 0xE7E9EE01U,
    0x02F6F4F3U, 0x0A05FE09U, 0x0B100003U, 0x0512FF0AU, 0x11F3EDFCU, 0xF614140AU, 0xFE03EEECU, 0xFD09FCFEU,
    0x07000505U, 0x191108FFU, 0xFDFFFD1BU, 0x03E9FB02U, 0xF40A181DU, 0xFD0603FFU, 0xFD04FCF3U, 0xF6070504U,
    0x1A0F14FEU, 0xFE010E17U, 0x17020EF7U, 0xF6F60514U, 0xFE0D0C00U, 0xFEFFFBFBU, 0xF70901FCU, 0x14221505U,
    0xF7F20613U, 0xFD130DFFU, 0xF8E7EBF3U, 0x01F9031AU, 0x0500F8F6U, 0xFCFE0807U, 0xFC000104U, 0xF3F4F4F3U,
    0xF0FFF7F2U, 0x02EFEDECU, 0xF8EDFBFDU, 0xFBFEF905U, 0xF70605FDU, 0xEFE7E1F7U, 0xE8EDF1E9U, 0xD5E9E6EDU,
    0xFAF5FCE5U, 0xFDEEE2E5U, 0x05FE0A06U, 0xFEFC040AU, 0xD2D7EAFBU, 0xE5E5EEE1U, 0xE4D7E6F5U, 0xEFEBEAEDU,
    0xFBF7EEEFU, 0x06FEFD07U, 0x02FFFB0AU, 0xD7E1E4F4U, 0xF5FCF5F4U, 0xE4E9DDFCU, 0xF0EFE8EAU, 0x0FFCF3EFU,
    0xFF0A0A13U, 0xF9030909U, 0xFCF0F4F9U, 0xF6FAF901U, 0xDFEDE6F3U, 0xF1DCE9EEU, 0x1518FEEFU, 0xFC090A12U,
    0x020303FEU, 0x02F9110DU, 0xF0F3F705U, 0xDEEDE8E2U, 0xFDFBE8E8U, 0x15271604U, 0x02090607U, 0x050000FDU,
    0x02000F04U, 0xF5EBEAFEU, 0xF4F7EAECU, 0x0207000CU, 0x08101C13U, 0x07070202U, 0xFC010103U, 0x06050C0BU,
    0x05070500U, 0x1129241DU, 0x0602060CU, 0x0B051114U, 0xFE0A02FDU, 0x0A000001U, 0x05FFFC08U, 0x0BFF0102U,
    0x0007060AU, 0x0C030704U, 0x07060206U, 0x01FC05FDU, 0x02F705FCU, 0xFC0102F7U, 0xF7040601U, 0x000007FDU,
    0xFFFDFCFFU, 0x00FDFC05U, 0xFF0506FCU, 0x010601FAU, 0x02F9FA02U, 0x01030805U, 0x01FF0403U, 0x09080704U,
    0xFD0709FEU, 0x03FC06FFU, 0x07020300U, 0x0607F906U, 0x04030006U, 0x100E0103U, 0x1320140DU, 0x0B010D06U,
    0x0306FB00U, 0x06FD0506U, 0xFD06FF01U, 0x03FA09FFU, 0x070A08FCU, 0x27230716U, 0x090D1C29U, 0xFC020100U,
    0x05FDFD05U, 0xF1FCFBFFU, 0x030507F6U, 0x0DFF0604U, 0x0B141307U, 0x111F2818U, 0x0402F70DU, 0x06FFFE01U,
    0xFCEAEFFBU, 0xFE030AF7U, 0x00FFFAF7U, 0x1A191914U, 0x1C18261FU, 0x06000C13U, 0xF6FE0603U, 0x0000F9F5U,
    0xFAFE0207U, 0x1004F60AU, 0x1D191B19U, 0x04111A2BU, 0xFCFC0E18U, 0x01FE03F9U, 0xFFFA00FBU, 0x0F00FD10U,
    0x0D0F0206U, 0x1E181E09U, 0xF2F20811U, 0x0603FEFCU, 0x0107FEFFU, 0xFFFDFCEDU, 0x0AF40606U, 0xEAFAF901U,
    0xD8E7E8EDU, 0xE7CBDCDEU, 0xF800FCE9U, 0x03FEFD05U, 0xFCF8F600U, 0x0600FC05U, 0xCBE5EDFDU, 0x9BA7A7B5U,
    0xCBB79FB0U, 0xFDFEFEE4U, 0x00090001U, 0x04060206U, 0xF1FC0408U, 0xDDECF0ECU, 0x93C0C7E1U, 0xC3A19A9DU,
    0xFCFEF4D7U, 0x0304FD05U, 0x020D0709U, 0xFD03FBF5U, 0x030704FDU, 0xDF0A0810U, 0xD1C2C5CFU, 0xFCFAF6E7U,
    0x09010602U, 0xF90CFC05U, 0x03FAFB0EU, 0xFAF8F5FCU, 0x0E18140FU, 0xDFEBF203U, 0x0400F0F2U, 0x08FA05FFU,
    0x0B10F202U, 0xFF01FCF3U, 0x04F8F905U, 0x1304F600U, 0x0D020414U, 0xF7F9FA06U, 0x0D070006U, 0x070CF107U,
    0x080A01FFU, 0xFBF5EFFBU, 0x0E06FA01U, 0x0D0D0E12U, 0x01EEF619U, 0xFA03FB03U, 0xFB04FAF6U, 0xF70409FBU,
    0x01F8EF03U, 0x080A0206U, 0x11FD0D0CU, 0xFDF9071FU, 0x08F601FEU, 0x03FDF9F8U, 0xFFF4F4F7U, 0x0002F0F9U,
    0x08040B01U, 0x0903FFFAU, 0xF6F1060CU, 0x0BF7FBFEU, 0x03050303U, 0x02FA0000U, 0xF600FD09U, 0x0B0701FEU,
    0xFA090801U, 0xF7FBF60FU, 0x00F9FCFBU, 0xFF030106U, 0xF401FC04U, 0x070AF8F8U, 0xFA010E0AU, 0x0001090CU,
    0x03F9FF07U, 0x0607F8FFU, 0xFA030815U, 0x08F7FD04U, 0x05020415U, 0xF3FFFC07U, 0xFB010100U, 0xFDF3FC0AU,
    0x0D0600FFU, 0xF6F71518U, 0xFFFF0407U, 0x0D070901U, 0x06050701U, 0x06FDFBFFU, 0x06060504U, 0xF902FAFBU,
    0xEFF7080CU, 0xFDFFFDEEU, 0x090D0A0FU, 0xFA040403U, 0xF503090EU, 0xFE0202FEU, 0x0000FE03U, 0xEEF6FDF8U,
    0xF604FBEEU, 0x09040B03U, 0x00FBFC04U, 0xFE03F5FDU, 0xFB0103EDU, 0x00F7F905U, 0xEAF5FEFDU, 0x0104FDFFU,
    0x08FBFAF6U, 0x0001F8F9U, 0x05FC03FCU, 0x000607FAU, 0x02F8FD00U, 0x050C0906U, 0x05FD1008U, 0x0E0702FEU,
    0x07080403U, 0xF7F60006U, 0xF70703F8U, 0x07F9FBFBU, 0x1301FCF9U, 0x17101312U, 0x1F0D141FU, 0x160B0E0BU,
    0xFE060705U, 0xF7FCFAFDU, 0xF7F70105U, 0x050A02FBU, 0x110E090EU, 0x1B1D1907U, 0x10110B0AU, 0xF7080107U,
    0xFBFD03FCU, 0x03FF04F7U, 0x05FCF900U, 0xFD05FCFBU, 0x0204FF03U, 0xFD04FCFCU, 0xFDFD0104U, 0xFE0503FBU,
    0x0B0C0B00U, 0x02060705U, 0x0A0904FDU, 0x040A0907U, 0x0203050BU, 0x0D07FF01U, 0x02020607U, 0x02070803U,
    0x0B050407U, 0x09FF0C01U, 0x06040604U, 0x0B0AFDFFU, 0x05070207U, 0x0308FFFEU, 0x01090103U, 0x0C0D0A03U,
    0x01010006U, 0x0003FFFFU, 0xFAFB0303U, 0x000300FBU, 0x050900FDU, 0x01040704U, 0xF6FC0101U, 0xEEF4F2EEU,
    0xE6D9E9F3U, 0x00F1EAF2U, 0x02F6F5F5U, 0x000B0101U, 0x0B09020CU, 0xF1FB0308U, 0xEAE1E1F2U, 0xF7EBE6E6U,
    0x17FFDDF6U, 0xFD030610U, 0xFF04FDF3U, 0xFF07010BU, 0xF6F0FFFDU, 0xD3D7EDECU, 0xF5F5ECE6U, 0x03E9E906U,
    0xFE0705F9U, 0xFCFCF0FEU, 0x0B010D0BU, 0xF3090905U, 0xEDE9F4F8U, 0xF2E5D5ECU, 0xF804F60AU, 0x0B08FD02U,
    0x0109FA00U, 0x180F06FFU, 0x050B130AU, 0xEB0D18FFU, 0xE8F2F2E3U, 0xFFFB0D06U, 0x131A0802U, 0x0A0502FDU,
    0x180D040AU, 0x1A0F1B15U, 0xFB082210U, 0x08FEF5EDU, 0x031308FCU, 0x19090802U, 0x0613180EU, 0x140F0D03U,
    0x1A1B1226U, 0xEF020E10U, 0x1E08FCF4U, 0x02151B20U, 0x11020E01U, 0x0C071A1CU, 0x0E0C020CU, 0x070E050FU,
    0xDE080C03U, 0x2A0AF3E2U, 0x1C10171CU, 0x0108170BU, 0x02052523U, 0x17140D00U, 0x01FEFD0AU, 0xEFF60105U,
    0x1912F6EBU, 0x000A0408U, 0xEEF4FA08U, 0x02051B00U, 0x11140F03U, 0x16F6F8FBU, 0xE4F90D0FU, 0x0FFCE6E1U,
    0xDFEEFB01U, 0xDCE3E4E7U, 0x0B0806E9U, 0x0612050DU, 0x0BFCFFF5U, 0xDEF8000BU, 0x0701E6D8U, 0xDDF7F200U,
    0xD2E6E8F3U, 0x0BFE01F1U, 0x0A0F0705U, 0x03010309U, 0xE6F0F50AU, 0x0101F5EEU, 0x0EFFFF01U, 0xFAF3F106U,
    0x0503FAF6U, 0x0A0A0B03U, 0x090AF4FFU, 0xF1EFFDFDU, 0x020BFAF5U, 0x0F150DF4U, 0x05120E0CU, 0x0308F5F3U,
    0x0406030BU, 0xF9F9E7F6U, 0xF2EDF5F5U, 0xFD0CFFF7U, 0x0D120D06U, 0xF8F91112U, 0x0B00F1F2U, 0xFAFF0307U,
    0xEBECF0FAU, 0xFCFCE8E6U, 0x010E07F6U, 0xF5000006U, 0xF0E9F5FBU, 0x0106FAF4U, 0xFC09080EU, 0xF7F3F3F0U,
    0x080104F4U, 0xF4FF1300U, 0xECE9F0EEU, 0xECDEE1FAU, 0x080203EEU, 0x01070109U, 0xF9EDE3F2U, 0xFEF8FF02U,
    0xF5F80909U, 0xDCD9EAE9U, 0xE4CDD4E3U, 0x060C08FBU, 0xFE0406FEU, 0xF6FEE1EBU, 0x06F4F3F6U, 0xFBFFFB0AU,
    0xD7E0F1E8U, 0xE8EAD9CEU, 0x0D0104F4U, 0xF5040909U, 0x01FDFDF3U, 0xF5FAF4F3U, 0xF4FDFC07U, 0xD6E2E2F3U,
    0xF0E7ECE2U, 0x040CFDFCU, 0xFAFF0500U, 0x0E040504U, 0xFC04FA04U, 0x0C0EFEFDU, 0xEDF1F501U, 0xFAF7F7E7U,
    0x0C0C0BFFU, 0x00FD0405U, 0xFA110901U, 0x030E08F7U, 0x1113060AU, 0xF3FDFF0AU, 0xF6EFF1EAU, 0x04050409U,
    0xFAFE0CFFU, 0xE4F80E05U, 0x09F6F0F2U, 0xFB02F4F7U, 0xEBEFF6F3U, 0xF603F3F7U, 0x020A0701U, 0x0E02FF0BU,
    0xEEF2F008U, 0xFCE8F6FDU, 0xF2F1EFF9U, 0xEEF1F8EFU, 0x0D0B00F7U, 0x0B0AFF04U, 0xFE050503U, 0xF9F4F1FDU,
    0xE9E70401U, 0xF4E5FBE3U, 0x070702FFU, 0x05000403U, 0x03000308U, 0x03FF0301U, 0xFB08020AU, 0xFB0B05FDU,
    0xFBFC1102U, 0x02100C0EU, 0x090A0309U, 0x050301FFU, 0x00060109U, 0xFE030A01U, 0x01070405U, 0x07000105U,
    0x060C0607U, 0x08FD0405U, 0x0CFE060BU, 0x06080B07U, 0x04070602U, 0x00FD00FFU, 0x03050A01U, 0x04FE0A06U,
    0x08030A07U, 0x0A090A0BU, 0xFE0B07FEU, 0x0C07FEFEU, 0xF600FE02U, 0x0D060001U, 0x01000507U, 0x0B08FDFBU,
    0xFD08FD0CU, 0x02090502U, 0x0900FCFEU, 0xE7EE0003U, 0xF7F10000U, 0xF20007F8U, 0x04FEF5F2U, 0x08FE0C05U,
    0x0BFF06FFU, 0xFFFD0300U, 0xF8EEE8F6U, 0xFE02F7F5U, 0x1009FEFDU, 0xFAFE0402U, 0x08040000U, 0x06030A01U,
    0xF8F604FEU, 0xDDD5D0DFU, 0xEBF6F6EEU, 0xFFF9EBE9U, 0xEAF3FBF4U, 0xFF05F6F4U, 0x04FF080BU, 0xE1ED01FEU,
    0x06F0EADFU, 0x04171514U, 0x07221708U, 0xE9E5F1F8U, 0x0300FDF1U, 0x0A0A06FFU, 0xE1EEF304U, 0x140BF4E7U,
    0x132B2519U, 0x13141513U, 0xEBE8010BU, 0x08FBE7DCU, 0xFA03FF0BU, 0xF1E9E8FAU, 0x06040203U, 0x131F1A0EU,
    0x0212090EU, 0xD9F2F405U, 0x0706F5DBU, 0x0200020AU, 0xF9FCE6EEU, 0x02FC0704U, 0x16100600U, 0x0009FC02U,
    0xD4EBF2EFU, 0x09FDF5EBU, 0xF70D0D03U, 0x01FFE7F5U, 0xF0F40911U, 0xFF0EFCFAU, 0x0CFDF6FCU, 0xD6FB0105U,
    0x0AF8F7E8U, 0x050C0D0AU, 0x1002FA00U, 0x00FBFE15U, 0x0413FDF1U, 0x100F05F8U, 0xE3091C20U, 0xFE02F3E3U,
    0x111001FFU, 0x0F14061FU, 0xEBF6FF07U, 0x0701F1DFU, 0x050B0001U, 0xFCF9130AU, 0x0700FDE5U, 0x07030707U,
    0x0E050D23U, 0xEBFFFE0DU, 0xF906FCD5U, 0x0804FCF7U, 0xE4FC0810U, 0x0201F2DDU, 0x140A0C02U, 0x0203FF13U,
    0xF1F90007U, 0x090900E8U, 0x0002FCF4U, 0xDAE9F704U, 0x0900FCDFU, 0xFE0B0B0DU, 0xF8FFF804U, 0xF6EBE701U,
    0xFA02FCF5U, 0xF7F80406U, 0xDBF1EBFAU, 0x0503FADCU, 0xFA0B0502U, 0xFDFFFD06U, 0xFBF7F6F6U, 0xF40A06F0U,
    0xEEEBEF01U, 0xD5FDFAE5U, 0xFD05E9D5U, 0x07FC0B06U, 0xFFF6F1F9U, 0xF4F5FBFCU, 0x08100DF8U, 0xF2FAEDF0U,
    0xDEEDECEDU, 0xFE09E9D5U, 0xFC070502U, 0xEBEBE5FAU, 0xFC09FCE6U, 0xFE130DFCU, 0x08FFFDE4U, 0xDCE8010AU,
    0xFF00FBD9U, 0xF1060C02U, 0xF9E9E0EFU, 0x0907F7F0U, 0xF404130FU, 0x04FDF0F4U, 0xF2E7EBF9U, 0x0C0C04FBU,
    0x0202060BU, 0xE7DBD4E8U, 0x00FAE9F1U, 0xF80CFB0BU, 0xFEF0F800U, 0xF5E4EBEAU, 0x050A080DU, 0xFDFA0101U,
    0xE2EBF2EFU, 0xF701ECDCU, 0x02FFF2F7U, 0xF8F7E9F3U, 0xF3EDF201U, 0x01030C0FU, 0x01000109U, 0xEEE80AF4U,
    0xEBF4F1E7U, 0x03FFEEEEU, 0xEDF6FDF9U, 0x0803E8EDU, 0x02050517U, 0xF608000CU, 0xF0F7020AU, 0xEFF4F3EEU,
    0x0102F1F5U, 0xF3F71401U, 0x081707F6U, 0x0204000BU, 0xFA0A08FEU, 0xFDF50F0DU, 0xE5EDEBFEU, 0xFDEDE5E0U,
    0xF801FAE9U, 0x09110B16U, 0x09FE07FDU, 0x03000506U, 0x04021309U, 0x02FF1A1CU, 0x09050318U, 0x1707F90DU,
    0x05092125U, 0xFDFD0606U, 0x0C080C04U, 0x19030603U, 0x0D1E241EU, 0x29281513U, 0x1A161F1EU, 0xFE091317U,
    0xFF0B0BFFU, 0x0A0C0107U, 0x0702FE08U, 0x010B0201U, 0x070E090AU, 0x0F070205U, 0x04091006U, 0x0900FD0AU,
    0x070108FFU, 0xFFFB0202U, 0x00030502U, 0x04070801U, 0x0907FFFCU, 0x06FF05FEU, 0x01F9FB00U, 0x0508FD04U,
    0x00FA0506U, 0xFBF90505U, 0xFD06F704U, 0xF8020501U, 0x00FDFA02U, 0x08FD0700U, 0xFC070405U, 0x050502FAU,
    0x00000C01U, 0xF4F6F9FAU, 0xEBF7FBFCU, 0xFDF1FCFFU, 0x04030309U, 0xFFFEFCFFU, 0x0705FC08U, 0x08020C0FU,
    0xE7EBF004U, 0xF4ECEDE5U, 0xFF03F1ECU, 0x060207FDU, 0x0606FF08U, 0x00030A07U, 0x09FF10FCU, 0xF502F603U,
    0xF5F5EDEDU, 0x16FEFBFEU, 0x00080C10U, 0x0AFA03FFU, 0x0A020503U, 0x06091506U, 0x03FC0205U, 0xFCF8FAFFU,
    0x1200FBF3U, 0xF9FAF300U, 0x030208FDU, 0xFB08FE00U, 0x0A141D02U, 0x01FB0109U, 0x03FC0307U, 0xF0EDFEF5U,
    0x0500EE00U, 0x0208FEFBU, 0xFC0104FBU, 0x07090C0AU, 0xEBFA0B00U, 0x02FC08FEU, 0xFF09110AU, 0xFE00FBF2U,
    0x09FD0506U, 0xFFF6FC0EU, 0x09120909U, 0x0C18110CU, 0x0B03FFF7U, 0x201C0B0EU, 0x01060507U, 0x05040002U,
    0xF4000606U, 0x0B0A0E09U, 0x0F161822U, 0x030B0F05U, 0x1D140604U, 0x0C111621U, 0x0E0B09FEU, 0xFF0D0EFDU,
    0x0E101512U, 0x150C0F09U, 0x010C110CU, 0x07FC02FEU, 0xFC11210FU, 0xFB000005U, 0x02FEF8F3U, 0xFB05110DU,
    0xEFE4D3E2U, 0xF6E8F4EDU, 0xE9EDE4F7U, 0xFD0609F0U, 0xE9030201U, 0xE7D7E2EAU, 0xD9E9E8F6U, 0xD3C8CADAU,
    0xE2E6E4EDU, 0xCDCEE5DCU, 0xFE0901E9U, 0xDF0500FFU, 0xACB9BFCFU, 0xCFDED8B6U, 0xE4E5E4D9U, 0xE7E4F3F2U,
    0xE7D9ECE8U, 0x0B0F0E00U, 0xE1FB0707U, 0xABA5B2D1U, 0xE5E2C7ABU, 0xEEF3F6F0U, 0xF9F6FFFDU, 0xEFF4EAF1U,
    0x041110F6U, 0xE8060703U, 0xD8CBCCD9U, 0xFFF6F5EBU, 0xF6010507U, 0xF2FBF5F8U, 0xF0F700F8U, 0x0B1E1905U,
    0xEAFE04FBU, 0x0A17F0DDU, 0x01141006U, 0x00F6070BU, 0x08FD0809U, 0x11092308U, 0x0D222D11U, 0xEC0607FCU,
    0x1E221301U, 0x01F90D0FU, 0x06FCFB09U, 0x01FF090BU, 0x08050B0DU, 0xFC16280FU, 0x02F80304U, 0x2024230FU,
    0x0F151114U, 0x05070E0DU, 0xFFFD0500U, 0x03F4FEFEU, 0xFC0C1713U, 0x06F70407U, 0x2317170DU, 0x0C10151EU,
    0x0C14130EU, 0xFDF70402U, 0x0EFBF3FEU, 0x090F1C15U, 0x10FD0203U, 0x08141309U, 0x110C0E19U, 0xFD020311U,
    0xEAEBF9F5U, 0x0803FCEDU, 0xFE0A0210U, 0x090A04FEU, 0xF1F8160CU, 0xFD0703FDU, 0x00FCFE0BU, 0x05FCF907U,
    0x170F07F6U, 0xFFFD0414U, 0xFB04FBFFU, 0xEFF70803U, 0x06030302U, 0x060D0704U, 0x07FF0005U, 0x0F130601U,
    0xFDFE0A15U, 0xFDFEFB03U, 0xF6FD0A02U, 0x0105FEEEU, 0xF8FAF701U, 0x0102EDFAU, 0x000501FAU, 0x07010502U,
    0xF603FD00U, 0xEFF40C0AU, 0xFDF3FBF3U, 0xF000FBF9U, 0xF3F6F9EEU, 0xFB00FDF5U, 0xF9060004U, 0x04FF04FBU,
    0x05F6FB0BU, 0x00FC080AU, 0x1211000EU, 0xEBEE0303U, 0xFCFFF1E1U, 0xFA0A06FFU, 0xFBFF0500U, 0x08F2ECFAU,
    0x090C0E0AU, 0x10090D00U, 0xFEF4FD06U, 0x0901EAEEU, 0x05060805U, 0xFE01FB06U, 0x0502FA04U, 0x07FEFF00U,
    0x0A0806FFU, 0x01FD06FFU, 0x03FCF5F3U, 0x05070908U, 0x0AFD080AU, 0x0B020205U, 0x0001040AU, 0x00FF0009U,
    0x07060B07U, 0xFF00FEFEU, 0xFF02FF01U, 0x08050507U, 0xFE0401FDU, 0x0F0C0009U, 0xFD0A030AU, 0x070E0B03U,
    0x06FD0506U, 0x0A0205FEU, 0x03020A01U, 0xFF060BFDU, 0x170B0C09U, 0x10170E15U, 0x13161108U, 0x0C0A0815U,
    0x090000FCU, 0x010AFF05U, 0x04000704U, 0x0A0A0A03U, 0xFA03FBF6U, 0x0D1802FBU, 0x1619150BU, 0xFFFFFA09U,
    0xFCFE060AU, 0xF5FFFC07U, 0x0004FFF4U, 0xF7080D0FU, 0xFBFBFE09U, 0x210F0FFCU, 0x08000516U, 0x020B000BU,
    0xEAE3E6F9U, 0x05060202U, 0xFAFAF1FCU, 0xFAF40106U, 0x1208FDF6U, 0x030B130FU, 0x0309060BU, 0x01D9E7EDU,
    0xECF2060DU, 0xE5E5DDF9U, 0xF4E8FFEBU, 0x1208E1F2U, 0x0101131CU, 0xF9FDFE07U, 0x01E1E0EFU, 0xF9080C12U,
    0xE9DBDBDDU, 0xEEEEFCF0U, 0x091407EDU, 0x070C1C13U, 0xFB060208U, 0x08F3E0EFU, 0xF601130DU, 0xF3DFE3F0U,
    0xF0E1FAF1U, 0x02011305U, 0xFC062113U, 0xFE05FEFEU, 0x0DF7D0F0U, 0x01031111U, 0xF0D8DBF3U, 0x10F9F8FEU,
    0x12F90B12U, 0xF7FC1A21U, 0xF70406FFU, 0x08EFD9F5U, 0x0818200BU, 0x0FD3DBEEU, 0x04F1F8F8U, 0x0EFFF6FBU,
    0x01021021U, 0xFB0209FDU, 0x05F5DFE4U, 0x0D1B1C04U, 0x01EDE100U, 0xF7F1ECFDU, 0xF3D8EADEU, 0x02010301U,
    0xF8050A02U, 0x0D0FE6E2U, 0x1C0D080CU, 0xF7EBEF15U, 0xE7F1F302U, 0xFAE3EBEBU, 0xFCFFF808U, 0xF2FD02FFU,
    0x03FFF7E6U, 0x180F0D08U, 0x07EFFD1BU, 0xF9020001U, 0xFB00FFFCU, 0x01EEEEFBU, 0x06FC0908U, 0x050500F5U,
    0x20050AF7U, 0xF9F6FD1CU, 0x07FC0DFFU, 0x081D1109U, 0x05FCE9FFU, 0x050A0BFCU, 0x0B02F3FBU, 0x160F080BU,
    0xF5040C16U, 0xF5FB0200U, 0x0A1412F8U, 0x0BFAEBE9U, 0x0A0500FFU, 0xF8F7EDFCU, 0x0908060FU, 0x0A0D0718U,
    0x00FDFC00U, 0xFE0300FFU, 0xFCF9F3F2U, 0xFCFEFE09U, 0x06FDF8F6U, 0x0B0AFE01U, 0x01051009U, 0xF8040A06U,
    0x0004FEFFU, 0x08FFFCF4U, 0xF90606FFU, 0xFE07F7F3U, 0x020AFDFBU, 0xFD020F09U, 0xF5FEFEFFU, 0xFDEAF1F9U,
    0x0905FDF8U, 0xFAFD080CU, 0x0709F9EAU, 0x180606FDU, 0xFF010F0EU, 0xFFFC00F4U, 0x0100F608U, 0x0A0801FDU,
    0x000A0BFFU, 0xFBE9EDE5U, 0x22130A00U, 0x0E09091FU, 0x0407FAF5U, 0xFB02FE06U, 0x0B0609FFU, 0xFE090706U,
    0xF0DDDBFAU, 0x140C0A02U, 0x0D100E16U, 0x010406F7U, 0x04000300U, 0xFD0AFD00U, 0xFC080C04U, 0xE3DCE5FEU,
    0x0400EFECU, 0x13070F16U, 0x060C0A14U, 0xF700FBFBU, 0x010600FCU, 0x0609FDFFU, 0xE0EBF8FDU, 0xEDEFE9E7U,
    0x1D140602U, 0xF0071522U, 0x0B06EAEDU, 0x0C0707FFU, 0x07000304U, 0xEBF5F406U, 0x06ECF3E9U, 0xFE040302U,
    0xF4EFEB0BU, 0x0AFBF4EEU, 0xFF08090AU, 0xFFFFFD0CU, 0xE1F2FB00U, 0xF1F3F0F2U, 0xE7E7F0F3U, 0x01F6EFFEU,
    0x0607FBFCU, 0x040B0302U, 0x05FEFFFEU, 0xF8FB030AU, 0xEAE7F2EEU, 0xECDFEFF6U, 0xF0F8EEEFU, 0x0206FFFCU,
    0x02090802U, 0xFD030304U, 0x03FF0BFEU, 0x02FB0102U, 0x0005FD01U, 0x0505FE02U, 0x0505FC0CU, 0x08030509U,
    0xFEFD0900U, 0xFEFE010CU, 0x03FD030CU, 0x0A00FF00U, 0x01050907U, 0xFDFEFF01U, 0x040B0806U, 0x03070303U,
    0xFEFC0201U, 0x08000501U, 0x0AFF0F02U, 0x01FE01FEU, 0x080C04FFU, 0x01010609U, 0x0209FD02U, 0x09040600U,
    0x0B0007FFU, 0xFC01040DU, 0x1602FE0AU, 0x0A0C1204U, 0xFD090506U, 0x0B0C0006U, 0x03020802U, 0xF0F0F2FAU,
    0xF3F709FDU, 0x160905FDU, 0x110B0E11U, 0x0A000810U, 0x0C06FE07U, 0xEBF1FBFEU, 0xFAFAEFEBU, 0xE9EAFCFFU,
    0xFBFE0305U, 0x04F90200U, 0x080806FFU, 0x030A0302U, 0xE1E0F5F6U, 0x0800EEE8U, 0xFDFCF1FDU, 0x0A080504U,
    0x02FCFF04U, 0x0B0D0C09U, 0xFF0609FFU, 0xF3D1E8F4U, 0xF6F7FCF3U, 0xFCF5FCFAU, 0x04FDF6F8U, 0x0503FE00U,
    0x050C251CU, 0x02070909U, 0xFEECF3ECU, 0x0004FA06U, 0x00F803F7U, 0x060508FEU, 0x12090F15U, 0x0914231CU,
    0xFD080708U, 0xEFEFECEFU, 0x02F804F8U, 0x02FDF7F8U, 0x1B1B1111U, 0x292A2C2AU, 0x04192E35U, 0xF6FF060AU,
    0xECF4F3F3U, 0xFAF8F9EBU, 0xF9F4F8FFU, 0x09080802U, 0x0504160FU, 0xFE04181AU, 0x0000010AU, 0x05E5F0FEU,
    0xF80505FBU, 0xD5D8F2F9U, 0xCED2CAD8U, 0xC2C7DDD9U, 0x0C0303E5U, 0xFAFC0A0BU, 0xFCF7EFF7U, 0xF704FB02U,
    0xCFDEF4FAU, 0x9E9EB1CAU, 0xBDB3A8A7U, 0xFD0C03D3U, 0xFD060702U, 0xF9FEF304U, 0x05FFF706U, 0xF9F80309U,
    0xA7CEF0F6U, 0xC9B0AB93U, 0x07FEF6D5U, 0x04FBFC09U, 0xFE0B0605U, 0x0B040101U, 0x04000008U, 0xF4031507U,
    0xC8CAD0DAU, 0xFCF1E8E0U, 0x09090705U, 0x0C0F140CU, 0x000405FAU, 0x00F4FB00U, 0x11160A0DU, 0xEEFC0210U,
    0x05F2EAF3U, 0x0407FF05U, 0x12F7020CU, 0x0B050B10U, 0xEFF5FA0FU, 0x0606FF0AU, 0xF8020D0CU, 0x02F5F7F2U,
    0x06000103U, 0xFDF8FAF9U, 0x04010005U, 0x05F0FC06U, 0x08050F0CU, 0xF80D0901U, 0x09EFF9F8U, 0xFF0A00FFU,
    0x110304FDU, 0x090F030BU, 0x05F7FD01U, 0x03150F00U, 0x010BFB09U, 0x09FEF4F7U, 0x0C020402U, 0x0210070DU,
    0x05FD0802U, 0x0501FD0CU, 0x0007090FU, 0x0AF3F605U, 0xFF0005F9U, 0x00080706U, 0xF90A080AU, 0x09FE0005U,
    0x0D060908U, 0x04020704U, 0x0BF205FFU, 0x0203FA13U, 0xF7FE0C0CU, 0xF81301F9U, 0x050201FDU, 0x03FFF308U,
    0xFF060804U, 0x1505FF04U, 0x05090F14U, 0xFC09FF09U, 0xF9F7FB0AU, 0x0DFD020CU, 0x0D070A07U, 0x06130307U,
    0x1D070209U, 0x0C0B0E11U, 0x070504FDU, 0xFCF1FB0AU, 0xFE0806FEU, 0x1409FE03U, 0x0704FE0FU, 0x1301100BU,
    0x08000B07U, 0x02050001U, 0xFC041916U, 0x000308FFU, 0x0605FAFCU, 0xF6FDF703U, 0x0C0308FBU, 0xFD01120BU,
    0xFE0406FEU, 0xFD02FBFEU, 0x00FE08FAU, 0x0E0401FDU, 0x0D1A0D0FU, 0x0AFCFC14U, 0x0708000BU, 0xFF050807U,
    0xF7FF05FBU, 0xF9FAF404U, 0xF5EE0701U, 0x050E0500U, 0x0F0C0306U, 0xFFFE0A0AU, 0x08FD0407U, 0xF8020504U,
    0xEEFEF3F3U, 0xF6EEF5F7U, 0xF0EEECF3U, 0x030B0A04U, 0x0BFFFDFFU, 0x00020402U, 0x0800020BU, 0xFF0A0806U,
    0x05010106U, 0x08FF0900U, 0xFDFEFB05U, 0x06FEFF05U, 0x08FF00FDU, 0x0AFF070BU, 0x060A020BU, 0x06FE02FEU,
    0x0401FC08U, 0x0403000AU, 0x02020000U, 0x00030501U, 0x01020A09U, 0x0103FEFCU, 0x0502FF04U, 0xFFFE0A0BU,
    0x01070400U, 0xFC01FC02U, 0xFE00FE07U, 0xFE0A020AU, 0x06FB0108U, 0xFC02FAF8U, 0xFDFA0AFBU, 0x01030205U,
    0x07020A02U, 0x09080A0AU, 0xF5FD0402U, 0xF7F4F603U, 0xF7F4F4F5U, 0xF4FCFDF4U, 0x0903FEFBU, 0x0B0701FEU,
    0xFC070307U, 0xF1F0FBFFU, 0x0001F9F3U, 0x040B0E08U, 0xFFEEEF07U, 0x0809FDF7U, 0x0AFD020BU, 0x08020804U,
    0xFCFBFDFAU, 0xF8EBF304U, 0xE5EBEAF2U, 0xEEF1E5DBU, 0xFBF1F4EDU, 0x0308FD08U, 0x1403FC01U, 0x0F060105U,
    0xF6F40D0BU, 0x02ECE6E6U, 0xF6120700U, 0xEBF201E8U, 0x030CFDFCU, 0x15060103U, 0x170F0500U, 0xF2F6FF06U,
    0x00050007U, 0x0D1C0D0BU, 0xEDFD0A02U, 0x0BFF06F5U, 0x15030904U, 0x160E160BU, 0x070F0A16U, 0x02100106U,
    0x070A0607U, 0x03060106U, 0x0502EDFAU, 0x070D0DFCU, 0x0E1B1410U, 0x03031108U, 0x0D0F1715U, 0x0B0509F4U,
    0xF4FBF705U, 0x0005FAF2U, 0x050907FDU, 0xFA0A0E19U, 0x14050B07U, 0x04252511U, 0xFFF2F0F5U, 0xEEF30005U,
    0x0504FCFCU, 0x180D0A09U, 0x06010E19U, 0x170CFB0EU, 0x001E1F0FU, 0x0204F1ECU, 0xF2FE0005U, 0x070B02F1U,
    0x17060A09U, 0x0DF70D19U, 0xFCF8FF03U, 0xFEF1EBE5U, 0xF70CFCF7U, 0xF500FEFCU, 0x030700E6U, 0x100DFD06U,
    0xFB000B1DU, 0xECEEEDFAU, 0xF8FBD5DAU, 0xFE08FD05U, 0xF3070D0AU, 0xFF0910EFU, 0xFE0801FDU, 0xEEF6FCF5U,
    0xEEF9EAF2U, 0x0A11EFE7U, 0x0D0501FEU, 0x07110707U, 0x06010CFBU, 0xFF0700FEU, 0xECFEEFEEU, 0xE9FAF9F6U,
    0x040D0BECU, 0x07110BF4U, 0xFC101710U, 0xFC0000FBU, 0xFD020801U, 0x06F8EFFCU, 0xEFF6FF04U, 0x0802FCF2U,
    0x070D0804U, 0xFF0208FCU, 0x0A05F9FAU, 0xFB070403U, 0x0FEDF5FBU, 0xEDFC0711U, 0x0411F1F5U, 0x060A0D01U,
    0x0009010FU, 0x0608F801U, 0xF602FFFFU, 0x07F1F9F3U, 0xE9FA000BU, 0x0B1704DBU, 0xF7FCF8F6U, 0xECF8F900U,
    0x04FFFCF1U, 0xF60C08FFU, 0xE7EBEBFAU, 0xDAEADDECU, 0x0211FDEDU, 0xF4EDF0F6U, 0xF3DADBEFU, 0x05000B05U,
    0xFE050B05U, 0xE4DEE8EFU, 0xE8D8D0E5U, 0x040B0E02U, 0xE6E2F0FEU, 0xF9EAD8E0U, 0x04FC0D00U, 0xFD060207U,
    0xDCE1E8EEU, 0xF8F1EDE7U, 0x01060A08U, 0xF5E9F105U, 0xF6EEF4EBU, 0x05000CFDU, 0xFCFE07FEU, 0xF0EDFBFAU,
    0xF50BFFF2U, 0x11FEFCFDU, 0xF2E60605U, 0xF7F5E8F1U, 0x000900FBU, 0xF8FB0907U, 0xFAF803F8U, 0xF90404FCU,
    0xFCFCFBFCU, 0xE9EEFAFEU, 0xF8F5EFE9U, 0x0C0703FCU, 0x0B020C00U, 0x0506160AU, 0x0901F703U, 0x00E7F3FCU,
    0xEDEDEEF3U, 0xFAEEF3FAU, 0x090C0600U, 0xFC0801FDU, 0x1E050E04U, 0x0AF90310U, 0x1909FD1AU, 0x0908060BU,
    0x02F5020BU, 0xFD02FE08U, 0x060A0809U, 0x1D01FF03U, 0x0B1A221CU, 0x1A260FFDU, 0x21170F15U, 0x05011313U,
    0xFF060805U, 0x0908FD04U, 0x0E05FD01U, 0x00140A05U, 0x1109130CU, 0x0F091507U, 0x040A0002U, 0x07050806U,
    0xFEFFFBFCU, 0x010204FBU, 0x03FF0602U, 0x05020702U, 0x040409FFU, 0x0906FA06U, 0x09FC0807U, 0x090AFB04U,
    0x0A030A01U, 0x0406FBFCU, 0x0A0AFFFDU, 0x0404FFFCU, 0x08FD09FEU, 0xFF04FAFDU, 0x08030008U, 0x0D09FFFDU,
    0x13100C08U, 0x211C2315U, 0x120E0F15U, 0x080C0F0DU, 0x09090701U, 0x04FD0805U, 0x090707FBU, 0x16140D0FU,
    0x030C0D0DU, 0x0E100D0DU, 0x070602FCU, 0xFBFBFCFFU, 0x08FF05FFU, 0x060C0008U, 0xFC111212U, 0x13120F0BU,
    0x12060515U, 0xF2FDF20EU, 0x0500FFF7U, 0x06040601U, 0x0C0B0505U, 0xF7FAEBF7U, 0x05040A03U, 0x0600FE06U,
    0xEDFD0902U, 0x020601F8U, 0xF6000001U, 0xF602F703U, 0xF9F1E3EEU, 0xFBEFF7F6U, 0xFAFD06FCU, 0x01FBFAF8U,
    0x06FC01F2U, 0xF9F805FFU, 0xF5F3F600U, 0xEBF2FCFCU, 0x09FFF9FBU, 0xFDFBFBFDU, 0xEA01F5FDU, 0x04FDF2E6U,
    0x01050205U, 0xF6FFFEF7U, 0xF9F2F5F3U, 0xF6F5FEFAU, 0x04FB0809U, 0xD5FF0E07U, 0x0507F6DAU, 0xF404F908U,
    0xFCFDF4FBU, 0x02030601U, 0xFCEEEEF3U, 0x010103F8U, 0xCDF80F0DU, 0x0500F6D5U, 0xF0F9FA09U, 0xF3EE0103U,
    0x0802F7F9U, 0x00F7EDF9U, 0x1B120C07U, 0xC8E8040DU, 0x02FEEBC9U, 0xF2F80105U, 0xECEA02FEU, 0x03FA01F6U,
    0x0D13F6FAU, 0x17201815U, 0xD9DAF90FU, 0xFFFAF2D6U, 0xF3FEFEFCU, 0xF3FEF8F9U, 0x06F608E7U, 0x1A220F03U,
    0x040C2315U, 0xF2E5E4EAU, 0xFEF8F1FBU, 0xFBF8FD08U, 0x0600F7F6U, 0xFFF5FEFFU, 0x26262009U, 0xFA001019U,
    0xF3EAD3DCU, 0x06F9FDF1U, 0x02FC0609U, 0x0800F7ECU, 0x05EE0608U, 0x1318160AU, 0xD3ECFE19U, 0xE4EBE4D6U,
    0x000703F9U, 0x07090409U, 0x02FFF4F9U, 0xFBF9000CU, 0x03121A05U, 0xDFDBE200U, 0xF1FEF5DEU, 0x050800F3U,
    0x0700FC0AU, 0x04F8E7F9U, 0x0A0F0800U, 0xE80A0D05U, 0xECEDE4F7U, 0x07FFFDF8U, 0x07050D03U, 0x020FFB02U,
    0x09EFE9FEU, 0xFF0F050EU, 0xEDF9FCF5U, 0xF6F6F1F0U, 0x05050701U, 0xFF02F300U, 0x100A06FBU, 0x00FBFCFAU,
    0xECED0A03U, 0xF1F7EFDFU, 0xFF03FEF9U, 0x0306FEFEU, 0x0108FFF5U, 0x0AF7FBFBU, 0x08F0ECFBU, 0xE5F6F7EEU,
    0x02FDEFD2U, 0x110C0417U, 0x0E0E050EU, 0xFDFE01FCU, 0x13010204U, 0x03F5FA09U, 0xFDFBFEFAU, 0x1104F8F7U,
    0x1514FB0AU, 0x01F90F15U, 0x00070705U, 0x16050304U, 0x01040013U, 0x0A06FDF6U, 0x10020B0EU, 0x14110706U,
    0xF6000508U, 0x0002FD00U, 0x0901FB06U, 0x0E101B1BU, 0x0406FC01U, 0xFD08FDFAU, 0x120C0002U, 0xF3FA0918U,
    0x020206F8U, 0x00030A05U, 0x07F40CFEU, 0xFAFC0914U, 0x06030006U, 0x1210080DU, 0xF8FA1016U, 0x080000FFU,
    0x04020003U, 0xF0E4E7F3U, 0x020500FBU, 0x02FD04F6U, 0xFD01010DU, 0xFC001007U, 0xFBFD0008U, 0xF8FF0606U,
    0xE9FAF1FBU, 0xEFFA0303U, 0xF0F706FEU, 0xFB0006FCU, 0x03FFFF0CU, 0xFE050301U, 0xFCFC05FAU, 0x05F906FDU,
    0xF5000806U, 0x0902FEFAU, 0xF704080CU, 0xFCFCFD0AU, 0x0700FE08U, 0x02050902U, 0x0204FBFDU, 0x0400FA08U,
    0xFD040206U, 0xFBF706FFU, 0x03FEFF0AU, 0x02090306U, 0x0001FEFEU, 0x08080607U, 0x0100FA09U, 0x01050208U,
    0xFD0202FAU, 0xFCFBFB0AU, 0x08FD00FAU, 0xFB090606U, 0x030809FDU, 0xFF010406U, 0xFB0AFB05U, 0xFEFD08FCU,
    0x0101FB00U, 0x00FC0200U, 0x08FCFA01U, 0x0AFD00FAU, 0xFAFD0507U, 0xFAFF04FFU, 0x070408F8U, 0xFA0903FAU,
    0x01FEFAFAU, 0x0808FF06U, 0x0505FC07U, 0xF9FBF604U, 0xFFFCFEFCU, 0x030B00F5U, 0x020AFE03U, 0x09030205U,
    0x02FE09FEU, 0x01F8FFFEU, 0x070803F9U, 0xF4EFF3EAU, 0x03120DF5U, 0x090E07F8U, 0x01FF0600U, 0x02080902U,
    0xF3020E02U, 0x00020400U, 0xEFEFF8F9U, 0x0109FBE9U, 0x0E0B0410U, 0x0204FE00U, 0x030A0408U, 0xFAF2F305U,
    0x0C0B1014U, 0x140E130EU, 0xFF0C1409U, 0xFC01140BU, 0x0200FE09U, 0xFD05FA04U, 0x09FFEDFCU, 0x130E0D14U,
    0x1B26241DU, 0x020D110AU, 0xDEEBF3FDU, 0xFD04F1ECU, 0x03070504U, 0xF5F4FBFDU, 0x14080B05U, 0x20211E0DU,
    0xF2F60214U, 0xD9F1ECEBU, 0x04FFF1DAU, 0x0E08FE05U, 0xFE0FF60CU, 0x0E060F0EU, 0x0C141116U, 0xFEFFFEFAU,
    0xD4E6E1FFU, 0x0705FDF2U, 0x1004FAFAU, 0x09090E05U, 0x06FD1009U, 0xDCF6060CU, 0x00FEF8F9U, 0xEDF00208U,
    0x060A0106U, 0x1802FD04U, 0xFD0E0F13U, 0x06F6030DU, 0xF2EBECF0U, 0x05FA0801U, 0x0F110009U, 0xFD070902U,
    0x0506FB03U, 0x0606020EU, 0xEFFFF6FEU, 0x040C08DAU, 0xF4030307U, 0x1C15FA05U, 0xFEFEFFF7U, 0x07050809U,
    0x0EF7EFFDU, 0xFDFBF1FDU, 0x090E1C07U, 0xF5F90200U, 0xFE03FEFFU, 0x02F5FEFAU, 0xFCFF0305U, 0xFEEDE2FAU,
    0x0103F9F9U, 0x0102100EU, 0xF9F4FB05U, 0x0202FF0CU, 0x07FBF9F9U, 0xF803FEFEU, 0xFDE8D8F7U, 0x031104FCU,
    0x07FB0003U, 0x0301FD00U, 0x0705170FU, 0xFC02EBFBU, 0x07060200U, 0x00E9DBEEU, 0x101D1306U, 0xFAF4FA0FU,
    0xF6F6F4F4U, 0xFE090EF4U, 0x05F3E4FBU, 0xFEFB0207U, 0xECD7DFEEU, 0x1012FBF3U, 0xFEF80E12U, 0x0003EEF2U,
    0xFF060609U, 0xFDFEEDE7U, 0x020909FCU, 0xBEC7E1FBU, 0xF3EFC5B2U, 0xF5EDF3EAU, 0xFEF9FAEFU, 0xEFFC010BU,
    0xFFFBF8E5U, 0x0507FAFCU, 0xC0C8E9F7U, 0xAAA3A3AAU, 0xEBDFD0C5U, 0x15FFF9F9U, 0xFFFE0404U, 0xFFF7FCF4U,
    0x09FCFF04U, 0xDEE2000FU, 0xB7B9C6CFU, 0xEBEBDBC7U, 0x0DFCFAF3U, 0x07000807U, 0x07FA0E0DU, 0x120C05FBU,
    0x06050710U, 0xF003F3FBU, 0xFBF5FB05U, 0xFFEFE908U, 0xFBFEFDFDU, 0x0AF9060DU, 0x0D000605U, 0x110C0E09U,
    0x18280C0FU, 0xF6F9F506U, 0xE8EAFA04U, 0x0704EEFBU, 0x08FA03FCU, 0x04020302U, 0x0A150E08U, 0x181A0C08U,
    0xFCF90B0CU, 0xE0E0F4F0U, 0x0D06ECFEU, 0x0303060DU, 0x1008FCFEU, 0x1D1B1F18U, 0x09181610U, 0xF2030205U,
    0xDFE9EFE9U, 0x070C00FBU, 0x07080303U, 0xFAFFFEFCU, 0x241D120EU, 0x050F2B42U, 0xFDFD0A16U, 0x1F17FF09U,
    0x0F0C0C11U, 0xFB020405U, 0xFFFFFE06U, 0x1507FF06U, 0x29261D15U, 0x2944362DU, 0x263B402BU, 0x040C0F17U,
    0xFF080804U, 0xFAFC04FBU, 0xFD0AFB07U, 0x010608FEU, 0xFD0A020AU, 0x010FFF00U, 0x0800FF04U, 0xFB040603U,
    0x0A060A08U, 0x02FDFEFFU, 0x0100FF02U, 0x040A030BU, 0x00FC0806U, 0x00060BFDU, 0xFF0508FDU, 0xFC05FFFDU,
    0x05080802U, 0x09070606U, 0xF6030604U, 0x00060901U, 0x0701FC06U, 0x0407FE03U, 0x0400FB02U, 0x0DFF05FFU,
    0x09101611U, 0x04060A09U, 0xFAFC1A0BU, 0x0B000708U, 0xFB0B0409U, 0x060A05FCU, 0x0C0E0CFFU, 0x21202519U,
    0x0107020DU, 0xFCE90513U, 0xFE070A0DU, 0x07070907U, 0x0702FD03U, 0x120A0804U, 0x0E151E16U, 0xEDFAF307U,
    0x020803FAU, 0xF1F0F90DU, 0xFDFE08F8U, 0xFFFC0606U, 0x0A0EFD0EU, 0xF3070009U, 0x01F9F5F7U, 0xFC030607U,
    0xFDF4F300U, 0x070E0905U, 0x05000301U, 0x000A0813U, 0xF3E0F4FEU, 0xEDE0E5E0U, 0xE1DFF4F9U, 0xFCF1FAE6U,
    0x06080406U, 0xFE05040BU, 0xFAFFFA0DU, 0xF3E8F704U, 0xF2F2EEE1U, 0xE2E5FCFEU, 0xF301F8F7U, 0x0300FFFCU,
    0xF9090606U, 0xF3FA0B05U, 0xE2F8F8F7U, 0xF1F5EEE7U, 0x00E1F1F7U, 0xF0EBEDFBU, 0x04F9F1E6U, 0x01FFFE08U,
    0xF5F300F5U, 0xEBF0EEECU, 0xF3F1ECF0U, 0xFAE4ECF6U, 0xE0F3FBFAU, 0x06F6E6DCU, 0xF7000300U, 0xFDF509FAU,
    0xF0EDF0FCU, 0xEFE3F0F6U, 0xF8F5FEF3U, 0xDFF1F501U, 0x08F7EFEDU, 0x04FDFD04U, 0xF1E2FBF5U, 0xE6FAEFFBU,
    0xDFE8E2F1U, 0x06FDF401U, 0xF0FB06FDU, 0xFDF8F9E3U, 0x00000609U, 0xF4DAEDDBU, 0xFFEBF4FDU, 0xEDF3F0F1U,
    0xFFF1F702U, 0xF0FF06FAU, 0x080807FDU, 0x070A07FDU, 0xFAF4F7E1U, 0x0705FBFEU, 0xFDFB0E0EU, 0x00FE0007U,
    0x08FB01FAU, 0x0E05151BU, 0x0DFE00FDU, 0x0806FCFAU, 0x150A1811U, 0x03010B1EU, 0xFB020209U, 0x0D13FAEAU,
    0xFD0E1711U, 0x0D040901U, 0x0C120C0EU, 0x21160B0FU, 0x1009151FU, 0x0F01191CU, 0x0B0F03F2U, 0xFF0F200BU,
    0x090300FEU, 0x14130603U, 0x1F15110EU, 0x1C110D0FU, 0x13122228U, 0x0D0A130FU, 0x01192517U, 0x0C060A02U,
    0x040F0907U, 0x0909120BU, 0x180805FBU, 0x151E1115U, 0x0A08201BU, 0xFD122710U, 0x070501FCU, 0x1406090FU,
    0xFDFA0316U, 0x0E0C0914U, 0x1A1F181AU, 0x1204140CU, 0x0907231CU, 0xFE000A07U, 0x02F50409U, 0x0A01FA07U,
    0x1D03FE02U, 0x05150E14U, 0x040A0C0CU, 0x090D060BU, 0x01FD010AU, 0xFBF10710U, 0x00FBFD01U, 0x0AFFF1FEU,
    0xF6030002U, 0xF505FFF5U, 0x0501F5F8U, 0x09010902U, 0xF7F8FC08U, 0x04FB0309U, 0xEAFDFD00U, 0xF0F1EEF9U,
    0xF5FBFEFCU, 0x0808FFE6U, 0x02FE0307U, 0xF9EFFFF9U, 0x0902FDFEU, 0xF3EDF201U, 0xEAE3E7F4U, 0xECF4FDF4U,
    0x0505F9E1U, 0x02070A07U, 0xF5E9F3F4U, 0xF5F0EEECU, 0xF1ECEFFAU, 0xE8F5E8F3U, 0xDDF4FEF7U, 0x0001FAE1U,
    0xF60AFE07U, 0xF3F2F300U, 0xEBD9D6E3U, 0xF5EEEADCU, 0xE7EEF7FCU, 0xE4EAF1EEU, 0x09FC010AU, 0x010204FEU,
    0xF906F604U, 0xF1E8DCF7U, 0xF9EFEAE9U, 0xE6E5EDF7U, 0xFEF3E8E7U, 0x09040804U, 0x0301FCFEU, 0x01FCFC09U,
    0xE7F2F5F9U, 0xEBE6F6F3U, 0xF4F1F6F2U, 0x0300FDF1U, 0x000A0204U, 0xFD020607U, 0xFE0405FCU, 0xFD0508F6U,
    0x07F900FFU, 0x00080604U, 0x0AFD0A02U, 0x08FD0107U, 0x0405FE05U, 0xFA03060AU, 0x01FF0908U, 0x03060101U,
    0x04FD04FBU, 0x0207FE05U, 0x070709FEU, 0x07FAFBFCU, 0x0305FD06U, 0x01FC01FDU, 0xFFFA0408U, 0x00FAFD03U,
    0x0203FAF9U, 0xFE0603FEU, 0x040403FFU, 0xFB030107U, 0xFFFA08FEU, 0xF4040F00U, 0xEC01FBF3U, 0xF9FDF4F0U,
    0x00000903U, 0x040200FAU, 0x08FDFDFEU, 0x201D1405U, 0xFE181D19U, 0xFAF80107U, 0xF5E9EFFAU, 0x000105FBU,
    0x02FFFA05U, 0x05060A06U, 0x1626241BU, 0x080A0608U, 0xFEFE0505U, 0xF3F5EAFCU, 0x05FBFAFDU, 0x02FCFBFDU,
    0x0708F4FFU, 0x13170014U, 0x07120C0FU, 0x070BFC0FU, 0x00FE03FDU, 0x000AF803U, 0x050009FCU, 0x0007FF05U,
    0xFAE9EAFCU, 0x08080DF7U, 0xFE04FCFDU, 0xF205FFFAU, 0xFA07FA04U, 0x0CFB03F9U, 0xF9120A13U, 0xF4E8E9FAU,
    0x1205F9ECU, 0x0806010AU, 0xFF050406U, 0xFD0002FCU, 0x00FC0705U, 0xF3F60B0CU, 0xDAF3EEFAU, 0x1A08E2E2U,
    0x00030D23U, 0xFCF90300U, 0xF905EFEEU, 0x0C06FD00U, 0xD3E0F8F8U, 0xC3D4CDD9U, 0xFFE8E3D0U, 0xFD051113U,
    0xFAFAFD0BU, 0xFB04F1E8U, 0xFF060708U, 0xBACFE5F0U, 0xE1C2CDC3U, 0xEDDCE0E2U, 0x050308FEU, 0xF2040807U,
    0x0203EEF1U, 0xFA050AFAU, 0xD1D0E5EAU, 0xF8E2DDE3U, 0xDEEFF9FBU, 0x1AFFF4E9U, 0xF701FCFCU, 0xFD04F7F5U,
    0xF8FD0509U, 0xF8E8D9E5U, 0x160E0606U, 0xE8FF0D17U, 0x0303F1E3U, 0xF4FEF9F3U, 0x00030A07U, 0x0708FE03U,
    0x170AFBF0U, 0x0D15120DU, 0xE6F20609U, 0xFA08F6F1U, 0x0A02F1FAU, 0x07000310U, 0x03040800U, 0x22200FFCU,
    0xFD061314U, 0xDF030604U, 0xF6F909EAU, 0x0B05FDFEU, 0xFC040310U, 0x080009FBU, 0x02161D0EU, 0x00070307U,
    0xDFF9FAFBU, 0x080009F5U, 0x0E0200FBU, 0x030F0C1BU, 0x110803FDU, 0xF7FE1F19U, 0x05F806FAU, 0xF5F8030EU,
    0x0E1F1B0BU, 0x06161212U, 0x09041003U, 0x0D0A0904U, 0xF7F2141CU, 0x0702F5FCU, 0xFBFE010CU, 0x15101413U,
    0xE90C03FCU, 0x00FE02EBU, 0x1BFDFBFBU, 0x11FF0C1DU, 0xF0FD0006U, 0x0CF9F6FDU, 0x040D0911U, 0xEAFE02EDU,
    0x04FF0CF6U, 0x180901FBU, 0x08101318U, 0x0307F603U, 0x160403FEU, 0xF3041006U, 0xF608FF00U, 0x02FBFEE9U,
    0x2405FF09U, 0x12051227U, 0x0608080FU, 0x07FE010BU, 0x04040502U, 0xF8000708U, 0x090005F1U, 0x1E0FFA08U,
    0xF9F8F90AU, 0x06FA00FBU, 0x12F904FDU, 0x0B01FB0BU, 0x0E1B0BFCU, 0x05FC02FAU, 0x140D0202U, 0x0602FA07U,
    0x100DF807U, 0x0C0A0A06U, 0x0E000311U, 0x061B0D05U, 0x03030B07U, 0x0002FF09U, 0x1206FEFDU, 0x0D140F11U,
    0x09090603U, 0x04FF01FEU, 0x0F151B08U, 0x02FBFA00U, 0xFF05FE09U, 0xF6F2F907U, 0xE9E9EAF9U, 0xFAF4FEF1U,
    0xFE03F1FAU, 0x060413FCU, 0x02FA0006U, 0xFF0300FBU, 0xF9F4FA08U, 0xD2CCDDE1U, 0xE4DBD6D9U, 0xF7FFFAEEU,
    0x00FB01FCU, 0x080903FEU, 0x000906FCU, 0xFB03FA04U, 0xF4F4FF01U, 0xFDF2F4F0U, 0xFE04F6FDU, 0xFB080803U,
    0x01FBFE05U, 0x06020300U, 0xFBFAFA06U, 0x02FC0904U, 0x03040501U, 0x0109FF07U, 0x070706FAU, 0xFE040402U,
    0x03020606U, 0x0B010503U, 0x08010C06U, 0x02030A03U, 0x060C0207U, 0xFF04040BU, 0x070B0908U, 0x0E090505U,
    0x09FFFF07U, 0x0E0A010DU, 0x0D020B0EU, 0x03FE040AU, 0x000C0E0DU, 0x010D0B0BU, 0xFF09050DU, 0x05040105U,
    0x090B0803U, 0x1A1B1608U, 0xFA0D1718U, 0x0C030002U, 0x0601080DU, 0x0A0B0607U, 0x03060204U, 0x12FFF901U,
    0x180D0316U, 0xF9020214U, 0x0303E3EAU, 0x0DFE0205U, 0x070D0205U, 0x070B0A05U, 0xFC00FE06U, 0x1A0403FDU,
    0x0CFC1A16U, 0x01FEFD07U, 0xFC02F7FBU, 0x0A010CFFU, 0x0603FC02U, 0x03FDF1F5U, 0x09FFF9FCU, 0xFAF4FA04U,
    0x0E0B03F3U, 0xFEFDF6F4U, 0x0F0C0E00U, 0xFCFAF905U, 0xF5FB08FCU, 0x0704F304U, 0xF9090F0FU, 0xF805FDF0U,
    0x000E01F2U, 0xFE070801U, 0xEBE0FA02U, 0x07FF01FAU, 0x02000806U, 0x06001818U, 0x01FFFBF8U, 0x0905EEDAU,
    0x070B0801U, 0xE9E8FF06U, 0x11180BF7U, 0x05FEEBFDU, 0x07F90922U, 0xE4F2FC02U, 0x060CDFE0U, 0x05060809U,
    0xFAEAFFFDU, 0x040803FCU, 0x08ECD806U, 0xF6FC0A24U, 0xF8EDF8EBU, 0x040904EBU, 0x02010607U, 0x09FF0404U,
    0xF4F80604U, 0x0AE4D0EEU, 0xEBF4081EU, 0xF8F0F1EFU, 0x070605F0U, 0x030AFF0BU, 0xF805FDFEU, 0xDCE6F5F9U,
    0x15EAD4E5U, 0xF3F20608U, 0xEAF2F3EFU, 0x0B0401FCU, 0x0A0C0300U, 0xE9EC0609U, 0xE3DAFAF0U, 0x07E9E2E8U,
    0xF4FE0807U, 0xF0E2E9F1U, 0x0005F9FEU, 0x0A000D05U, 0xDAE2FCFDU, 0xE6D7CDD7U, 0xF4EDFBEFU, 0xEA131103U,
    0xE7E6E4F1U, 0x04FEFFF0U, 0x0B050D0DU, 0xC3D8ECF9U, 0x06F1D9D2U, 0xF6F8F4FBU, 0xD40B0711U, 0xEADADFD1U,
    0x0505FDEFU, 0x070D05FEU, 0xCFE1EAF7U, 0x121718F3U, 0xFFFF01FAU, 0xB9BF0310U, 0xDDD0D7B4U, 0x0D03F6E9U,
    0x080A0DFEU, 0xDDDBF104U, 0x041019F9U, 0xF7F60A0CU, 0xAFB0CF07U, 0xE1DED4C6U, 0x0D0D0AF8U, 0x01050500U,
    0xF3F0EAFDU, 0x110D0801U, 0xF3F50512U, 0xD0B2BFD3U, 0x00FAEDDDU, 0x0D09210DU, 0x080EFEFFU, 0x09F5E0FFU,
    0x15170D10U, 0xD5EBFD26U, 0xFEDFD4CAU, 0x11241714U, 0x08061924U, 0xFB0DFF06U, 0x03FDD9FFU, 0x24201D09U,
    0xD3E20520U, 0x020403EDU, 0x141B1917U, 0x09141C15U, 0x0608FF0AU, 0x08FF060EU, 0x25161216U, 0xF0EAFD19U,
    0x151E2713U, 0x1D090614U, 0x06102227U, 0x02060303U, 0x00012808U, 0x0A12130CU, 0xFBF5FB03U, 0x2B171405U,
    0x1A130F1FU, 0x0B081922U, 0x0603030DU, 0x010B300DU, 0xFAFEFB00U, 0xE4FC05FFU, 0x1316F6F3U, 0x16202D21U,
    0x0201101CU, 0xF40C0E0AU, 0xEB111CFEU, 0x0902F9FBU, 0xF0EE061FU, 0x010BF3F4U, 0x191B180CU, 0x0C0B080FU,
    0xF5040C05U, 0xF202FBF6U, 0x09EAFDF9U, 0xF007FD18U, 0xF9FAF2F0U, 0x03140D02U, 0x04070E05U, 0x00060D05U,
    0x150FFF09U, 0x00F60712U, 0x010204FDU, 0xE6E6F9FFU, 0x050407FDU, 0x0A0D0B0EU, 0x00090802U, 0xFE07030EU,
    0x09FA0CFFU, 0xFCFE0307U, 0x0CFEF903U, 0x0D0B0202U, 0x030C0607U, 0x02070B0DU, 0x0402040DU, 0x0508FE07U,
    0x04020609U, 0x08FD0C04U, 0x0902090DU, 0xFF070A09U, 0x0B080205U, 0x020A0300U, 0x00050005U, 0x0207FCFCU,
    0x0A050905U, 0xFC08FC06U, 0x02FC0307U, 0x0800000AU, 0x06000705U, 0x02070703U, 0x0A030902U, 0x0F0AFE04U,
    0xFE02000DU, 0x05000A0BU, 0x00000A09U, 0x0F0AFCFDU, 0x1F1A1D19U, 0x1D152119U, 0x110F1916U, 0x03050913U,
    0x0A070005U, 0x0307090BU, 0x0F150800U, 0x060C190BU, 0xFEF00D04U, 0xFEF00906U, 0x0D041106U, 0x09010805U,
    0x02000604U, 0x07141600U, 0x0C1D1508U, 0xF7010106U, 0xF1FEF9FDU, 0xFEEBE7EBU, 0x04FE03F3U, 0xFE030603U,
    0xFC06070EU, 0xF302FBFDU, 0xF7FFF4FDU, 0xF6F8F8F8U, 0xFAF7FB02U, 0x0B03F8FEU, 0x0AFBFC03U, 0xF0FDF007U,
    0x08F7D6E5U, 0xF7EFF4F5U, 0xED05FEF4U, 0xEBEDF2DCU, 0x040AF9F2U, 0xF506FC04U, 0xECDEE4F9U, 0x0305E9E3U,
    0xF9F0EEF8U, 0xE9ECF6F0U, 0xD4DBEBE5U, 0x010200E7U, 0xFA0A0100U, 0xEDF1E8F3U, 0x0113F3E3U, 0xF4FAF7F8U,
    0xE9EDFFECU, 0xC6DCE4FFU, 0x00F6F6D7U, 0xFAFD03FDU, 0xF6EDF2FBU, 0x0101F2F3U, 0x0106F001U, 0xECEEECF4U,
    0xC8EFE9FFU, 0xFEF9F1DBU, 0xF80B0705U, 0xF5E9FDEEU, 0xFDECECFDU, 0x01FDF2EBU, 0xE1DEFD02U, 0xFEF9F6F3U,
    0xFFFBF4E7U, 0xF301FC04U, 0xF7ECFB07U, 0xEAECE5E7U, 0xEBF9E8D3U, 0xF3F2F1F4U, 0x00020704U, 0x01FCFE07U,
    0xF8030AFCU, 0xDFD7F108U, 0xEFE8DAE4U, 0xF200EDDCU, 0xF6F9F3F6U, 0x060C11FEU, 0x07FF1A16U, 0x0B0002FDU,
    0xE6E8F2F8U, 0xECEAEDF5U, 0x02040FF2U, 0x13F7F4F7U, 0x170010FBU, 0x070A1110U, 0x0D0002FEU, 0xFFF2ECFFU,
    0xF602FD04U, 0x121919FCU, 0x0706EE01U, 0x10100AF9U, 0x060D1506U, 0x1001FAFDU, 0x0201FA00U, 0xF9F301FDU,
    0x07193106U, 0x03FDFD02U, 0x0300FFFEU, 0x040E2709U, 0x10FD01FBU, 0x0117FAFDU, 0x090709FFU, 0x1D281302U,
    0xF5030008U, 0x09060BF4U, 0x07162925U, 0x140B0100U, 0x050FFF0AU, 0xFE07F808U, 0x0E221103U, 0xF5030109U,
    0x02FA0BF6U, 0xFD1221FCU, 0x0EFD05FEU, 0x160C0A11U, 0xF605FE0BU, 0x1815090FU, 0x01080E10U, 0x11010BFFU,
    0x0C03271CU, 0xFA03FD04U, 0x06FC0F0EU, 0x1A030CF6U, 0x1C160712U, 0x07141A21U, 0x170D0A08U, 0xFE0B221DU,
    0x070C01FCU, 0x0A011719U, 0x110C03FDU, 0x13170F0DU, 0x15201215U, 0x190B0D11U, 0xFE0D0611U, 0x08FC0002U,
    0x0B020C1AU, 0x0617090CU, 0x090D1205U, 0x1B0CFCFAU, 0x100D0C15U, 0x020507FFU, 0x0804FDFDU, 0xFAF70F0BU,
    0xE80208FDU, 0xEBE3E9E1U, 0x080AE8E1U, 0xEFFC000BU, 0x07FB05F3U, 0x0303000BU, 0xEEF5FDF9U, 0xEAEAECF0U,
    0xE4D5D8E5U, 0xF5E7E9E9U, 0xF8030701U, 0x0201FCE7U, 0xF8FFFE09U, 0xE0F5F0F7U, 0xD3E6E1E7U, 0xD3BEC4D4U,
    0xD9E9E0E9U, 0xF4EEF0EBU, 0x00FEFF04U, 0x07030808U, 0xF2FD0501U, 0xE5E7DDEDU, 0xDED5D2E1U, 0xE8EBE2DFU,
    0xFAFAF5F7U, 0x030401FCU, 0x0503FE03U, 0xFCFB0809U, 0xF4FE0105U, 0xF8EDED02U, 0xFDFFF5FFU, 0x04FEFAFDU,
    0x0B000805U, 0x09FBFE06U, 0x07000304U, 0x0009FD00U, 0xFF01FD08U, 0xFD050204U, 0x06FD09FCU, 0xFF0305FCU,
    0x0B050605U, 0xFF0C0900U, 0x050208FFU, 0x06040AFDU, 0x02050802U, 0xFD080207U, 0xFF08FF02U, 0x000A070BU,
    0xFBFE04FEU, 0x05FF0706U, 0x050CFCF6U, 0x0A04FCFFU, 0x0AFF0B0BU, 0xFD06FE06U, 0x05000107U, 0xFDF9090AU,
    0xF4F6F6FBU, 0x02F9EFE8U, 0xFBF4FDFBU, 0x04030303U, 0xFDFEFF0AU, 0x03010108U, 0xEBFB0307U, 0xF4F2E4EAU,
    0xE6E6DCDEU, 0xF5F1F7F4U, 0xFFFBFEFDU, 0x05020706U, 0x00060609U, 0xF0F4FB0AU, 0xECEBE8F4U, 0xFCFC0809U,
    0x060901F0U, 0x130E0610U, 0x01FD0409U, 0x04080204U, 0xF80604FAU, 0x07F7F9F6U, 0x07050E01U, 0x03F9FAF6U,
    0x07F60002U, 0x0B03040BU, 0xFE090409U, 0x07FF02FAU, 0xFCFCF6FEU, 0x0A0E0A03U, 0xF8EDF30DU, 0x05EEFDFEU,
    0x050805FCU, 0x0308060DU, 0xF90100EFU, 0x050A03FDU, 0x03030A09U, 0xF4FC0A0CU, 0x01F6FC05U, 0x00FE05F9U,
    0x0C090503U, 0xF30502FFU, 0x0B08FE03U, 0x0312F9FAU, 0xFA04F506U, 0xFAF702F7U, 0x0808FDEDU, 0x06020103U,
    0x09FA0500U, 0x06030708U, 0xFC01EFEFU, 0xFD060F05U, 0xF3F6F808U, 0xFC01EDE6U, 0x09FE0702U, 0x0C030FF6U,
    0x04080F08U, 0xF1E0EDF4U, 0xFB0B140DU, 0xF4010401U, 0x01FFFBDCU, 0x0B11FF0CU, 0x12141202U, 0x061C0507U,
    0xFAE7FCFEU, 0xFF0D1C02U, 0xF90E1011U, 0x0703EDD8U, 0x0F050806U, 0x06121217U, 0x0E07FB0FU, 0xFEEBF605U,
    0x03051901U, 0x0518010AU, 0xFF03FADDU, 0x05010CFFU, 0x06081926U, 0x07FCFF06U, 0xE4DEEA0AU, 0x04021809U,
    0xEE160B0DU, 0x0C00FFDDU, 0x100D0C05U, 0x06F50C1BU, 0x00060109U, 0xD9D9E7FEU, 0x040C1608U, 0xF7160A0AU,
    0x0306F7EEU, 0x090B0B06U, 0x0309FD08U, 0x050EF600U, 0xD9C6EFF2U, 0x040220FCU, 0xF50BFF10U, 0xFF08F8EEU,
    0xF9050000U, 0x180704F6U, 0x07FDFE17U, 0xD9CDE807U, 0x01121F09U, 0xF406F404U, 0x030D00F8U, 0xF2FD0207U,
    0x0A04FDF1U, 0x0B06FD0DU, 0xFBD3EB0BU, 0xFA141E14U, 0xFD0704F5U, 0x0C06FB07U, 0xF009070DU, 0x060301F8U,
    0x1D1E1304U, 0xFFE9D80AU, 0xF9091624U, 0xE7F70A03U, 0x0208EFE9U, 0xFE09060AU, 0x0A0108FFU, 0x02080207U,
    0x08F1D4EEU, 0x07000811U, 0xEFF2EAFAU, 0x0106F904U, 0x050D0101U, 0xFE0A03F8U, 0xE0DFE5F5U, 0x0AEFD4D2U,
    0x02FA030AU, 0xF3E5E6FDU, 0x0307050EU, 0xFCFF0004U, 0xFB0205F5U, 0xDAE0DCF8U, 0x04F4EBECU, 0x0202F907U,
    0xFEF5FD0BU, 0xFD06FA18U, 0x05050800U, 0xF3F7F1FBU, 0xEDEDE4F1U, 0x0E0A07FFU, 0xFE081009U, 0x0A05F90FU,
    0x0A030B10U, 0xFBFD0A08U, 0xEEF2F4F7U, 0xFBEEDEE9U, 0x1317FD03U, 0x01031811U, 0x0B071009U, 0x05090809U,
    0xFFFC0804U, 0xD4E2F8F9U, 0xFCEDE5E3U, 0x00F9EBF7U, 0xF0F21011U, 0x070F1314U, 0xFE0302F6U, 0x0CFF0706U,
    0xDFEA0003U, 0x02E9EFE9U, 0xF304F1F2U, 0x0C08F2FBU, 0xFA011A1EU, 0x0D060303U, 0x040203FDU, 0x0B0D0306U,
    0x1513210DU, 0x0A210710U, 0x060F1109U, 0x000E1B0AU, 0x060102FEU, 0x0909FD06U, 0x0B020CFEU, 0x040A0A0FU,
    0x11080107U, 0x10070D02U, 0x0008070DU, 0x0B08000DU, 0x00FCFAFAU, 0x07FEFF07U, 0xFA080608U, 0xFFFB03FAU,
    0xFA000906U, 0xFA0009FDU, 0xFCFFFCFDU, 0x00FE09FFU, 0x01FDFA06U, 0xFF010308U, 0xFE00FE05U, 0x01FB0A05U,
    0xFEFCFD01U, 0x06FC08FBU, 0x07090008U, 0x080406FCU, 0x050308FBU, 0x080107FDU, 0xFAFC0602U, 0x04040604U,
    0x0506FD07U, 0x07F9FDFEU, 0xFBFC0301U, 0x07050708U, 0xFF060607U, 0x01FEFA04U, 0x04080901U, 0xFB03FD09U,
    0x010406FBU, 0x070107FCU, 0xFC0107FBU, 0xFFFDF8FFU, 0x060904F9U, 0xFDFBFDFEU, 0x02FE0506U, 0x08F90200U,
    0x0401FBFFU, 0xF9FEFB06U, 0x04FAF9F9U, 0x04FBFDF7U, 0xFB08FE01U, 0x0401FAFEU, 0x0AFCFC09U, 0x0705FC03U,
    0xFCFAFBFFU, 0xFA06F903U, 0xF9FB0701U, 0xFAFCFCFBU, 0x0008FFFDU, 0x0503FF02U, 0x06010003U, 0x04FD07F9U,
    0x04FEFF05U, 0xFD0601FDU, 0x090806FCU, 0xFC0507FAU, 0x0206FD07U, 0xFBFEFC04U, 0x01FFF803U, 0xFF00FCFEU,
    0xFAFDFCFAU, 0xFBFBFDFEU, 0x010800FCU, 0x0803FBFDU, 0x010807FAU, 0xFBF70103U, 0x0400FAFDU, 0x05FA0300U,
    0xFB0605FBU, 0x010807FAU, 0x05FF0303U, 0xFBFFF904U, 0xF7F7F603U, 0xFBFEF9FCU, 0xFB020604U, 0x00FEF802U,
    0x050709FAU, 0x03FE0905U, 0x07FC01FFU, 0xFA06FBF9U, 0x06FBF800U, 0x05FBFF03U, 0x02FD0006U, 0x09090405U,
    0x0301FC06U, 0xFD0705FFU, 0x0400F8FCU, 0xF7040006U, 0x06FBFEFFU, 0xFEFAFB04U, 0x08060504U, 0xFEFE02FCU,
    0x01FB0102U, 0x05FD0604U, 0xFD06F9FDU, 0xFB06FEFDU, 0x04FC02FDU, 0x00000408U, 0x06FFFBFAU, 0x07010109U,
    0xFC05FC00U, 0xF8F9FFFAU, 0xFB01FEFAU, 0xFF09FFF8U, 0x0309FEFBU, 0x03020900U, 0x0800010AU, 0xFC05FC04U,
    0xFBF906F8U, 0x05FEFFFDU, 0xF9FAFA05U, 0xFCFD0008U, 0x08060403U, 0xFC00FC09U, 0xFB03FFFDU, 0xFE02FCFAU,
    0x0502F704U, 0x01FCFB05U, 0x01080601U, 0xFEFC06FFU, 0xFF060003U, 0xFCFE01FFU, 0xF9FD0304U, 0xFC0404FCU,
    0xFE010105U, 0xFA040002U, 0xF9FAFB01U, 0x00010100U, 0xF9FDF9FBU, 0xF7FF00FEU, 0xF8FB0607U, 0xFDFF0301U,
    0x04FDFD02U, 0x01080502U, 0x03FA0704U, 0xFB05FC04U, 0xFE0204FAU, 0xFA0103F8U, 0xFD050701U, 0x0507FE01U,
    0x00FC0100U, 0x0602FA06U, 0xFEFC0302U, 0x0100FAF7U, 0xFB01FA04U, 0x03FCFEFCU, 0x03060703U, 0xFEFA0405U,
    0x0603FDFBU, 0x0400FB04U, 0x0200F800U, 0xFA060600U, 0x05FDFA07U, 0x00060802U, 0x0403FC09U, 0xFB050A08U,
    0x04FE0405U, 0xFF01FE00U, 0xFCFF00FDU, 0x02FE04FBU, 0x06060709U, 0xFC09FC07U, 0x0309FFFDU, 0xF7F70301U,
    0xF903FD01U, 0x0605FA06U, 0xFE0609FDU, 0x02FF08FEU, 0x08FD0505U, 0x02FE0404U, 0x040204FEU, 0x010504FEU,
    0x06FDFC00U, 0xFD06FEFDU, 0xFA0503FBU, 0x0605FB03U, 0xFDFF0904U, 0xFCFD0403U, 0xFE0605FEU, 0x0401FB08U,
    0x06FE09FCU, 0x0109FD02U, 0x08FA0903U, 0xFF06FBFDU, 0x0506FDFBU, 0xFB040601U, 0x01010703U, 0x0909FF09U,
    0x04040408U, 0x00FDFEFAU, 0xFCFCFFFDU, 0xFCFE0904U, 0x09FAFFFFU, 0xFCFD0707U, 0xFBFBFD09U, 0x08FD0004U,
    0x060602FDU, 0x01060108U, 0x0407FD03U, 0xFA050103U, 0x01060808U, 0xFEFB00FAU, 0xFE0A0108U, 0x0505FBFEU,
    0xFB070906U, 0x05080902U, 0x010BF9FCU, 0x05FF010AU, 0x0505FF09U, 0x09040300U, 0x050108FFU, 0x040907FBU,
    0x05080F05U, 0x0913070DU, 0xF6010A0FU, 0xFFFFF8F8U, 0xFFFBFB09U, 0x0001090AU, 0x08080702U, 0x2E352514U,
    0x15151823U, 0xF9EC0615U, 0x0805F3F9U, 0x0207FD06U, 0x06080500U, 0xFE050EFCU, 0x13222D18U, 0x030E1220U,
    0xF2020305U, 0xF3F0E2F1U, 0xFAFBFC03U, 0x02FB0207U, 0x16130108U, 0x0B1B1315U, 0x09001211U, 0xFE040602U,
    0xEFD5E3ECU, 0x0307FAFAU, 0x07FF09FFU, 0x0F0C1212U, 0x080A04FEU, 0xFE0B2111U, 0x0102F700U, 0xE5DCF1F6U,
    0x000801EDU, 0x0B03FBFFU, 0x131B192CU, 0x14130E0AU, 0xFF0E0C06U, 0x0EFDF9FCU, 0xD7D2E5F9U, 0xFAFFF5F0U,
    0x1D0105FCU, 0x1006133BU, 0xE700FF09U, 0x1301F8EAU, 0x08010E0CU, 0xCFE0E3F2U, 0xFD06F9E8U, 0x100201FBU,
    0xE3ED0F1AU, 0xAABCC7D2U, 0x0C01E1C9U, 0x0A0F0D1CU, 0xD3E9E2F3U, 0x05F9FAE9U, 0x0C09FCFBU, 0xAAB7DC00U,
    0xD0B0918EU, 0x05FAF0E6U, 0xFAFA0413U, 0xE8DCEFFFU, 0xFFF9FBE6U, 0x06050207U, 0x9CA0C5E7U, 0x0CF7D4A4U,
    0x030F000AU, 0x00EEFF06U, 0xECD7DAF1U, 0xFF060AF6U, 0xF90004FAU, 0xD6B5C6E7U, 0x1D210FECU, 0x04050612U,
    0x01F3F2FFU, 0xEFEBE9ECU, 0xFD031111U, 0x0101F9FDU, 0x06F7DEE6U, 0x0823231AU, 0xFB0A0705U, 0xFA050305U,
    0xFAEAFBF9U, 0x0407160EU, 0xFFFB0301U, 0x150AFE03U, 0xFEFC071DU, 0xFD0505FBU, 0xF5F302F9U, 0x02FB1507U,
    0x05120A05U, 0x01070403U, 0x01110D0FU, 0xF2F1FDFAU, 0xFC0302FAU, 0xF9F5F206U, 0x0A05FEFBU, 0xFB060F17U,
    0x130AFB00U, 0x0304FA0AU, 0xFBF601F8U, 0xF3040CFEU, 0x03FEFAFCU, 0x120706F2U, 0x0B071717U, 0x1B100500U,
    0xFAF9F103U, 0xFDFC01FEU, 0xF0050FFCU, 0x04FDFA03U, 0x080EFBFBU, 0xFF0B1003U, 0x0F05FCFEU, 0x040A080FU,
    0xF7020D0FU, 0xFFF7FB02U, 0x0D080815U, 0x0B1F170CU, 0x00050C05U, 0x0B06FD06U, 0x030509F6U, 0xF5FDF9FBU,
    0x04F8F6FAU, 0x080C1307U, 0x051C1611U, 0xFC060B04U, 0x0A02FAFFU, 0x060D09F4U, 0xFBFA0CFCU, 0xFC05F6FEU,
    0x0E08ECF1U, 0xFE0B0E0AU, 0x03000502U, 0x0F06FD03U, 0xFE03F508U, 0xF900F1F5U, 0xF7F600FDU, 0x0B02FEFDU,
    0x0406FAFDU, 0xFCFE0606U, 0x160F0108U, 0xFC0A0C05U, 0x070BFE00U, 0x01F902FCU, 0xFBFDFEFCU, 0xFC01F5FCU,
    0xFBFAF706U, 0x0C00FEFBU, 0x09090B0FU, 0x0D150808U, 0xFF05FAFBU, 0xF8F4E5FFU, 0x0F0D05E8U, 0x09FFF808U,
    0x020AFC06U, 0x04080807U, 0x0906060BU, 0x051502FEU, 0x01F70AFEU, 0x040C0903U, 0x09000802U, 0x0408FB09U,
    0x1A0E0501U, 0x0319191EU, 0xFF111404U, 0x080A09FEU, 0x04FAF902U, 0xFDFF09FEU, 0x0001FD00U, 0xFBFC0103U,
    0x07FDFDFEU, 0xFCFCFFFFU, 0x05FBFEFCU, 0xFB02F802U, 0xFD020308U, 0xFC040303U, 0xFBFCFCFEU, 0xFEF809F9U,
    0x05FDFD01U, 0xFF06FFFFU, 0xFB000701U, 0xFEFAFB08U, 0xFDFB0802U, 0xFB040809U, 0x08FB0106U, 0x08FD03FCU,
    0x0906FF02U, 0xFDFE0701U, 0x0308FAFDU, 0x0206FAFCU, 0x03FE01FCU, 0xFFFDFEFFU, 0x0C050603U, 0xFCFD0001U,
    0xFA0900FDU, 0x06050507U, 0x00040806U, 0x05FE0104U, 0xFFFC0409U, 0x17050F07U, 0x090B1413U, 0x03FF0804U,
    0xFA01FA08U, 0x050204FFU, 0x080008FCU, 0xEE0004FEU, 0xF5F2F7EDU, 0xF901FF03U, 0xFE04030AU, 0x0501FE09U,
    0x0A01FFFDU, 0x0A08FE05U, 0x05080703U, 0x0AF40401U, 0xFC060603U, 0xFEF4FDEEU, 0xF90106F7U, 0x010703FCU,
    0x0016150AU, 0xFDFBFDEFU, 0x150B0A05U, 0xFAF6040DU, 0x0906F400U, 0x020A0505U, 0x04060602U, 0xF8141905U,
    0x0A03F9F2U, 0x0D090AFDU, 0xFD02FD0FU, 0x0DF8F5F9U, 0x06061B10U, 0xFF030500U, 0x00070D0BU, 0x0102FCE6U,
    0xFC120906U, 0xF3E6FAF9U, 0xFE00F2F8U, 0x01121D0BU, 0x09FA0005U, 0xFC0106FEU, 0xFA0BFCF3U, 0xF2FAFF02U,
    0xDEDEEDDFU, 0xFBF3E5EFU, 0x03112A16U, 0xF905FAFCU, 0x0EFAE803U, 0xEBF5EF06U, 0xFEF9FDEFU, 0xDBD5E4E7U,
    0x0907E5E5U, 0x0B113330U, 0xFE040705U, 0x00E9E7FCU, 0xF4EDEE05U, 0x0D1C1900U, 0x02EDFA07U, 0x11F8F9EFU,
    0xFB08302FU, 0x0205FBFFU, 0xEEE3EEF5U, 0x05EFEEEDU, 0x142B2612U, 0xFA030604U, 0xF5E0E9FEU, 0xFAFE04F9U,
    0x05FD0105U, 0xFCE8F2F4U, 0x22120CFCU, 0x030E1D1FU, 0xE6EDF9F4U, 0xD1DEEFFBU, 0xFC08F5D2U, 0x03F7FF05U,
    0x04FAFCEFU, 0x091A0D0FU, 0xF50B0811U, 0xEEE8E5F3U, 0xE7EDF206U, 0x07FCE7DFU, 0x02F90901U, 0xF9F2F5F4U,
    0x04030801U, 0xF60BF506U, 0xF7F2E7F7U, 0xF8F505FFU, 0xFFFEF3EFU, 0x0609FFFAU, 0xDAE1E6F6U, 0xF9E6E4DEU,
    0xE0F4FB03U, 0xFF04F0F0U, 0x0A050106U, 0xFB02F902U, 0x03FC0604U, 0xBDCBE901U, 0xCAB6BCB3U, 0xEAF1E9D7U,
    0x05FDF0EAU, 0x110D120AU, 0xFF07FC1DU, 0x120704FFU, 0xD8EAFFFAU, 0xB6B0C6DEU, 0xF8FDE4C0U, 0x0BF2EDFCU,
    0x100313FEU, 0xFA04ED14U, 0x0FFB01FFU, 0x08141406U, 0xDFEAFD16U, 0x1006FCDAU, 0xF8FBEFFAU, 0x0BFE05EDU,
    0xFEFC000BU, 0x0C050505U, 0x1A1F0A11U, 0x0D142821U, 0x1418130EU, 0xF6FFF108U, 0x200C02F4U, 0xFD07FF1CU,
    0x09FC02FCU, 0x11110404U, 0x110A1721U, 0x0A120C18U, 0xFE050B10U, 0x1C2000F8U, 0x060803FFU, 0x03010906U,
    0x1000F701U, 0x0D0B040CU, 0x13160810U, 0x0708F8FBU, 0x0C13110DU, 0xFF05F7FEU, 0x01FCFA04U, 0x04FB0807U,
    0x0A0A05FCU, 0x04FE0201U, 0x0A080408U, 0x0E050810U, 0xFB070002U, 0xFEFA0902U, 0xFBFD0A0BU, 0x0D0A1304U,
    0x0F030213U, 0xF1F5FA09U, 0xF8FCFC05U, 0x01FA0104U, 0x040301FFU, 0x070600F9U, 0x06051A11U, 0xF102F9FDU,
    0xFDF8EFE6U, 0x03FFFEF5U, 0x01FF0607U, 0x06FDFBFAU, 0x0207FEFFU, 0xF2EC0B0AU, 0xE8F7FBF0U, 0xFDFBF8F0U,
    0xFA05FDF3U, 0x02FE02FEU, 0x020904FAU, 0xFCFBFA09U, 0xF5FDF805U, 0xFFF9F9FBU, 0xF60206FEU, 0xFD040208U,
    0xFDFBFBFEU, 0x04FAFE06U, 0xF908FCFFU, 0xFE0606F9U, 0x00FDFC08U, 0x07F906FEU, 0x03FCFC06U, 0x0808FA01U,
    0xFFFE070AU, 0x03080600U, 0xFE00FEFCU, 0xFFFE0408U, 0xFF07FEFEU, 0xFD0304FDU, 0x07050406U, 0x0B09FCFFU,
    0x060B080BU, 0xFBFC05FCU, 0x0B00FF05U, 0x05000607U, 0x09010002U, 0x030901FEU, 0xFE090007U, 0x08FDFCFFU,
    0x03030507U, 0xFDF60101U, 0x02FCFFFCU, 0x02FDF8FEU, 0x0A050607U, 0x0301FF09U, 0x0701FD03U, 0xF2FBFBF6U,
    0xE7DED9E4U, 0xF7FAF3F1U, 0x07FC00F7U, 0xFE0600FFU, 0xFE02FFFEU, 0xFE0607FBU, 0xFDF801FAU, 0x0C101004U,
    0xFE0C04FAU, 0xF6F7EDF2U, 0x0A020605U, 0xFFFD0606U, 0xF6000302U, 0x0DFEFDF6U, 0x0D191116U, 0xFE0B150DU,
    0xE8EA02FBU, 0x09FD0BF2U, 0x040901FFU, 0xE9F6FDF8U, 0x03EEEFEEU, 0x1C100702U, 0xFD0C1D1EU, 0x05010C04U,
    0x0802F9FDU, 0xF90A0406U, 0xDEE4F801U, 0xF5FAFBE3U, 0x1400F5FBU, 0xFD112018U, 0x06FF0606U, 0xFBFAFF06U,
    0x00000504U, 0xF7FDEBFBU, 0x110E0FFAU, 0xEEEE0208U, 0x0E1301F6U, 0x080E0B03U, 0x09FF0011U, 0x020901FDU,
    0xFAFEF0EFU, 0x0A0B0809U, 0xD9E9080DU, 0x1A0A01E0U, 0x09070A18U, 0xFC01F8F6U, 0xF3FD0602U, 0x0AFDF2F6U,
    0x06FBFA05U, 0xD5EBF906U, 0x0B1209E6U, 0x0A110A0CU, 0xFBFDEEE9U, 0xF3030609U, 0x1403FDE7U, 0x1200FE14U,
    0xEDEFFA01U, 0x00F704F8U, 0x0C090B01U, 0x0406F9FAU, 0xFEFC0108U, 0x0607F7EDU, 0x040203F6U, 0x00000B04U,
    0x0D0206FEU, 0x12061305U, 0x0901FFFFU, 0xFE05FD05U, 0xFAFAF1F7U, 0x0309FDFAU, 0x07130BFDU, 0x0CFD0301U,
    0x101D081EU, 0x050202F7U, 0x05FB0701U, 0xFDFB0706U, 0x0D09F3F1U, 0x050D13FAU, 0x0B0A07F0U, 0x03FF0B0DU,
    0x0001FFEBU, 0x00060A0AU, 0xF5F2FF0DU, 0xF50C09F5U, 0x07120104U, 0xFFFD01F6U, 0x07140AF9U, 0xFFFA01EDU,
    0x07FF03FCU, 0xF8FFFC00U, 0xFF060406U, 0x0E060A05U, 0xF0EA050DU, 0xFA090902U, 0x05F8FBEEU, 0x020BFF00U,
    0x0CFBF90AU, 0xF7F81116U, 0x0AF80706U, 0xE0DC0817U, 0x09FB02F4U, 0xFFFDF5FBU, 0x04020302U, 0x070510F7U,
    0xF1F4FA00U, 0xF5E1F5ECU, 0xE1E2FC06U, 0x09FFF8E1U, 0x0409FA02U, 0x0104070AU, 0xF8090B02U, 0xDFEAF9FFU,
    0xF4EAF3E8U, 0xE8030400U, 0x0D02EDE6U, 0x06FFFFF9U, 0x070D05FDU, 0x03020704U, 0xECF9F8F0U, 0xFEF105F7U,
    0xF5FC0DFEU, 0x08FEFCE5U, 0x06FBF800U, 0x050BFCFFU, 0xF703FF09U, 0xFBF801FEU, 0xF9EC0AFBU, 0xF0E2FAF8U,
    0xF803F3EBU, 0x030500EFU, 0x09070AFCU, 0xFE09EAFDU, 0x16FF0CFFU, 0xF7FC0612U, 0xE4E6E3E4U, 0xF8F6DBDCU,
    0xFEFDFFFFU, 0x05040602U, 0x07E8E3F1U, 0x13100C0EU, 0xFE0F1813U, 0xECF2F000U, 0x0003F8E8U, 0x0BFA02F9U,
    0x02FD080BU, 0xF1EBF005U, 0x0300FCFBU, 0x0D011100U, 0xF911031BU, 0x0710FBFCU, 0x0A0900FBU, 0x02010904U,
    0xFF010009U, 0xF503EBF7U, 0x061AFCE3U, 0xFC0C0F06U, 0xFDFAFCFCU, 0x030705FCU, 0x020A020BU, 0x0F050B01U,
    0x0300060BU, 0xF40CF8F7U, 0x030508F2U, 0x02FD04FEU, 0x06070309U, 0x03FC0609U, 0xFFFD0004U, 0x05030007U,
    0x0A080408U, 0x0204FD02U, 0x09FEFD0CU, 0x06FE08FEU, 0x0901090DU, 0x01FE0506U, 0xFF010C03U, 0xFEFF0900U,
    0x0508FF06U, 0x01FF030EU, 0x000E0306U, 0x0B040AFEU, 0x030B0908U, 0xFD030200U, 0x09020809U, 0x070A0704U,
    0x0B070B05U, 0x0C04010BU, 0x00030305U, 0xFB000B0BU, 0x01060403U, 0x060203FDU, 0x0908FD07U, 0xFF06030BU,
    0x080C070DU, 0x020B0B03U, 0x04FD0107U, 0xFEF600F7U, 0xE7F6EBF1U, 0xFD0403F7U, 0x090D0400U, 0x0702000DU,
    0xFE060A00U, 0x010606FEU, 0xF4F3F8F9U, 0xDFD8E8F9U, 0xF5F4E7E8U, 0x0E0707F6U, 0x0A080902U, 0x02030702U,
    0x120D0B03U, 0xFC071C10U, 0xFFF8ECFFU, 0xE2F5F4FCU, 0xFCF4E0E3U, 0x08060C07U, 0x0B060BFFU, 0x0C120A00U,
    0x080C1316U, 0x0806040BU, 0xF6031310U, 0xE8F4FA00U, 0x04FF0802U, 0x0A0D0A0AU, 0xFE02EF07U, 0xF406FFF8U,
    0xFFFE0F10U, 0x07FA0902U, 0x0604FCFFU, 0x09081004U, 0x1105FF0BU, 0x0EFFF307U, 0x0F00110EU, 0x09FDFCFFU,
    0xFF07FCFCU, 0x0504FF05U, 0x00011104U, 0x120F0B0DU, 0x1514060EU, 0x01050710U, 0x04091205U, 0x05080DFAU,
    0xED05FD00U, 0x0703FF00U, 0x0E0F0E03U, 0xF9080301U, 0x02070604U, 0xF8EF0507U, 0x10060100U, 0xF7FAFF09U,
    0xFFFDFFEFU, 0x150B0507U, 0x010E010AU, 0x050A010DU, 0x05F3EBFCU, 0x08121813U, 0xFA030814U, 0x05FAFBF2U,
    0x0A0F0C0DU, 0x0705FAFBU, 0xF0FFF503U, 0x1C04EDE6U, 0x0E171819U, 0xF8F90507U, 0x03FDF6E9U, 0x0210060CU,
    0x0C0A0511U, 0xFAF8FAFCU, 0x120CFFF0U, 0x180D0D17U, 0xE0F30614U, 0x0AFEF4E0U, 0x0806040AU, 0x0F06F208U,
    0xF7FFFEFEU, 0x1908FDFFU, 0x13191A0DU, 0xD3E1F00EU, 0x03FFFADBU, 0xFC07000BU, 0xEFEDE3FCU, 0x120BFFF7U,
    0x1F080207U, 0x1B161312U, 0xE6E7FF0FU, 0xFFFCE8DEU, 0xFF090B05U, 0xFBF7E9FCU, 0x04030306U, 0x14040209U,
    0x0B0B110DU, 0xD1CEF60EU, 0xFFFDEBDCU, 0x03030DFFU, 0xF8E5EEF6U, 0x07070100U, 0x19110703U, 0x030B0608U,
    0xD7CDE8F9U, 0xFD04FAE0U, 0xF80D0204U, 0xCED4ECFAU, 0xEFE9D6DEU, 0x0F0000FAU, 0xF1000302U, 0xD6D8F0EAU,
    0x020405E2U, 0x010A0804U, 0xD8E8F90DU, 0xD7D6CBCCU, 0xF6F9EAE4U, 0xF9ECF2FCU, 0xD1DDD8E5U, 0x0905FCE8U,
    0x07090508U, 0xE8F0FA07U, 0xDBDBDED8U, 0xE5EEEBE0U, 0xE8E4EFF8U, 0xDFE4E6DCU, 0x060B02F3U, 0x0AFF010DU,
    0xF0F30704U, 0xE7EFF8FBU, 0xE4DEEAF6U, 0xDEECE3F2U, 0xEBF2E9E7U, 0x0CFB0200U, 0x050D000BU, 0x0EFC0104U,
    0xF111FD05U, 0xECEFEFEFU, 0xE4EBEAEEU, 0xF7E8E1DBU, 0x0C0B01F6U, 0x0D0C0AFEU, 0x0E100A08U, 0x0305F3FBU,
    0xE7EAEDF3U, 0xEEEAECE6U, 0xFDFCEFF2U, 0xFF0905FBU, 0x0D000B07U, 0x151F2715U, 0xF1F3F500U, 0xEAE5E5EEU,
    0xF2EBE8EAU, 0x02F9EEF5U, 0x0D010102U, 0x03060506U, 0x12162317U, 0x04F6FF09U, 0xEDF5F402U, 0x00030000U,
    0x08FBF900U, 0x0B020402U, 0x09010804U, 0x190F0B01U, 0x0D262A26U, 0x1B2E1B0EU, 0x15132422U, 0x0B080405U,
    0x00050702U, 0x02020705U, 0x1107010DU, 0x020A0207U, 0x10140810U, 0x08150F0AU, 0xFF0D040AU, 0x00000704U,
    0x0A03FC07U, 0x01090BFCU, 0x08FF0106U, 0x020A0604U, 0xFEFCFC02U, 0x020009FEU, 0xFC03FF09U, 0x0208FB09U,
    0x01FD01FFU, 0xFF080909U, 0xFEFC05FEU, 0x00070AFAU, 0x04060501U, 0x05010406U, 0xFB050208U, 0xFF06FBFCU,
    0x000B0809U, 0x18140911U, 0x01030D13U, 0x08070F02U, 0x05FF0800U, 0x02050B06U, 0xFEFE080AU, 0xFB070A07U,
    0xFF0A0705U, 0x07F9EE04U, 0x000A09F5U, 0x0103F809U, 0x02FC080AU, 0xEEFE010AU, 0xF804FDF5U, 0x030A120BU,
    0x08F3FA08U, 0xFEF8020CU, 0x06FB03FCU, 0xFBFF05FFU, 0xE3F5F803U, 0x00FC04EEU, 0x05170509U, 0x09F6F4FCU,
    0xF4070A16U, 0x0409FFF1U, 0xFF020206U, 0xE5D9EFF8U, 0xFBF7F0F5U, 0xFD000206U, 0xF9E1DAE3U, 0x04F8F4FAU,
    0xFE080FFDU, 0xF3070007U, 0xFADEE8E7U, 0xFF02F604U, 0xEF0A0402U, 0xEDEBE0DCU, 0xFAFBF0EEU, 0x090802F9U,
    0x010005FEU, 0xFFF1ECEAU, 0x100100FAU, 0xF5011113U, 0xFAF3E5D0U, 0xFCF6F4F7U, 0x05060A03U, 0xF407FE05U,
    0x02F4E7E2U, 0x03F8F3FBU, 0xE9F7FEF9U, 0x04F8EFDAU, 0x0E050B02U, 0xFF03030CU, 0xF1000107U, 0xF5EEEEE7U,
    0x0507F7ECU, 0xEAFC010CU, 0x0B02EADCU, 0x08080CF6U, 0x03FC0209U, 0xE5FBFC0AU, 0xF3FAF5E2U, 0xFAF901EFU,
    0xF502030AU, 0x0608E9E9U, 0x0C00FFFAU, 0x08FEFD03U, 0xFAFB0100U, 0xFAEEDCE1U, 0x05F2F9FBU, 0xFB0F150CU,
    0x03F5F9F5U, 0xFC0A0D04U, 0x0308FF08U, 0xF3FE0201U, 0xF9EBE5E7U, 0x02FA0306U, 0x0B0B1A0DU, 0xFC01F6FAU,
    0xFC0B0D0CU, 0x0009FFFAU, 0x0A050500U, 0xF8F5E6FEU, 0x0DFE0201U, 0x0E1F18FEU, 0xF8FFFF06U, 0xF80AF1F9U,
    0x08060606U, 0x02FCFD06U, 0x01F9EDF8U, 0x0B070A0CU, 0x081D1005U, 0xF2F4F1FDU, 0xF600EDE8U, 0x080518F9U,
    0xFFF90A05U, 0x0407F9F3U, 0x10170D08U, 0x0E16100BU, 0xF7F80511U, 0x0A0BFAECU, 0x0A081B0CU, 0x00FC06FDU,
    0x061603FCU, 0x0A181906U, 0x0806FDF9U, 0x01020106U, 0x01050902U, 0x00FD1908U, 0xFBFE09FFU, 0x1A12FE0AU,
    0xFE0D1912U, 0xFD0C0705U, 0x06F90004U, 0x08F4FD0DU, 0x0A080913U, 0x02FBFAFEU, 0x0408F3FDU, 0xFE0D0DFFU,
    0x0402F6EDU, 0x01FA0905U, 0x10FE0209U, 0xFE040D0EU, 0xFB080600U, 0x0402F501U, 0x010400FEU, 0x0208F102U,
    0x0F0F0200U, 0x04120917U, 0x0401FD0DU, 0x00060B04U, 0x0202050AU, 0x07F905FBU, 0x08030AFFU, 0x0F0F0FF8U,
    0x0A0F120DU, 0xFE0B0EFFU, 0x0A04FC04U, 0x0F041008U, 0x000BFF07U, 0xF4F10209U, 0x10FBF8F2U, 0x07F90C04U,
    0x07FF0704U, 0x00030305U, 0xF3F60406U, 0x0500FFFAU, 0xFCFBF907U, 0xFAF2F103U, 0xF7FBF6FDU, 0x08FEF8EFU,
    0xF609FC01U, 0xEDEDF7F6U, 0x000510FDU, 0xF5F7F8FFU, 0xF6DDD9F8U, 0xFFFCF5E7U, 0xFB080002U, 0x0402070AU,
    0xF0F8ED00U, 0xE3F2ECECU, 0xE8E0DAE7U, 0xDFE1D2E1U, 0xFC00FEEDU, 0x08040608U, 0xFD070708U, 0xFBFC05FFU,
    0xEFE4ECEFU, 0xE9E0EFEBU, 0xEBEEEAFAU, 0x00FAF7F8U, 0x01FD0106U, 0x06020AFFU, 0xFE05FD0BU, 0xF7FD0103U,
    0xFC04F909U, 0xFA070203U, 0x0A030809U, 0x03070309U, 0xFCFEFB02U, 0x02FDFBFCU, 0xFE040400U, 0x08FCFB06U,
    0x06F90404U, 0x04FC02FAU, 0xFAF9FAFCU, 0xFEFE01FDU, 0x07FE0702U, 0xFDFD07FDU, 0x06FDFFFEU, 0xFBF900FAU,
    0x01FFFF01U, 0x0300F9FEU, 0xFAFBFC06U, 0x0307F904U, 0xF903FC06U, 0xFAFA03FBU, 0xF7FDFEFCU, 0xF9F901FBU,
    0x03FE02FDU, 0xFC000702U, 0xFCFEFAFEU, 0xF1ECEEF7U, 0xFAF0F5EEU, 0xFB0002F3U, 0x07FFFF02U, 0x080809FDU,
    0xFB08FFFFU, 0xFD04FC02U, 0x140FFF04U, 0x0A060119U, 0xF5FFFCFCU, 0x04FBFCF8U, 0xFB070304U, 0xFBFC0207U,
    0x05FDF1FAU, 0x0C0B0301U, 0xFFFE070AU, 0x01060A0AU, 0xFC040617U, 0x06080B04U, 0xF6FF06FEU, 0x12FB02F8U,
    0xFC05131BU, 0x03FCFF08U, 0x02F0FAEAU, 0x07F9F3F6U, 0xFDFF1B18U, 0xFEFC02FEU, 0x0C070CF8U, 0x10161D28U,
    0x02E6FEFDU, 0xFCFC00FAU, 0x1D0402FBU, 0xFDFA1C24U, 0xFEFDFD05U, 0x0A1A00F3U, 0x120F1A09U, 0xFCE0F708U,
    0xFF01FB07U, 0x200BFF03U, 0x08101530U, 0x04FFF9FAU, 0x040F07FBU, 0x0B0B0B12U, 0xDDE0F408U, 0xFEF502FEU,
    0x2108FF06U, 0xFD0B2825U, 0xF7F70702U, 0xFC10F9FBU, 0x0F060A01U, 0xDDE70C1AU, 0xF4F4F2E9U, 0x1A1403F8U,
    0xFD121E25U, 0xFB060701U, 0x030BFDF3U, 0x140A0D07U, 0xE907232DU, 0x02F806EBU, 0x180D07F6U, 0xFF102A24U,
    0x03030005U, 0x050003F6U, 0x1601FD07U, 0xF20B2E27U, 0x02FF00F0U, 0x05E5FC02U, 0xFD0B1018U, 0x0000FAFFU,
    0xFAF4F0F3U, 0x10060907U, 0x00061713U, 0x0E06FC02U, 0xF4F8F205U, 0xFF0BFBFBU, 0xF8020701U, 0xD9E5DBF3U,
    0x0800EFF4U, 0x0A080BF6U, 0xFEFD1103U, 0xEEF2FAFAU, 0x08FEF0F3U, 0x03FCFCFFU, 0xE1D0D7F8U, 0xF102FCE9U,
    0x04030506U, 0xF305F9F6U, 0xF5EEEDEEU, 0xF9FBFBFDU, 0x0500FA05U, 0xE1F2E101U, 0xFB00FCF1U, 0x09031011U,
    0xFDF607F6U, 0x0EEFF5EDU, 0xFFF7F802U, 0xF906FEFFU, 0x01120805U, 0x05FF01F8U, 0xEBFB0203U, 0xF9F2EBEFU,
    0x1B03FCEEU, 0xFCFBF212U, 0x0606FBFBU, 0x12281A0CU, 0x0A0A080EU, 0xFAF80509U, 0xFFF7F6E7U, 0x2108F5F5U,
    0xFD00EF0CU, 0xFC08FDFCU, 0x071A1DF8U, 0x02090619U, 0xFFF3F802U, 0xFAF5EFE3U, 0x1F0E03F5U, 0x04FFF20BU,
    0xF4FBFA08U, 0x161A00F0U, 0x08080A1AU, 0x05F3FC0CU, 0xFDFFF4EEU, 0x0F10FAF2U, 0x04F9FBF8U, 0xFE02FD03U,
    0x0710F3F4U, 0x0A031302U, 0xF9FEFDF7U, 0xEDF5F5F0U, 0x07120006U, 0x060108F1U, 0xFBFE0502U, 0xFAF0E5FBU,
    0x0DF6FDF7U, 0x040C0C0EU, 0x00F0EFFCU, 0x020C01F8U, 0xF9000705U, 0x09FA05FDU, 0xEAF2EBFEU, 0x0603F7F6U,
    0x0010121AU, 0xFCFA010FU, 0x0A08FDFAU, 0xFAFD0406U, 0x04FD0201U, 0xECEBEAF0U, 0x0F0C03F3U, 0x0312181DU,
    0x16110E1BU, 0x08F8F600U, 0x04FF0100U, 0xFEFBFB06U, 0xE8EDEAF8U, 0x0001F0E8U, 0x29130BF8U, 0x1022252EU,
    0x00FE0A0BU, 0x0706F909U, 0x0207FD08U, 0xE8F1FB02U, 0xFCF1F1EEU, 0xFAF1F006U, 0xFB0400FBU, 0xFCFE01FFU,
    0x01F9F903U, 0xFA0203FDU, 0xFF0008FCU, 0x030103FDU, 0x060403FDU, 0xFEFD02F8U, 0xFCF901FAU, 0x06040300U,
    0xFB02FDF9U, 0x0405FEFDU, 0x0303FDFEU, 0x00FF0708U, 0x08050305U, 0xFDF90004U, 0xFB040805U, 0xFFFE09FAU,
    0x040806FFU, 0xFDF90806U, 0x020605FDU, 0x02FFFA07U, 0x08FE0700U, 0x080201FFU, 0x090700FFU, 0xF90103FCU,
    0x01FDFDF9U, 0xF702FEFAU, 0xFA03F2FDU, 0x0201FC06U, 0xFFFF0203U, 0xFC090807U, 0xFE030607U, 0x02F4F6F6U,
    0xEEE8F5FBU, 0xFCF2F5EBU, 0xF6FDF9F1U, 0xF9030805U, 0x0800F900U, 0xFA02F4FFU, 0xF7EDF5F8U, 0x1C0502F5U,
    0x18222213U, 0xF6FAF70AU, 0x0302F7F4U, 0x060801FEU, 0xF2F1E9F3U, 0x03000602U, 0x030C1307U, 0x0D1B0A03U,
    0x0E0F0806U, 0x0404FC03U, 0x0205FFFDU, 0x04F5FCFBU, 0x04070A0EU, 0xF50C1211U, 0x110405FBU, 0x00100EFFU,
    0x02060101U, 0xFF0A0207U, 0x1006F7FBU, 0x1D16160CU, 0xF9081A0FU, 0x160E0B0DU, 0x020A0B10U, 0x080007FEU,
    0xFA0507FFU, 0x050505FBU, 0x12110D0BU, 0x161C111AU, 0x1110130EU, 0x06060003U, 0x0508F8F6U, 0xF80400FDU,
    0x15051608U, 0x0B0E07FAU, 0x0F111312U, 0x0C1C0D06U, 0x0D08030CU, 0x07FDFCFCU, 0x0302FE03U, 0xF8000D11U,
    0x0F0F0B06U, 0xEFE2FF10U, 0x08180FFFU, 0x09060D13U, 0xFB0CFE00U, 0xFD0A0702U, 0x0105060DU, 0x0C100CF9U,
    0xCBB3CAF7U, 0xF700FFE9U, 0xFCFD02FDU, 0x0207FFF6U, 0x030806FCU, 0x1005FAFEU, 0x060D0510U, 0xDABBBBEEU,
    0xE3F804EAU, 0xF5FDF4EDU, 0xFC0B00F4U, 0xFDFC0203U, 0x0EFBF4FCU, 0xF4FE0205U, 0xE2E5D5CEU, 0xDEEEF9F3U,
    0xF5EEECE1U, 0x0806FBFFU, 0x00030402U, 0x02FE05FCU, 0xD0F4FAFAU, 0xECF2D6BDU, 0xE0F2EDE7U, 0xF1F1F2EBU,
    0x0602FBFCU, 0xF506F8FCU, 0xF9F505FEU, 0xCBE3E9EFU, 0xEBE4DBDAU, 0xE3F4F3F5U, 0xDFEAF6F5U, 0xFC0AFAFEU,
    0xFA0208FBU, 0xF1E706F2U, 0xE8E6E6EFU, 0xF9F1ECECU, 0xE8E7F5FAU, 0xEEE8EFECU, 0x050001F1U, 0xF500FCFCU,
    0xE7E7EFF7U, 0xF10AFBF4U, 0xEEF5E8EFU, 0xF7F6F2F9U, 0xFCEEF6FFU, 0x04020D04U, 0xF70108FFU, 0xF8E0E9F2U,
    0xF60200F7U, 0xE8F1EAE6U, 0xFBFAEEE7U, 0x0AFE0004U, 0x03090E03U, 0xF3FC0705U, 0x010BF9F9U, 0xFAFEFBF8U,
    0xF5F2F4F4U, 0x02F8F7F1U, 0x04160612U, 0x090A0C02U, 0x020404FFU, 0x04060E00U, 0x11FCFA03U, 0x040C0C16U,
    0xFAE9F2FCU, 0x09091109U, 0x00060900U, 0x02FDFEFFU, 0xF9FB0608U, 0x1F110AFCU, 0x171C1314U, 0x02020606U,
    0x090F0AFCU, 0xFDFC06FDU, 0x0AFF08FCU, 0x010C1202U, 0x0F0C1D19U, 0x15111507U, 0x02071313U, 0x0916FD02U,
    0xFA050601U, 0xF905F9FAU, 0x17150A09U, 0x01121A08U, 0x10080108U, 0x17111606U, 0x090A04FAU, 0xFBFE060BU,
    0xFC0209F9U, 0x0100FE05U, 0xF2F2FD02U, 0x0CFE01F8U, 0x0C181906U, 0x0D0AF5EFU, 0x04FE0912U, 0xFCFE09FEU,
    0x1AFAFA01U, 0x07021221U, 0x1B100913U, 0x16111202U, 0xFC03F6EEU, 0x04FEFC0BU, 0x020106F9U, 0xFAEFEDF8U,
    0x00F90719U, 0x140C01F9U, 0x1C15090CU, 0x07FAF801U, 0xFE0900FBU, 0x02FB0603U, 0x06FAFCFEU, 0x050C09FEU,
    0x0409050CU, 0x02FA0201U, 0xFF0203FAU, 0x09FD0600U, 0xF80600FEU, 0x01050504U, 0x0105F9FCU, 0x04FA0405U,
    0xFBFFF7FFU, 0xF9F7FCFCU, 0xFEFDFA05U, 0xFFFB0305U, 0xFCFBFFFBU, 0x04FDFAFFU, 0xF5F7FC02U, 0x04FFFB06U,
    0x060200F8U, 0xFE07FC02U, 0x06F901FEU, 0xFC020401U, 0x17180C09U, 0xF6090711U, 0xF8FB08FFU, 0x0505FCFCU,
    0xF7F7FD00U, 0xFF010101U, 0x0BFD0001U, 0x14121B0BU, 0xEDF6FEFEU, 0xF5FDF3F1U, 0x00FEF3E7U, 0x0502FAF6U,
    0xFAFDFD04U, 0x04010201U, 0x0E0D181CU, 0xEAF70310U, 0xFB0401F7U, 0xDBEEE5EFU, 0xF8FAF2ECU, 0xFAF90004U,
    0x08F6F603U, 0x0606FC09U, 0x12141217U, 0x07061913U, 0xD7E8FB03U, 0xF7F9F8DFU, 0xF9FC02FDU, 0xEFEFECF7U,
    0x02FBEBEAU, 0x0F010005U, 0x030B0D15U, 0xE5EEF9F9U, 0x05F8FADFU, 0xF605FAF9U, 0xE6EDE3FAU, 0x01FA02F7U,
    0xFFFFFCF9U, 0xEBFBF007U, 0xE6FE01E3U, 0xFEF7F3F3U, 0xF80306FEU, 0xE6E9D8FBU, 0x04F0F3EBU, 0x01080E06U,
    0xF1EDF1FFU, 0xF3EEFBEEU, 0x06FB02FEU, 0xF9F70503U, 0xEAEBE9F7U, 0xF8FDF4E1U, 0xFE051210U, 0xF5F6FDF3U,
    0x02F108FAU, 0xF0EFFDF9U, 0xFC020106U, 0xF00B1509U, 0x00F4F6EDU, 0xE600FF0BU, 0x04FBF7E2U, 0x05FE01FFU,
    0x01F5E8F1U, 0x030203FCU, 0xFD1A1E0EU, 0xFCFAFCF4U, 0xD4ECE9F0U, 0x0FFCF1E0U, 0x0BFF0B09U, 0xFAFEF0F4U,
    0x10FFF9F7U, 0x010A1816U, 0xDEEC07F6U, 0xE0DED9C8U, 0x1B07FFF6U, 0x14140B0AU, 0x04EBF602U, 0x09FAFAF9U,
    0x0F060C1CU, 0xDA0A0E0EU, 0x00ECE0C6U, 0x1100FF0BU, 0x16221800U, 0x07000701U, 0x12FAFC06U, 0x0513F60EU,
    0x10171A14U, 0x09FEFDEFU, 0x03FEFE07U, 0xF20913FAU, 0xFD0A1406U, 0x10FDF9F7U, 0x15040416U, 0x0C121909U,
    0x090E1513U, 0x0DF80602U, 0xEBFFFF00U, 0xFA000CFCU, 0x0CF903F7U, 0xFD05120CU, 0x1E0C0104U, 0x070F1218U,
    0xFEFA0A10U, 0xEF04FAFBU, 0x051019FDU, 0x0801F706U, 0xFE010A0BU, 0x1A0B0300U, 0x11FB0419U, 0xF8EF040DU,
    0xF50705F5U, 0xFA0A1A04U, 0x01F602FBU, 0x020DFB09U, 0x14131406U, 0x0E010313U, 0xF7F3FB05U, 0x080C0304U,
    0x0700100CU, 0xF1FB0304U, 0x0705FFFAU, 0x131C0601U, 0x02050107U, 0x0E0508FDU, 0x12161304U, 0x01FC1107U,
    0xFFFEFBFAU, 0x01FC100EU, 0xFD0F0508U, 0x1407FDFDU, 0x080DF6FFU, 0x190E1003U, 0xFB03141EU, 0xF90106FAU,
    0x060E03FEU, 0xFEFE0302U, 0x030907FBU, 0x061501F9U, 0x2522FBFBU, 0xF8FB0413U, 0xFE0801FBU, 0x0C11FA04U,
    0x11090303U, 0xF8F9FD09U, 0x0911EEFBU, 0x19261208U, 0x05F9FE0DU, 0xF8F8FC00U, 0xFAEBE6F7U, 0xF5051117U,
    0xF6F7ECF9U, 0x0E09F6FAU, 0x13332315U, 0xFBFB010AU, 0xFE04FA06U, 0xE5D1D1E4U, 0xF9E9F9EFU, 0xFFF8F2F6U,
    0x0908F4F7U, 0x18101315U, 0x03F70105U, 0xF4020102U, 0xF7F6F7FAU, 0xFCEBDEE9U, 0x07090BFCU, 0x1C0AF306U,
    0xFD051519U, 0xFBFEF901U, 0xFE0105FFU, 0x070F04FAU, 0x0704F30AU, 0x0412121AU, 0x08FBFA03U, 0x00FA0510U,
    0xFFF904FDU, 0xFF06FEFEU, 0xF8FBF7FEU, 0x0903FDFFU, 0xFE02F804U, 0xFCF8FDF9U, 0x0103F6FFU, 0xFDFC0205U,
    0xFA04FA05U, 0x0504FF05U, 0x02FF0302U, 0x03FF0806U, 0x04040504U, 0x08FE00FCU, 0x040405FFU, 0x0AFF0104U,
    0x09040804U, 0xFC03FF04U, 0x0406FC06U, 0xFF00FFF9U, 0x0009FD04U, 0x08FDFE06U, 0xFEFD01FAU, 0x03010401U,
    0xFF070309U, 0xFBFBF6FDU, 0x06FE0201U, 0x05FBFC0AU, 0xFCFB00FFU, 0xFFFE0703U, 0xFB010A04U, 0xF9FCFA08U,
    0xE9F9F907U, 0xFF0D02ECU, 0x05FEFB00U, 0x0709F901U, 0x0A050607U, 0x0F07FD06U, 0x08070507U, 0xFFF90D08U,
    0x010DFCF9U, 0xF407F7F5U, 0x090708FCU, 0x01FB01FDU, 0x0A13160CU, 0x08060003U, 0x00FBFF01U, 0xFBFE0807U,
    0x090BF2FBU, 0x07040504U, 0x04FB0200U, 0x030F120CU, 0xFBFD0A06U, 0xF6040703U, 0xFF0DFC00U, 0x1208FC04U,
    0x0B08181EU, 0x01FA0907U, 0xF50A1511U, 0x07FE07F7U, 0xF607FFFFU, 0x050C080EU, 0x15090516U, 0x0115181BU,
    0x09080609U, 0xFE000715U, 0xFD041101U, 0x01040C0CU, 0x0E120D0CU, 0x13171C16U, 0x000A1523U, 0x0BFD0100U,
    0x030D011AU, 0xF9F60400U, 0xF40407FCU, 0x05FD01F9U, 0x0B25130CU, 0xFCFD140EU, 0x1A040604U, 0xFBFDF50CU,
    0xF0F5E0F5U, 0xDDEFF9FAU, 0xE5E5E1E6U, 0xFC00F8F6U, 0x040200F6U, 0x0A0000FDU, 0xE2E5E708U, 0xEAF1EBEAU,
    0xEEF40B08U, 0xE1E2DCE4U, 0xE3D8D3DCU, 0xFF0204EAU, 0xFFFD09FEU, 0xEDE9EF06U, 0x0806FAF6U, 0xF80B0C0CU,
    0xD3F1F6F6U, 0xDDCFCFDBU, 0xFBFAF5EEU, 0xFEFB08FFU, 0xF4F40306U, 0x0903FEF9U, 0xF50F1A15U, 0xE201FB02U,
    0xE5D1D2DCU, 0xFE04F9EDU, 0x00FE0305U, 0xFFFDEF08U, 0x05060408U, 0x06030D13U, 0x0203F1F7U, 0xF8F2E9F5U,
    0xF9FEFF00U, 0xFFFE09FFU, 0xEBECE7EBU, 0x18120DFAU, 0x000A0F22U, 0x0CFFFDFFU, 0x0B110B03U, 0x0601FFF7U,
    0x060C08FEU, 0xBECDDDF1U, 0x1108F6CCU, 0xF60C1416U, 0x0B09F9FAU, 0x08130E00U, 0x0402FDFFU, 0x0FFFFCFEU,
    0xB7B8D1F5U, 0xBF9F99A1U, 0xF7E6DCCCU, 0x050F04F9U, 0x050F0B0FU, 0xFDFBF6F3U, 0x1F0D0206U, 0xE7EAE409U,
    0xA59B9DC6U, 0xE9D7C7ABU, 0x0F0F07F8U, 0x04070F10U, 0x0800FCF0U, 0x1E090506U, 0x02FBFC18U, 0xDBE5E4FCU,
    0xEEE7ECE0U, 0x05FAFFF8U, 0x0B0B0516U, 0x0008FCFAU, 0x16040204U, 0x090A1211U, 0x08161624U, 0x05090203U,
    0x00FEF7FAU, 0x0A04F707U, 0xFA06F9FCU, 0x10000208U, 0x19140913U, 0x15130F12U, 0x000A0D1DU, 0x07F8EDEFU,
    0x03FFF401U, 0x06FC03FEU, 0x1A04FBFAU, 0x09FC0518U, 0x0C0408F7U, 0x0A050B0BU, 0x12F9F9FDU, 0x010205FFU,
    0x06FCF9FEU, 0x18FE05FDU, 0x0C12231DU, 0x16181302U, 0x11090905U, 0x0407020AU, 0xFBF7F0F9U, 0x00060504U,
    0x0C03FAFFU, 0x141C1910U, 0x080F1001U, 0x00070E08U, 0xE80411FBU, 0xF4F702F5U, 0xFE0307F9U, 0x06FA0900U,
    0x18210508U, 0xFE010F1FU, 0x01EBF8F8U, 0x0B06030AU, 0x03FC04FFU, 0x02FF01FEU, 0x09FF0307U, 0xF8FDFE09U,
    0x00FA00FBU, 0x03FBFCF7U, 0x08FF0508U, 0x07FA0AFCU, 0x0904FBFEU, 0x07FC03FEU, 0x0609FF09U, 0x0207FE03U,
    0x0AFAFAFEU, 0xFF06FCFEU, 0x050003FBU, 0xFF060009U, 0x03FF03FEU, 0x08FFFA02U, 0xFE070800U, 0xFFFF03FDU,
    0xFD06FB00U, 0x02FBFAFAU, 0x00FB03F9U, 0xFE06FEFEU, 0x04040603U, 0x09FBFD00U, 0xFF07FFFAU, 0x06FF09FAU,
    0xFFF9FE06U, 0x04FAFCFAU, 0x050704FBU, 0x09060205U, 0x02070403U, 0xF3EFF907U, 0x0C000207U, 0x05090209U,
    0xFB040208U, 0x05FAFA03U, 0x01FC04FDU, 0xEF03FD04U, 0xEDE9ECF1U, 0x181006F5U, 0x0803090DU, 0x0608FA0CU,
    0x060104F9U, 0xE8EFFC05U, 0xEAE9E1EBU, 0xF1E5EBE7U, 0xFA04F7F5U, 0x16060EF6U, 0x0206FD02U, 0xF7FC03FBU,
    0xDBDDE6FFU, 0x03F1ECEDU, 0xEBFDF5F4U, 0xF50004EFU, 0x13131207U, 0x09100E0EU, 0xFE090002U, 0xD6DFE5F5U,
    0xFD00F0DFU, 0xFE0A07F7U, 0x110006FCU, 0x131D0208U, 0x05081423U, 0xF9FE0108U, 0xF1DFEAEDU, 0x0F0D02E5U,
    0x0C0A0908U, 0x0E191612U, 0x1D0A1409U, 0x040A2220U, 0xF8FAFD06U, 0xFAF2DDDCU, 0x0DF9FFF5U, 0x01060F0CU,
    0x0FFE1006U, 0x18FA1619U, 0xFC0D1526U, 0xF6020708U, 0xF8EDEAF1U, 0x0C07EEF6U, 0xEE010C09U, 0xF900FDFAU,
    0x12FBF9FFU, 0x09002139U, 0xFDFD03F9U, 0x0600FDF9U, 0x0F0C0603U, 0xF8F2060FU, 0xDEEAE7ECU, 0x0CECF7DFU,
    0x0206111DU, 0xF6FF08FDU, 0x0701F5F7U, 0xFC0D07FDU, 0xE0F30509U, 0xDEDEDBE2U, 0xF4CED4C2U, 0x0703FE00U,
    0xFCFBFE01U, 0x01FFE200U, 0x06FD0104U, 0xE8FA0612U, 0xF6F4E8E2U, 0xFBD5D6E3U, 0x0204F5FDU, 0x00F9FD04U,
    0x09FAEBF7U, 0x040A04FDU, 0xE8F9FC1BU, 0xF0E9D3D2U, 0x0AFDE9ECU, 0xFEFAFE06U, 0xFC03FC00U, 0x08FFF7FDU,
    0x090F0409U, 0xEAE5EB08U, 0xE9E3E3D9U, 0x1A06F5EBU, 0x01FD0010U, 0x000602FAU, 0x08EFF5F6U, 0x120F1208U,
    0xE4E2DEFEU, 0xEBF8F5ECU, 0x12030CFAU, 0xFEFC0B21U, 0xFF07FDFEU, 0x000207F2U, 0x0E171108U, 0xE9F3E2FBU,
    0xF3F3F7E8U, 0x0B061606U, 0x01090A07U, 0x04030805U, 0x060914F9U, 0x01121008U, 0x02F1EADDU, 0x0A0C01E7U,
    0xF0F20007U, 0xFE0609FEU, 0xFCFC0203U, 0x0D1606FBU, 0xD9F7090FU, 0xFFF1E3D0U, 0x0201FD02U, 0xE9F7FA04U,
    0xF8030307U, 0xFA060507U, 0x12120609U, 0xFCF8091CU, 0xFDF6F404U, 0xFD0000F8U, 0xF7F90205U, 0xFA00FE01U,
    0xFF050308U, 0x070E170CU, 0x1E1F131BU, 0x04F30615U, 0x02F4FCF4U, 0x030A0002U, 0x030005F2U, 0x02FE01F9U,
    0x0E09FF0FU, 0x1C0D0F10U, 0xFEF8061CU, 0xFBF3FB02U, 0x091A0901U, 0xFE08F9FBU, 0xF9F8FCFAU, 0xFFF9FCF8U,
    0x130D0008U, 0x13100C18U, 0xFF070C06U, 0x0504F5F5U, 0x010108FFU, 0x05FF0500U, 0x0C1F0605U, 0x0E0CFF01U,
    0x090C030CU, 0xFDFFFB0AU, 0xFB09F8EAU, 0xF9FD0502U, 0x05080707U, 0x0507FA03U, 0x04FB000AU, 0x16171412U,
    0xFA12F70CU, 0x0801F609U, 0xFEFC0207U, 0x02030706U, 0xF1F0F9F8U, 0xFAFAFCECU, 0x09EF03FAU, 0xFF050905U,
    0x0304F6F8U, 0xFF05FB0DU, 0xFE01FD06U, 0xFCFAF607U, 0x0BFCF4FAU, 0x02F8010CU, 0xFBFAF6F9U, 0xF9FFF4F9U,
    0x04FFFE04U, 0xFDFCFFFAU, 0xFEFC0404U, 0x0101FFFCU, 0xFF0100FFU, 0x020503FEU, 0x07F8FCFAU, 0x0604FCFBU,
    0x080B020AU, 0x03FF05FEU, 0x0B05FE07U, 0x06050D06U, 0x0C0704FFU, 0x070D050DU, 0x0E010B0BU, 0x06FE0108U,
    0xFE070D03U, 0x080B0005U, 0x02060706U, 0x0400FC04U, 0x0B02040AU, 0x08090108U, 0x0D0107FFU, 0x01000501U,
    0xF6FDFA05U, 0xF2FAF2F2U, 0xFFFC06FAU, 0xFDFFFF02U, 0x05060403U, 0x080C0104U, 0x01000908U, 0xDCEBEBF5U,
    0xD6E5EBE1U, 0xF5E7E6DAU, 0xF1F3F2EBU, 0x020801F4U, 0x040C0AFEU, 0xF8FF0806U, 0xF6F6F2EDU, 0x00050A00U,
    0x03F4E9F5U, 0xFAFCF9EEU, 0x09040D04U, 0x0701060BU, 0xF9FF0509U, 0xEBEEF3EFU, 0x0700F8F3U, 0x1309000AU,
    0x0620211AU, 0x03FD0103U, 0x030D0102U, 0xF0F8FCFDU, 0xEAF2F2F8U, 0xEFE8E3E1U, 0x06F8F7F8U, 0x20100902U,
    0x0A0B030DU, 0xFD0A0607U, 0xF3F706FCU, 0xEFF80505U, 0xF3FCFFEAU, 0x02F3FCF6U, 0x0E100B04U, 0x02110CFFU,
    0xFEFE0604U, 0x0FFC03F3U, 0xECF8FEFEU, 0xFA0303F5U, 0x0802F9F6U, 0x04FC0B07U, 0x0E102910U, 0x01FE0104U,
    0xFEF7F3F4U, 0xF5F704FFU, 0xF5E8FDEFU, 0xFE0B0405U, 0x03000801U, 0x05171D17U, 0xF7050805U, 0xFEEDF403U,
    0xF1F6FBFBU, 0xF7EDEBF9U, 0x010000FAU, 0xF6FBF8FAU, 0x0C021C15U, 0xF3F20707U, 0xFEFC0DFEU, 0xFDFD02EFU,
    0xECECF9FBU, 0xFEFB03FAU, 0xE8DCDFF5U, 0x0E0F0204U, 0xF5010805U, 0x0411FFEAU, 0x0E0501FBU, 0xF9031320U,
    0xF3FDFDF7U, 0xDBE4EEF3U, 0x0DFAFCF1U, 0xFBF80B0AU, 0x120203FCU, 0x130A0E16U, 0x07031023U, 0x0200F7F6U,
    0xE0FBFE03U, 0x0500EEE1U, 0xFBFD0608U, 0x1B140D18U, 0xF9FE0A0BU, 0x07121709U, 0xF6F3020BU, 0xEAF202F8U,
    0xFF09F1F3U, 0x0E03FF00U, 0x18130D0EU, 0xE9F50B16U, 0x041F1D0AU, 0xF9EDF805U, 0x0403FBF5U, 0x0102F1FBU,
    0x0E0E0407U, 0x111103FEU, 0xF5F0F405U, 0x1216150CU, 0xF5FDFB06U, 0x0B050F00U, 0x09FEFCFBU, 0x0401FE0CU,
    0x0A160CFDU, 0xFB0102FBU, 0x031D1203U, 0xFCFFEE09U, 0x06FC0B0AU, 0x0D04EBFDU, 0x0400060CU, 0xFE0506F4U,
    0x0407FEF0U, 0x010D0D02U, 0xFBF2FAFCU, 0xFEFDFA06U, 0x0009F0F9U, 0x03060507U, 0xE9EEEFEAU, 0xFBFCFCF3U,
    0x03FC08F0U, 0xF3FF0309U, 0x02F1F7FAU, 0x0A05FEFDU, 0xF6FE0A0DU, 0xE8EFEBF6U, 0x04ECE7E9U, 0x10FDF1EEU,
    0xFD11030BU, 0xFAFB00FFU, 0x0906F4ECU, 0xFF010402U, 0xFB01F7F2U, 0xFCEFF5F5U, 0x08F6FDEFU, 0x0B0606FEU,
    0x02021105U, 0x0800FCF5U, 0x05FD0505U, 0x07000501U, 0x000904FDU, 0x0905FCF8U, 0x231E110CU, 0x0206140AU,
    0x04050200U, 0xFA0A0CFFU, 0xFBEBFA0AU, 0x10170F02U, 0x1110170BU, 0x0F131C1AU, 0x05FF0B08U, 0x0B070705U,
    0x090A0403U, 0xDFDFF3FBU, 0xFBF0F9E6U, 0xF5FEF6F9U, 0x0101E5E7U, 0xFEFD08FCU, 0x0906FF05U, 0x0D040CFEU,
    0xD9E8EAFDU, 0xC4CEE2E0U, 0xDBD3E2E3U, 0xDBE6E3E2U, 0xFDFBF5E1U, 0x0E0005FBU, 0x050C0403U, 0xF9FBF504U,
    0xECE5F4EBU, 0xF4E6E0F1U, 0xE7F1E8EDU, 0x0402F8F7U, 0x0108020DU, 0x0806FE00U, 0x00090E09U, 0xFD05FD05U,
    0x0605FB09U, 0x04F80106U, 0x0C060408U, 0x0C0A0105U, 0x0402FC08U, 0x06FA0502U, 0xFB0003FFU, 0x08010205U,
    0xFF00FE09U, 0xFDFEFAFCU, 0x01080101U, 0x0101FA06U, 0x04070704U, 0x04090805U, 0x0D0707FEU, 0x07020405U,
    0x06FB0A08U, 0x06FBFE08U, 0x08050803U, 0x03FAFFFBU, 0xF703FA06U, 0x0A03FB05U, 0xF80A000BU, 0xFD00FF02U,
    0x01FA090AU, 0x07FFFBFCU, 0x050A0BFAU, 0xF3F9FD03U, 0xF7F503F4U, 0xFFFDF209U, 0x00040307U, 0xFB05FC05U,
    0x05FE03FDU, 0x030400FCU, 0xFA000B08U, 0x0AFCFDFAU, 0x0E0E0B13U, 0x040D140FU, 0x01040C02U, 0xFCFD07FAU,
    0xFEFD0100U, 0x07FE0508U, 0xFBFE0003U, 0xFEF9FC08U, 0xFD071107U, 0xFE0106FEU, 0x010706FAU, 0x0406FE04U,
    0xF9FFFDF9U, 0xF6F7F9F7U, 0xFFF6F9F9U, 0x14F607FCU, 0x0702110CU, 0x09FF0407U, 0x06F6FF0AU, 0xE7E9E5F2U,
    0xFFF3FAF8U, 0xFE03FCF5U, 0x07FC00F3U, 0x02FE03FFU, 0x010305FDU, 0xFAF7F302U, 0xF2E8E3F4U, 0xF7F4F9FFU,
    0xFEF5F7F2U, 0x01FFFA02U, 0x0414020DU, 0x01FFFD06U, 0x01050408U, 0x03FAFC04U, 0xFE0404FAU, 0xFFFE03FFU,
    0x0BF6FFF5U, 0x030A1809U, 0x0400FFFCU, 0xFF101619U, 0x13150A09U, 0xF3051517U, 0x00040800U, 0xFDF1FF06U,
    0xFD0B0E0EU, 0x130407FFU, 0x1B182F2AU, 0x15181B0BU, 0xEFF9FF04U, 0x0100FDF0U, 0x0BF4050CU, 0x0B00FE05U,
    0x19090700U, 0x322F3822U, 0xF30F2623U, 0xE7F6DAE0U, 0x0700F8EFU, 0xF5F4FE11U, 0x060E0107U, 0x0C09FF01U,
    0x18161D18U, 0xDAF01515U, 0xFD0BDDC4U, 0x0206FBF4U, 0xE8FAE8F5U, 0x090A00F6U, 0xFF0409FAU, 0xF4FEF5FEU,
    0xC4CBDFF4U, 0xF60603DEU, 0xF3FAFEF3U, 0xFAEFE2E6U, 0x05FAF1F8U, 0xF9000606U, 0xE7D6D8E9U, 0xE8C1BDC9U,
    0xF61D1D04U, 0xF305F0F6U, 0xFCFFE7E9U, 0xFB07F9F7U, 0xFA080304U, 0xBBC6D7DEU, 0xF3DCD5B8U, 0x05111D0BU,
    0x0AF6F701U, 0x02F3F7EFU, 0xFF01FFF9U, 0xFA0909FCU, 0xC2C7D5EFU, 0x0FF2DDC7U, 0x0018231CU, 0x0DFCFA04U,
    0xFEFC02FBU, 0x09FFFCF9U, 0x00020201U, 0xE0CFD7F2U, 0x0806F6E8U, 0x050D1D0DU, 0xFBF8050CU, 0xECF8FB00U,
    0x02FDFBEDU, 0xFEFF01FDU, 0xF7EBDCF9U, 0x07070409U, 0x18131410U, 0xFF0D0F18U, 0xF0E8F6FCU, 0x05FFFEF6U,
    0x06FF09FEU, 0x09F8EF02U, 0x0C0F0B02U, 0x10050B0CU, 0x0B24190FU, 0xFAFCF805U, 0x04FD03F9U, 0x03060009U,
    0x0D150808U, 0x030A0A04U, 0x130AFE00U, 0x121A2110U, 0xFE070D09U, 0xFB050805U, 0x08040707U, 0x03101505U,
    0x0B000803U, 0x0D180603U, 0x1713120AU, 0xF9F90707U, 0x0407FCFEU, 0x06060900U, 0xFFF6F7FAU, 0x030006FBU,
    0x0D0B150FU, 0x0A081D1AU, 0x0A08020DU, 0xFC05FE0BU, 0xFA09FEFCU, 0xEDF0F1F2U, 0xFFFD0AF6U, 0x04110D05U,
    0x1309FC02U, 0x01000302U, 0xFD09FF08U, 0x020204FAU, 0x0000F8FCU, 0x01F303F8U, 0xEFF30508U, 0x0F01FBF2U,
    0xFEFCF300U, 0x0906FC02U, 0x03040AFFU, 0xF7FDFFF7U, 0xF9F2F403U, 0xE6DDEDF3U, 0xFEF9F9F1U, 0x000201F8U,
    0xFE080206U, 0x0901FFFAU, 0x0806FE03U, 0x060800FEU, 0xFB030AFEU, 0x07FD02FDU, 0xFE07FB00U, 0x070607FEU,
    0x040BFC03U, 0x09060A07U, 0x0A0A0903U, 0x00020705U, 0x080107FEU, 0x01FF0103U, 0xFD0001FEU, 0x0A0A000AU,
    0xF9050A07U, 0x030303FDU, 0x0402FDFBU, 0xFA060107U, 0xFE0905FBU, 0xFD0306FEU, 0x0300FCFCU, 0x03FA0101U,
    0x08040103U, 0xEDF5F7F3U, 0xFBEBE8F0U, 0x060305F4U, 0x050B090BU, 0xFDFF0300U, 0xF9FBFA01U, 0xF8F2F9F4U,
    0xF8EFFAF0U, 0xEDE4F0F3U, 0x02F7F2D9U, 0x0300FA09U, 0x00FB00FDU, 0xF6FAF700U, 0xF8EF03F7U, 0x0303FFF1U,
    0xF2FA0DFCU, 0xFC0DFCF8U, 0x0BFAF2F2U, 0xFB090B07U, 0xF3FCF104U, 0x01F4FF06U, 0x01030DF7U, 0x0B1B1202U,
    0xFDF602FFU, 0x07FDF1E9U, 0x03FCFD03U, 0x00F4ED02U, 0x05F4EEFAU, 0x0801FDFBU, 0x050B0F0CU, 0xF4FA08FFU,
    0xFEF2E0D8U, 0x03020406U, 0xFEFFF9F8U, 0x05FCECE9U, 0x06FE0403U, 0x080B03FDU, 0xF2F90803U, 0x07F7EFF7U,
    0xF9040808U, 0xEFF7F303U, 0xFBFFF2E9U, 0x05FEF6F8U, 0x08FE0C0EU, 0x01F70501U, 0xFFF2EBF3U, 0x01FD0706U,
    0xF1F8F404U, 0xF100FCF5U, 0xEDF9FCFBU, 0x091511FDU, 0xF9FA02FFU, 0xFFFFE2F0U, 0x0C0009FDU, 0xF801FEFBU,
    0xF3F1FCE8U, 0xD6E1F6FEU, 0x081911EFU, 0xFCFEFCFFU, 0x03F2F6F3U, 0x000B0209U, 0xE80CFFFBU, 0xF9F9F6F6U,
    0xC7CEECF9U, 0x0508F8D6U, 0xF6FE0A05U, 0x03F5FAF3U, 0x05FE0903U, 0xF001F7FDU, 0xF2E505F7U, 0xC3D2F3FAU,
    0x01EFF8DDU, 0x04080100U, 0x0900F8FAU, 0x06FD0806U, 0xFCF7FA01U, 0xF8F9FE07U, 0xD0E2F001U, 0xE3E8F2E2U,
    0x01FEFAEFU, 0x0A050AF7U, 0x0603020AU, 0x0C031417U, 0xFAEB050EU, 0xDDE5E8F9U, 0xF2EBF2F0U, 0xF8FA07FEU,
    0x0510150FU, 0x0907FD04U, 0x160509FBU, 0x03050F18U, 0xE5E9F7F5U, 0xF2F2FEEEU, 0xFAFA05FEU, 0x00130F14U,
    0xF9FC0106U, 0x0A02FFEFU, 0x16060B0BU, 0xF2EBFC08U, 0x0E0C0E00U, 0x020A2710U, 0xFF111703U, 0xEC030AFCU,
    0x060908ECU, 0x0C151A04U, 0xFFFFF2FFU, 0x0715170DU, 0x03181809U, 0x0202200DU, 0xE4FA0700U, 0x12FFFBF8U,
    0xFF081C14U, 0x0EFE00FEU, 0x090D0C10U, 0x11120B00U, 0x0B002103U, 0xFAFB0B0AU, 0x1303F8F3U, 0x1E181608U,
    0x0E050413U, 0x0B060D14U, 0x081D140EU, 0xFE021000U, 0x1102FE02U, 0xFFFD0716U, 0x2219160AU, 0x00EFF302U,
    0x140A0301U, 0xFF0A140CU, 0x03040305U, 0x0F010600U, 0xFBF90205U, 0x0C1110FDU, 0x06F6ED00U, 0x0D05FC01U,
    0x0E140E12U, 0x07FDFC07U, 0x0B030302U, 0x080010FEU, 0x10140D0BU, 0xF6F6F1FEU, 0x190CF5F9U, 0x0B201207U,
    0x0900FEFDU, 0xFB0909FCU, 0x0DFAFFF6U, 0x1A0B0D04U, 0xFBFDF50FU, 0xFFEFEDEDU, 0xF0150E01U, 0x09FA02FDU,
    0x01000705U, 0xF4F4F0FCU, 0xF4EEFFF6U, 0xEBE9F309U, 0xD4D7D6DCU, 0x0507FDF2U, 0x000301FFU, 0x010605FBU,
    0xFB00090DU, 0xDDE1EDFFU, 0xEAEAE9D2U, 0xECEAD8EFU, 0x02F7FDFAU, 0xFCFE08FEU, 0xFEFD0500U, 0x0C100F07U,
    0xF802FA02U, 0xFCF4FA04U, 0x02FBFDF4U, 0x0808FE0BU, 0xFCFD0903U, 0x06FE0A00U, 0x090A03FDU, 0x09070007U,
    0x07FF05FBU, 0xFDFD0102U, 0x09020504U, 0xFD06FD02U, 0x04020308U, 0xFFFEFC06U, 0x04FE0501U, 0x0206FB03U,
    0x02FE03FCU, 0x090108FBU, 0x07FAFA08U, 0x050306FFU, 0x01090507U, 0xFEF9FB08U, 0x0606FC09U, 0xFDFFFBFDU,
    0xFD0400FEU, 0xFE04FBFCU, 0x00020108U, 0xFC0806FCU, 0xFFF70005U, 0xF5F2FF01U, 0xFBF4FD04U, 0x040603F7U,
    0xFAFFFE02U, 0xFEFEFEFEU, 0xFCFFFC00U, 0x0003F7F8U, 0xE0E8EDF1U, 0xE5EFFEEEU, 0x02FCF4E6U, 0x02FB01FCU,
    0x01030107U, 0xF8FDF5FEU, 0xF3F8F703U, 0x130CF805U, 0xF804030AU, 0xF2F0EFE9U, 0xFF0602F1U, 0xFB05FFFDU,
    0xF0EEF204U, 0x01FB02F8U, 0x0A0702F7U, 0x060E0D0EU, 0xE60F1A0BU, 0x060208EFU, 0x040203FFU, 0x09FEF0F5U,
    0x05F8F007U, 0x11FB00FEU, 0x04000C00U, 0xF90508FFU, 0x07FA09F4U, 0x00FA00FBU, 0x040AFDFBU, 0xFF1104F7U,
    0x00FAFBFDU, 0xFD0F0901U, 0x020CFEF7U, 0x00F4FFF5U, 0x07FCFDFBU, 0x0014FCF3U, 0xF90E0803U, 0xFA060E15U,
    0x02FE0E0AU, 0x080209FEU, 0x060201FFU, 0x0305F909U, 0xF0F8F901U, 0x04080F09U, 0xFB0E0E04U, 0x0602FEF6U,
    0x0C030905U, 0xF9021213U, 0x03F906FEU, 0x01FBF9F6U, 0x06031302U, 0xFB170A10U, 0xFD0E00F3U, 0x180A0D03U,
    0xF90B0111U, 0xF9FA0409U, 0x0D00F0E6U, 0x07F203F3U, 0x05160AFBU, 0xF8FCF6EFU, 0x0CFF0301U, 0x08081416U,
    0x01060200U, 0x06F8EDF2U, 0xF5F2F8F5U, 0xEF070BF9U, 0x00F3F3ECU, 0x11090EFEU, 0xFF03FF0AU, 0x040200FFU,
    0xFAF7E8EFU, 0xFDF90009U, 0xF8F4FD01U, 0xF0F3E9E8U, 0x1808FFF4U, 0xFE0306FCU, 0xF802040AU, 0x05FD03FFU,
    0x150509FEU, 0xF1FE10FBU, 0xF1EEF3F5U, 0x03F9FCF5U, 0xFC050408U, 0x07080104U, 0x05060D12U, 0x06180F0BU,
    0xE7EEF505U, 0xFC02FEFAU, 0x03EFF8F2U, 0x08090419U, 0x0606FCFBU, 0xFF081007U, 0x18171404U, 0xF2F1E600U,
    0xF0F500F1U, 0x0DF3F2F7U, 0x080D0D03U, 0xFF010802U, 0x02171105U, 0x162C180AU, 0xF2EFD5FCU, 0xFCE8E8F3U,
    0x12FAFAF3U, 0x0302FF0CU, 0xF7FB0209U, 0x051805F7U, 0x0210160AU, 0xF6F2D8E8U, 0xEDE9E7E8U, 0x0F10F5EEU,
    0x06F8101EU, 0xF8030101U, 0xFE0306FDU, 0xFD1B1B12U, 0xF6F7F0EBU, 0xF7E9F7EDU, 0x0A1409FEU, 0xFBFB0A05U,
    0xFE060605U, 0x0703FF09U, 0x07220B0CU, 0xFFF6FAFEU, 0xE9E6F2E6U, 0x0D080700U, 0xFD0508F0U, 0x07FE0409U,
    0x1512FC0CU, 0x13080CFEU, 0xF8FCF500U, 0xF0F0F2F2U, 0xFF08FEFFU, 0x04FA0EF0U, 0xFD00FA01U, 0x1406FCFAU,
    0x0C110FF9U, 0x020A0D03U, 0x0500F5FEU, 0xF706FAF0U, 0xFEFB03F5U, 0xFE07FE01U, 0xF5F3F0F1U, 0x0F17130EU,
    0x07191610U, 0xFFFD0907U, 0xFB08EBE7U, 0x0805FDEFU, 0xF602FB09U, 0xDFE3E3EFU, 0xFEFE02EDU, 0x05FCFB14U,
    0x0402EDF3U, 0xF5EEEEF9U, 0xFC080303U, 0xFCFA0104U, 0xD8E9E9FAU, 0xECF2E0D5U, 0xF2F1F7ECU, 0xFCFDFDFAU,
    0xFF02F7FBU, 0x0609FF0AU, 0x0001FA07U, 0xFCF0F800U, 0xFAF2F5F0U, 0xE8E5EF00U, 0x02FCFBFDU, 0x00F5FB02U,
    0xFE0205FAU, 0x09FCFFFFU, 0x04FC05FAU, 0xFA04FAFFU, 0xF8060101U, 0xFC05FAF9U, 0x01FA01FBU, 0xFAFE00FFU,
    0xFE08FE09U, 0x0A080100U, 0x05FF000BU, 0xFDFC0902U, 0x0AFCFF05U, 0xFEFE0B01U, 0x0B060703U, 0x01FE0308U,
    0x020602FEU, 0xFBFD01FFU, 0x01060207U, 0x06FCFEFFU, 0xFC030706U, 0xFB01FD09U, 0x05040103U, 0x02FC0304U,
    0xF7060206U, 0xF5FFF000U, 0xFAF6F6F4U, 0x01020305U, 0xFC020609U, 0xFEFD0B06U, 0x0A00FD02U, 0xFB03FCF9U,
    0xCBDDE8F9U, 0xF7F5EDD8U, 0x09F6F7F5U, 0x01090304U, 0x02000805U, 0xF90E1200U, 0x0110FE05U, 0xD0EC0F15U,
    0xEEDCCED2U, 0x06EBF2F6U, 0x0506FEFDU, 0x020A03FCU, 0x0F151E17U, 0x0D0D0F0FU, 0x02FB0414U, 0xCAD8D4E7U,
    0xF7E6D9C6U, 0xFC0507FDU, 0x0F060801U, 0x110E0A0EU, 0x170E191CU, 0x02050404U, 0xD0E4FCFFU, 0xF4E5E3C8U,
    0x0AF7FAEFU, 0x1606FCFEU, 0x0509FF1AU, 0xFBFD010BU, 0x0E000F00U, 0xD5E1FF10U, 0xEEE4E8E8U, 0xFD00F2E9U,
    0x0F010A04U, 0xFAF90D22U, 0x0102F600U, 0x1A1E1110U, 0xE7E1FA0DU, 0xE5ECE0E9U, 0x02FFEFEBU, 0x140FFF03U,
    0x00FB181DU, 0x0A0CF7F7U, 0x26331D0EU, 0xE6EBF404U, 0xE2E9D7E2U, 0x0FFAFCECU, 0x0E0F0809U, 0x08031704U,
    0x02FFF8EDU, 0x0C211C0FU, 0xE7E4F804U, 0xD6D8E0D9U, 0x0603FDF4U, 0x150B0A0AU, 0xF90C0C08U, 0x0B0005F8U,
    0x0A16030EU, 0xE9F4FDF2U, 0xDFE3EFEFU, 0x0002F9EDU, 0x04100006U, 0xEDFC03FDU, 0xFDF506FBU, 0x0005FEFCU,
    0xF0160DFCU, 0xE9EAE5DDU, 0x0A0B13FFU, 0x07060607U, 0xE3EDF500U, 0x0004F9EEU, 0xFA06FEF3U, 0xDF0C0B03U,
    0x0AF6F2E4U, 0xFF0E130FU, 0x07FE0600U, 0xE0E9F710U, 0xF806FEECU, 0x06F9F900U, 0xFB06FDFDU, 0x160700F7U,
    0x02111310U, 0x04FC0809U, 0xECF0EE06U, 0xF90A05F6U, 0x0CFD0202U, 0xFCFF0B02U, 0x0A121409U, 0xFD07080FU,
    0x050800FDU, 0xF3EDE7FEU, 0xFE0C1704U, 0x0715FCF0U, 0xF3F8F40FU, 0x0E0E160DU, 0x01070D20U, 0x060902FCU,
    0xF1ECE8FBU, 0xE3F904FFU, 0x000D0BF2U, 0xFEFFF0F2U, 0x130B130EU, 0x08091324U, 0xF9030001U, 0xF1E8F3F9U,
