memory_initialization_radix=16;
memory_initialization_vector=
0f,
10,
07,
11,
07,
0b,
05,
0e,
10,
03,
10,
0b,
0f,
0a,
0d,
08,
0f,
0a,
05,
0b,
05,
08,
06,
0e,
03,
05,
07,
04,
0a,
01,
10,
02,
0f,
0a,
03,
06,
fe,
0b,
06,
01,
01,
ff,
0b,
0b,
0c,
04,
0b,
0a,
0c,
01,
fe,
05,
03,
10,
0b,
0c,
0c,
09,
0f,
02,
09,
04,
07,
fb,
f7,
f8,
fc,
ee,
e7,
e8,
fe,
05,
0d,
04,
09,
03,
02,
0a,
06,
0a,
03,
04,
0d,
06,
0e,
07,
0e,
00,
02,
0a,
02,
f1,
e0,
df,
e6,
ee,
e5,
d0,
e8,
f0,
07,
09,
fe,
ff,
08,
02,
fe,
fc,
fe,
04,
11,
0b,
0c,
02,
04,
06,
0a,
ff,
fa,
f6,
ee,
e4,
f4,
f9,
f9,
f5,
f3,
eb,
03,
ff,
15,
15,
0a,
1b,
10,
08,
07,
01,
0b,
07,
0c,
03,
0f,
03,
03,
10,
0d,
12,
0e,
01,
19,
ff,
f9,
e1,
e4,
c4,
e7,
0e,
26,
1c,
1e,
10,
0f,
17,
1a,
06,
fe,
10,
0b,
05,
05,
05,
08,
15,
18,
0e,
04,
10,
fb,
e7,
f7,
f0,
ca,
96,
c5,
01,
18,
15,
0b,
02,
12,
1e,
0d,
05,
08,
07,
09,
09,
0b,
0a,
00,
19,
18,
01,
ed,
f0,
fb,
f9,
ff,
fa,
cf,
b2,
da,
0f,
19,
1b,
06,
05,
1c,
14,
00,
02,
04,
07,
01,
0e,
13,
10,
05,
11,
04,
00,
ec,
06,
0c,
0b,
08,
eb,
bc,
b6,
f4,
1c,
15,
01,
04,
02,
00,
07,
f8,
04,
00,
01,
08,
05,
09,
04,
ff,
09,
01,
ee,
fb,
fb,
09,
04,
0c,
f8,
b3,
bb,
0c,
17,
08,
fd,
12,
0b,
02,
e6,
e7,
02,
09,
01,
07,
04,
06,
06,
f0,
01,
e1,
f4,
fd,
fc,
02,
0e,
09,
d1,
ab,
cc,
0d,
1e,
0a,
0a,
01,
fb,
ed,
d5,
f3,
09,
03,
0b,
06,
09,
0c,
06,
ea,
ff,
fe,
02,
07,
0b,
11,
1e,
09,
be,
b1,
e4,
08,
0b,
0b,
fe,
f3,
f4,
f6,
de,
e6,
f9,
0d,
03,
08,
0d,
04,
fc,
ed,
ef,
fa,
02,
fa,
00,
1e,
27,
15,
dc,
c4,
f2,
07,
16,
0a,
03,
ff,
f8,
fc,
ef,
f6,
fd,
02,
0a,
0d,
0a,
09,
fa,
f3,
fb,
03,
07,
03,
07,
1a,
1f,
11,
e0,
e2,
e8,
07,
0d,
0f,
fe,
03,
0c,
09,
f4,
02,
ff,
03,
06,
0f,
0c,
0a,
04,
11,
1a,
0a,
07,
04,
18,
1c,
13,
0b,
f5,
fa,
f9,
04,
13,
08,
10,
1b,
0e,
11,
fd,
f9,
01,
fe,
04,
09,
06,
03,
14,
21,
18,
05,
06,
0b,
11,
15,
05,
06,
0f,
ff,
04,
05,
14,
0b,
0b,
00,
08,
10,
02,
f3,
ec,
fe,
0f,
0f,
03,
07,
03,
08,
09,
10,
14,
07,
0e,
02,
ee,
fc,
03,
09,
04,
0d,
07,
09,
01,
10,
13,
03,
ee,
fc,
f3,
f9,
0d,
05,
04,
09,
0d,
1c,
0a,
08,
12,
04,
fb,
01,
f1,
f8,
09,
0e,
0c,
0b,
0c,
12,
f5,
00,
10,
f2,
f3,
fd,
01,
09,
0f,
0f,
0d,
05,
0e,
0c,
0b,
07,
fe,
05,
fe,
f1,
e9,
03,
ff,
0b,
fd,
04,
06,
03,
f9,
f7,
f2,
eb,
f1,
00,
03,
0b,
05,
08,
11,
0f,
12,
05,
06,
fd,
02,
ed,
f6,
f0,
eb,
f4,
f7,
ff,
f8,
fa,
f9,
02,
fc,
fc,
03,
e7,
f2,
0a,
01,
0d,
11,
0f,
11,
0b,
04,
fd,
f2,
ee,
ec,
e7,
db,
ec,
f1,
f5,
f3,
f0,
fa,
f8,
06,
0a,
ff,
0c,
05,
fc,
0a,
0b,
00,
04,
09,
0a,
0b,
0c,
0b,
fc,
f7,
e7,
e4,
f7,
ee,
f9,
05,
fc,
f5,
f2,
01,
f4,
f9,
fe,
03,
15,
1a,
0e,
0e,
05,
06,
0c,
09,
0a,
03,
06,
0c,
ff,
fc,
ef,
ef,
ed,
e7,
f5,
0a,
fb,
fb,
f6,
fb,
f4,
fc,
04,
14,
0b,
18,
01,
04,
07,
fb,
10,
0e,
01,
05,
0b,
06,
04,
fd,
06,
ff,
00,
f3,
fd,
07,
ff,
ff,
0c,
0b,
fe,
fd,
0a,
14,
00,
0f,
06,
fe,
fe,
02,
08,
0d,
11,
0d,
03,
0f,
06,
03,
f9,
f8,
fa,
f0,
ed,
fc,
ff,
11,
04,
ff,
06,
fa,
01,
fa,
e6,
f8,
fe,
03,
03,
10,
05,
11,
0e,
05,
05,
02,
0a,
fd,
04,
f8,
f3,
f7,
f2,
06,
03,
f0,
fa,
fa,
04,
e5,
ec,
ce,
d1,
ee,
fe,
06,
fe,
0c,
0c,
02,
01,
05,
0f,
02,
02,
0b,
0a,
0a,
f5,
f2,
f4,
f1,
f8,
f5,
eb,
fb,
f0,
e0,
e1,
de,
f0,
ff,
04,
0a,
05,
09,
11,
04,
09,
0d,
04,
11,
05,
07,
05,
fb,
f8,
0b,
08,
ff,
02,
0f,
05,
08,
03,
03,
01,
05,
03,
06,
08,
08,
0a,
06,
0b,
0c,
06,
02,
0e,
0c,
06,
12,
06,
0f,
0e,
03,
0f,
03,
06,
09,
05,
12,
08,
0d,
03,
0f,
07,
04,
0b,
0e,
11,
05,
06,
0c,
0c,
0d,
0e,
08,
0e,
10,
07,
0c,
0a,
0f,
02,
02,
01,
06,
0d,
01,
08,
04,
0e,
08,
02,
04,
02,
0d,
05,
09,
0c,
06,
0c,
02,
04,
03,
07,
07,
09,
03,
07,
0a,
fe,
f8,
f1,
fa,
f5,
00,
fe,
00,
08,
09,
07,
00,
0c,
04,
06,
11,
10,
0c,
0b,
03,
09,
12,
0c,
0a,
04,
ff,
fb,
f3,
f5,
f1,
ed,
e1,
e1,
dd,
e9,
f5,
f4,
f6,
fb,
00,
01,
03,
07,
0a,
0f,
0d,
07,
07,
08,
07,
12,
10,
0d,
fe,
f9,
f1,
dd,
e8,
ec,
db,
c1,
d2,
f0,
ea,
f6,
06,
11,
1b,
0f,
0e,
fd,
00,
00,
0a,
12,
08,
07,
0f,
08,
10,
12,
00,
0b,
0a,
fc,
01,
00,
f2,
ed,
f0,
ea,
f2,
e7,
e6,
ef,
07,
0c,
0e,
fd,
01,
fe,
07,
10,
0e,
0e,
ff,
03,
0d,
13,
09,
0a,
0e,
ee,
f9,
fe,
02,
fd,
f0,
fe,
0b,
fc,
f6,
f6,
04,
10,
01,
fd,
fd,
10,
12,
0c,
06,
0e,
0f,
fa,
0b,
fa,
f4,
05,
0e,
fc,
fd,
fb,
fa,
fe,
f0,
00,
0b,
05,
05,
04,
fc,
fa,
0e,
08,
fe,
0e,
07,
06,
07,
0c,
fe,
fc,
07,
fc,
06,
11,
10,
03,
0b,
f2,
f0,
ee,
f9,
fd,
04,
0c,
00,
f9,
f0,
02,
03,
07,
04,
02,
11,
0e,
05,
07,
00,
f9,
03,
f3,
08,
04,
fc,
fc,
03,
00,
f2,
f2,
02,
03,
09,
10,
fb,
fb,
ef,
fd,
fa,
f1,
f2,
02,
12,
04,
0d,
01,
04,
04,
05,
fc,
fb,
02,
03,
f9,
ff,
00,
e4,
e2,
13,
09,
02,
f5,
fc,
f6,
f0,
06,
f5,
e9,
e9,
03,
0e,
03,
0d,
0c,
07,
f8,
03,
fc,
fd,
fd,
08,
0e,
12,
07,
e5,
01,
20,
1a,
0e,
04,
03,
f6,
ff,
f4,
e2,
de,
f7,
09,
0d,
06,
04,
09,
ff,
fd,
e9,
02,
0e,
12,
01,
06,
1a,
00,
f4,
15,
24,
18,
16,
18,
0f,
fc,
0a,
02,
e3,
ed,
f2,
fc,
02,
0e,
0d,
03,
0d,
08,
ff,
02,
15,
12,
07,
08,
03,
ed,
fa,
19,
2b,
10,
21,
15,
14,
0d,
0e,
00,
ec,
ee,
f3,
04,
0c,
0f,
0e,
11,
0a,
1b,
15,
ff,
0c,
0c,
02,
00,
f7,
f7,
05,
14,
29,
21,
16,
19,
18,
14,
fd,
f8,
f6,
f0,
f6,
fd,
12,
07,
04,
0d,
07,
1c,
0b,
00,
fd,
11,
13,
08,
0a,
04,
ff,
17,
1e,
18,
29,
1b,
0a,
0f,
02,
11,
0e,
f3,
ef,
09,
0b,
0c,
0d,
0c,
fe,
07,
05,
f9,
07,
05,
06,
09,
ff,
09,
0d,
19,
1f,
20,
1a,
09,
fc,
04,
00,
ea,
f9,
ef,
fb,
00,
03,
0c,
11,
02,
fb,
08,
fd,
e4,
ef,
f5,
eb,
fb,
f5,
f3,
05,
04,
11,
0d,
f7,
f6,
e9,
e8,
ed,
d8,
e0,
e7,
04,
0a,
02,
0c,
0d,
11,
05,
ff,
de,
d8,
d8,
d9,
dd,
d7,
e9,
e6,
f8,
f8,
f3,
e4,
d8,
da,
cb,
d1,
e3,
c7,
d3,
ed,
00,
11,
07,
08,
09,
01,
04,
e7,
d5,
dd,
ef,
e9,
e5,
e7,
ee,
da,
ed,
e7,
e4,
e6,
da,
cc,
d4,
d5,
e3,
dd,
d0,
ea,
fa,
0b,
0c,
0b,
05,
03,
ff,
e8,
e1,
e7,
f3,
fb,
00,
01,
fb,
ec,
ef,
e5,
e1,
e7,
e5,
dc,
d7,
d8,
e2,
e3,
dc,
f9,
05,
0a,
12,
07,
02,
0a,
fe,
f4,
f3,
f3,
fd,
0b,
08,
0d,
f3,
fa,
eb,
dd,
ed,
f1,
df,
e5,
e4,
e7,
ea,
ef,
f4,
fa,
01,
03,
03,
07,
02,
04,
ff,
eb,
f7,
03,
03,
06,
00,
05,
fd,
f6,
f7,
f8,
f7,
f6,
f6,
fc,
fd,
ed,
f1,
f1,
f4,
02,
ff,
09,
07,
07,
07,
0f,
03,
f5,
02,
ff,
06,
06,
04,
04,
06,
fd,
ff,
f9,
f1,
f4,
fc,
0c,
0b,
f7,
f6,
fd,
fe,
0a,
10,
0b,
04,
0c,
0d,
10,
ff,
fc,
10,
ff,
01,
02,
f8,
fc,
f0,
ef,
fa,
fe,
fb,
f0,
f6,
02,
04,
ff,
06,
01,
05,
04,
0d,
04,
05,
08,
07,
0d,
11,
0f,
14,
f5,
f6,
f9,
ee,
ee,
ee,
de,
f4,
fb,
ec,
ee,
eb,
f6,
dd,
fe,
f5,
02,
09,
08,
0d,
06,
11,
0e,
0f,
0b,
0f,
13,
17,
1d,
0d,
0d,
0d,
10,
0a,
08,
02,
01,
fb,
fb,
f8,
fd,
ff,
fd,
02,
05,
05,
0b,
08,
06,
07,
07,
12,
0d,
12,
0c,
0c,
0d,
09,
01,
04,
07,
09,
0c,
0b,
0e,
0c,
06,
02,
01,
04,
0d,
0d,
11,
07,
09,
08,
0a,
0d,
08,
09,
09,
0b,
06,
03,
0a,
07,
04,
0c,
08,
07,
04,
07,
01,
0a,
08,
0d,
09,
09,
0a,
0e,
04,
0d,
0a,
03,
0b,
03,
06,
04,
03,
0f,
01,
0c,
01,
07,
08,
0e,
05,
0b,
0a,
0d,
0b,
10,
fd,
00,
11,
06,
0a,
0b,
11,
06,
02,
06,
0c,
0b,
0f,
06,
0c,
01,
0b,
0c,
0d,
03,
03,
01,
f8,
fa,
fd,
05,
07,
15,
15,
11,
0d,
18,
13,
15,
19,
04,
06,
fe,
08,
05,
0b,
04,
0d,
02,
0d,
02,
0d,
05,
01,
f7,
ef,
dc,
d7,
e4,
e4,
f0,
f2,
04,
06,
13,
10,
20,
20,
1c,
0b,
fd,
0e,
06,
06,
07,
0e,
0e,
09,
0a,
ff,
ff,
ea,
e9,
d6,
c7,
d7,
f1,
e5,
e1,
f0,
02,
06,
0b,
0c,
12,
1a,
24,
0f,
06,
0d,
08,
08,
0e,
0d,
10,
05,
0a,
06,
f2,
e4,
d7,
d4,
ce,
e2,
f1,
ef,
f3,
ee,
03,
03,
00,
1a,
10,
0e,
23,
15,
04,
0c,
0b,
0a,
05,
03,
0e,
09,
05,
f5,
ef,
db,
c6,
cf,
e2,
fa,
f0,
03,
09,
f0,
01,
05,
fd,
11,
fa,
08,
18,
01,
05,
00,
08,
01,
05,
09,
0c,
09,
01,
f5,
e0,
d0,
c6,
da,
ed,
0b,
fd,
07,
fc,
f8,
fb,
f4,
fa,
06,
05,
09,
14,
fe,
01,
09,
01,
01,
0f,
06,
01,
02,
f7,
fa,
e0,
cc,
b9,
ca,
f8,
0f,
15,
05,
f9,
f5,
f0,
f7,
f9,
f6,
0f,
05,
15,
18,
0d,
05,
0f,
02,
0b,
09,
01,
06,
f9,
f1,
d7,
c6,
c0,
db,
fe,
0d,
19,
09,
fb,
f7,
ef,
f0,
ee,
ed,
05,
0a,
16,
17,
12,
07,
01,
0e,
02,
0a,
f8,
04,
ff,
e9,
e0,
c7,
b6,
e0,
07,
1d,
1c,
13,
08,
f3,
ee,
e6,
ee,
e5,
f5,
0a,
16,
16,
09,
fb,
07,
02,
0b,
08,
01,
ff,
fb,
f4,
d6,
c6,
c7,
f0,
03,
15,
15,
12,
0f,
fc,
f0,
e9,
e5,
d4,
e1,
ed,
f3,
05,
fc,
02,
08,
0f,
0c,
ff,
07,
04,
fe,
ec,
da,
d8,
df,
fa,
10,
17,
14,
1b,
0a,
06,
fb,
f2,
e8,
ea,
dd,
d7,
e0,
f3,
f5,
f4,
05,
01,
0c,
ff,
05,
09,
f1,
f1,
dd,
f8,
fe,
08,
0c,
12,
17,
15,
0c,
13,
01,
eb,
ee,
f6,
e6,
d0,
da,
d7,
ec,
ff,
09,
09,
09,
06,
0b,
02,
f6,
de,
e6,
f5,
0a,
0b,
fc,
f8,
14,
11,
08,
01,
f5,
ed,
fb,
0b,
f7,
e7,
de,
f0,
f8,
fa,
06,
07,
09,
07,
0b,
09,
f8,
f1,
e8,
f3,
01,
f3,
f7,
0d,
15,
15,
fb,
ff,
f7,
fd,
ff,
10,
07,
ef,
e3,
e7,
f1,
fc,
00,
0f,
04,
ff,
03,
08,
06,
05,
e1,
ee,
f5,
f0,
fa,
07,
10,
1a,
0e,
f7,
f0,
00,
03,
14,
ff,
f6,
f0,
f0,
ea,
f6,
03,
0b,
08,
02,
08,
0a,
0a,
02,
f9,
fc,
fe,
0d,
03,
fc,
02,
07,
00,
ec,
ef,
0f,
11,
1f,
fe,
f5,
ed,
f8,
f7,
fe,
09,
00,
0f,
06,
fb,
04,
f9,
01,
fa,
f2,
11,
07,
ff,
00,
09,
0a,
fa,
f5,
ff,
0b,
0d,
01,
ee,
d3,
e0,
f5,
ff,
05,
01,
0f,
05,
04,
f0,
f6,
fc,
05,
0a,
04,
0b,
08,
04,
02,
03,
02,
f6,
ff,
01,
02,
01,
ef,
e1,
df,
f7,
05,
06,
0f,
02,
0e,
0c,
0b,
f0,
e6,
00,
03,
ff,
08,
fc,
06,
02,
f7,
e7,
fc,
fd,
fe,
0c,
ff,
fd,
fc,
e8,
eb,
f4,
07,
03,
10,
0e,
0e,
0e,
ff,
f9,
f6,
f4,
fc,
f7,
fa,
02,
00,
07,
00,
fe,
ff,
f1,
f3,
0f,
13,
03,
f7,
ee,
eb,
06,
0a,
07,
05,
00,
09,
0a,
00,
03,
f5,
f9,
f2,
f4,
ef,
f6,
02,
fc,
03,
03,
00,
07,
0e,
0b,
09,
f6,
ed,
f5,
fd,
0c,
0b,
07,
09,
0a,
07,
0f,
01,
04,
f5,
fb,
04,
07,
0b,
08,
ff,
fb,
05,
00,
ff,
07,
0d,
06,
08,
f1,
ff,
f9,
04,
00,
10,
0e,
03,
01,
08,
06,
0b,
00,
f8,
f0,
f9,
fa,
0a,
0f,
fd,
ef,
f3,
e6,
e4,
fe,
0e,
f8,
02,
fc,
02,
09,
10,
07,
0c,
05,
06,
00,
0f,
10,
08,
0c,
03,
f7,
f4,
e1,
ee,
fd,
f9,
f8,
eb,
f0,
e6,
f2,
02,
06,
10,
02,
05,
10,
10,
07,
02,
04,
09,
0d,
0c,
05,
01,
01,
06,
04,
fe,
fd,
04,
02,
01,
fb,
fc,
0a,
0b,
03,
11,
0f,
07,
00,
03,
02,
08,
00,
07,
05,
10,
0f,
0d,
09,
06,
0a,
03,
05,
07,
06,
00,
0a,
0c,
04,
09,
03,
05,
09,
11,
0a,
03,
05,
0c,
0b,
08,
07,
05,
05,
04,
09,
04,
08,
00,
02,
07,
05,
03,
04,
02,
fb,
02,
00,
09,
09,
03,
09,
fd,
09,
09,
01,
fb,
ff,
ff,
02,
fa,
03,
fe,
ff,
fd,
00,
fa,
fd,
02,
07,
09,
fb,
05,
fd,
fb,
ff,
fb,
fa,
fc,
fc,
08,
04,
fd,
fc,
fb,
fc,
fd,
06,
04,
fe,
07,
fd,
fb,
03,
fd,
04,
08,
fe,
fc,
04,
f9,
06,
f9,
00,
f5,
f0,
fb,
fe,
ff,
ff,
f7,
f7,
00,
fe,
00,
f9,
fb,
07,
fd,
08,
02,
04,
09,
fd,
00,
03,
03,
f6,
fc,
f1,
f2,
f6,
eb,
e4,
d4,
e0,
e5,
ee,
ea,
ed,
06,
08,
09,
00,
0a,
02,
07,
09,
02,
fe,
09,
fd,
07,
f8,
fb,
f5,
f3,
f7,
ec,
f1,
f8,
ea,
e1,
e2,
e5,
f4,
01,
f8,
fb,
fb,
fd,
04,
0d,
08,
00,
09,
03,
fe,
ff,
ff,
06,
05,
06,
fe,
f6,
e0,
e7,
01,
04,
0b,
04,
f7,
fd,
ff,
ef,
fa,
f7,
fb,
f3,
ed,
05,
10,
0b,
00,
07,
fb,
fc,
08,
01,
07,
f9,
f8,
00,
12,
11,
0b,
12,
0b,
0e,
14,
11,
0d,
07,
f8,
0b,
0d,
f6,
0c,
ff,
04,
fa,
01,
fa,
06,
0a,
05,
0b,
f8,
01,
fd,
16,
13,
10,
0d,
09,
0e,
04,
0e,
0a,
07,
06,
fe,
01,
07,
03,
0a,
fd,
ff,
04,
fc,
00,
fb,
fd,
07,
0b,
01,
14,
09,
18,
0c,
0d,
0d,
14,
08,
07,
0c,
15,
00,
01,
f9,
fe,
05,
1c,
0b,
f8,
02,
0d,
0a,
fe,
09,
04,
04,
0a,
12,
23,
0b,
17,
07,
06,
0d,
13,
0a,
01,
fe,
03,
03,
f4,
f6,
f7,
07,
15,
1e,
0f,
04,
0b,
fc,
06,
0a,
ff,
ff,
1b,
20,
20,
12,
0f,
0e,
0e,
07,
01,
05,
f6,
e9,
ff,
fa,
fd,
fa,
03,
fd,
0b,
11,
0a,
f5,
ff,
00,
fc,
ff,
fc,
03,
15,
1f,
11,
16,
0d,
0a,
05,
0a,
f7,
05,
f9,
eb,
ec,
f7,
09,
fa,
12,
f9,
19,
17,
0d,
0e,
02,
03,
fc,
05,
0a,
10,
10,
15,
03,
fb,
fa,
f3,
ea,
e6,
ec,
f5,
ec,
f1,
04,
08,
09,
0f,
14,
12,
21,
14,
09,
1a,
11,
05,
07,
0a,
04,
0b,
fd,
f5,
f2,
f4,
f2,
e5,
eb,
e4,
e6,
f1,
f6,
06,
12,
11,
11,
03,
24,
1d,
14,
03,
f7,
0a,
08,
08,
05,
05,
fa,
0d,
ea,
e5,
f0,
f1,
f0,
e8,
f4,
f2,
f3,
fd,
02,
0b,
17,
1e,
06,
0b,
fd,
fe,
e2,
e7,
e3,
ff,
ff,
04,
fa,
fe,
02,
04,
ef,
e3,
e0,
e4,
e7,
e2,
f7,
fc,
fe,
0b,
01,
19,
0d,
16,
09,
fd,
ff,
eb,
ef,
e4,
f8,
fb,
08,
04,
06,
09,
09,
fb,
fb,
e2,
e2,
e9,
f6,
fb,
00,
00,
05,
0d,
ff,
04,
12,
08,
04,
ff,
02,
ea,
ed,
f2,
ec,
fd,
03,
01,
09,
fc,
07,
fd,
f4,
ee,
e5,
f3,
08,
03,
f7,
0e,
16,
0e,
06,
fd,
fd,
f5,
f4,
f6,
f7,
f2,
e2,
e0,
f1,
fe,
02,
05,
03,
fb,
fd,
03,
f8,
f0,
03,
fb,
00,
06,
0d,
13,
11,
ff,
f9,
fb,
ef,
fb,
f4,
f4,
fb,
f4,
f2,
dc,
e7,
f8,
fa,
fa,
fc,
09,
03,
f7,
f8,
f8,
f9,
03,
06,
06,
10,
0a,
0b,
f8,
fb,
f5,
f5,
f7,
f6,
04,
fc,
f3,
f3,
f0,
f1,
04,
ff,
04,
02,
fc,
fc,
ff,
ec,
ed,
f5,
07,
08,
04,
06,
04,
f8,
ee,
f1,
07,
fe,
f6,
f5,
ff,
f2,
f6,
f6,
ee,
03,
05,
fe,
fc,
fc,
08,
f8,
fd,
f2,
f3,
ff,
04,
fc,
f9,
f6,
ef,
f7,
f4,
f0,
fe,
f4,
f0,
fc,
f8,
eb,
ee,
01,
00,
fd,
fb,
fe,
fb,
fb,
ff,
06,
ef,
f6,
f1,
fa,
06,
fb,
f3,
f9,
ff,
07,
03,
00,
01,
ee,
fb,
ff,
ed,
fb,
f7,
fd,
00,
02,
00,
03,
fb,
fd,
07,
fa,
ff,
06,
f8,
fd,
fc,
08,
f7,
f8,
0e,
03,
05,
fc,
01,
fd,
0a,
0e,
fc,
0b,
08,
0e,
11,
02,
fd,
06,
fc,
03,
01,
05,
04,
05,
fc,
0b,
03,
0b,
f7,
08,
06,
fd,
05,
06,
06,
02,
09,
01,
17,
03,
04,
0e,
10,
03,
fa,
05,
08,
08,
02,
04,
0a,
08,
04,
08,
18,
14,
14,
0f,
14,
0f,
05,
1e,
11,
11,
15,
0e,
1f,
10,
05,
fa,
fa,
00,
06,
00,
fe,
02,
03,
ff,
fb,
fd,
fd,
07,
16,
16,
1b,
19,
10,
0d,
19,
1c,
0e,
fe,
14,
13,
18,
0c,
09,
fa,
ff,
05,
08,
ff,
09,
00,
fd,
fe,
02,
00,
05,
fe,
03,
fd,
09,
04,
fc,
02,
04,
09,
03,
08,
01,
03,
02,
03,
08,
01,
08,
08,
fd,
01,
fe,
07,
01,
06,
04,
fe,
fe,
fc,
ff,
06,
04,
0a,
fd,
03,
fc,
04,
07,
fc,
0b,
01,
0b,
02,
08,
0b,
01,
02,
08,
fd,
08,
ff,
0b,
fe,
00,
0a,
00,
0b,
09,
0a,
fc,
03,
01,
06,
fe,
07,
06,
03,
fe,
08,
01,
0a,
06,
06,
02,
03,
01,
fd,
09,
ff,
08,
01,
09,
0b,
ff,
0a,
03,
fb,
03,
00,
01,
f6,
02,
ff,
02,
ff,
f6,
04,
08,
ff,
02,
0a,
0a,
09,
0a,
00,
02,
00,
08,
06,
fe,
03,
fd,
fa,
06,
fa,
01,
05,
09,
0d,
0b,
08,
11,
09,
0c,
ff,
f6,
f9,
f1,
f8,
02,
0a,
08,
fe,
ff,
0a,
05,
06,
00,
04,
03,
f8,
00,
05,
03,
11,
15,
16,
16,
26,
19,
10,
04,
07,
fc,
f7,
04,
f5,
f5,
f4,
03,
fe,
fe,
fd,
07,
01,
08,
00,
01,
01,
01,
00,
15,
0d,
04,
01,
13,
14,
13,
07,
00,
ff,
04,
f9,
00,
fe,
df,
f3,
ff,
05,
fe,
01,
03,
ff,
09,
07,
09,
03,
f6,
10,
fd,
fd,
f8,
f6,
fe,
f4,
f0,
fe,
00,
00,
03,
09,
07,
f6,
de,
fb,
fb,
09,
fc,
02,
01,
ff,
09,
06,
ef,
f2,
fd,
f5,
f5,
03,
ed,
fc,
03,
00,
06,
04,
04,
0a,
09,
12,
0a,
f9,
fc,
f2,
f9,
08,
ff,
06,
fc,
04,
06,
f4,
fb,
05,
fe,
02,
ff,
08,
f7,
05,
0a,
1b,
21,
1b,
1b,
1a,
08,
12,
14,
13,
f5,
e8,
ee,
02,
05,
fd,
ff,
02,
03,
07,
00,
0b,
0c,
03,
09,
13,
ff,
f9,
06,
1f,
18,
26,
25,
11,
14,
15,
07,
07,
fd,
e9,
e9,
fc,
02,
06,
00,
09,
05,
13,
05,
09,
f8,
00,
fe,
04,
f9,
fb,
f9,
21,
11,
21,
18,
14,
0b,
20,
0e,
13,
03,
db,
e8,
f7,
02,
06,
0c,
0f,
07,
06,
f6,
fb,
f9,
06,
f6,
05,
0b,
ec,
04,
19,
0e,
fb,
14,
15,
16,
24,
18,
19,
03,
df,
fc,
0b,
06,
fe,
03,
0b,
12,
14,
0d,
f7,
f6,
fe,
ff,
16,
01,
f3,
f0,
0d,
0f,
10,
1b,
13,
0a,
14,
0d,
21,
0e,
ee,
f8,
f9,
04,
fc,
04,
ff,
10,
13,
14,
0b,
f9,
01,
fa,
f6,
fb,
ef,
ea,
fb,
fe,
0a,
0d,
09,
10,
fe,
0f,
ff,
f3,
e5,
ef,
04,
04,
02,
03,
ff,
01,
02,
16,
0e,
ff,
fe,
ef,
02,
f6,
f8,
eb,
01,
13,
04,
06,
0b,
01,
01,
0e,
f9,
f6,
fc,
f0,
fa,
05,
ff,
05,
00,
f0,
06,
1b,
0c,
0a,
fc,
f3,
f7,
02,
f5,
f4,
ee,
ff,
00,
f7,
00,
0e,
08,
01,
01,
0d,
09,
f1,
02,
0b,
fe,
04,
02,
f1,
0f,
1b,
fd,
f2,
09,
09,
04,
fa,
eb,
ea,
e2,
eb,
fb,
f8,
fc,
f7,
f8,
ed,
fe,
fd,
f4,
eb,
fa,
00,
01,
07,
02,
09,
01,
02,
ee,
04,
fc,
08,
04,
f7,
05,
ef,
e7,
ea,
f3,
01,
fe,
05,
fd,
f8,
02,
f8,
f7,
f6,
05,
0d,
07,
07,
00,
07,
f0,
f9,
f1,
f9,
0d,
05,
05,
06,
fc,
f2,
fd,
fd,
fa,
fa,
0b,
0b,
12,
ff,
f5,
e7,
e1,
fc,
03,
01,
09,
0b,
fe,
02,
00,
f8,
f9,
ee,
01,
f6,
f9,
f9,
0b,
fb,
03,
fe,
f1,
03,
09,
0d,
05,
ec,
e8,
df,
ee,
fd,
03,
0c,
fc,
01,
ff,
fa,
f2,
04,
fe,
f0,
fd,
ef,
03,
fa,
06,
fd,
fc,
f1,
e8,
fd,
fa,
fc,
fc,
e7,
d9,
db,
fa,
02,
0b,
08,
02,
0b,
02,
04,
ec,
f9,
08,
f8,
f7,
f7,
fa,
03,
04,
f4,
f1,
e7,
f6,
f6,
fe,
f3,
ea,
df,
d8,
e2,
f8,
09,
0a,
fd,
fe,
01,
fd,
01,
e3,
f1,
04,
00,
f4,
f1,
ff,
00,
0c,
0e,
12,
01,
0b,
06,
ea,
df,
d0,
e4,
f0,
fe,
02,
04,
0b,
fe,
02,
06,
08,
fd,
f4,
f1,
f4,
09,
f6,
f8,
04,
fd,
09,
1c,
10,
07,
03,
f6,
d3,
cb,
dd,
e4,
02,
fb,
0a,
fa,
fc,
fe,
0a,
09,
0a,
0c,
06,
14,
12,
1d,
15,
fe,
fd,
f8,
02,
04,
f1,
f5,
e5,
ec,
d8,
ee,
04,
fc,
0e,
0a,
08,
03,
09,
00,
ff,
08,
06,
05,
02,
14,
16,
15,
1d,
14,
f8,
05,
07,
00,
07,
01,
0a,
02,
fc,
1d,
1b,
0f,
11,
0d,
07,
07,
07,
0b,
04,
04,
04,
05,
ff,
06,
04,
0d,
13,
20,
17,
17,
20,
2c,
2d,
21,
2e,
19,
25,
21,
1c,
10,
03,
08,
0a,
ff,
02,
ff,
07,
05,
08,
01,
fc,
00,
ff,
07,
0b,
fe,
08,
fe,
01,
02,
09,
05,
09,
0e,
12,
08,
06,
06,
0b,
ff,
0a,
fc,
fe,
06,
ff,
04,
09,
06,
0a,
ff,
fe,
01,
01,
ff,
02,
0a,
fe,
06,
06,
07,
04,
ff,
06,
fe,
fd,
0a,
09,
fc,
09,
04,
04,
0a,
02,
00,
07,
00,
00,
ff,
09,
03,
fa,
00,
02,
fd,
03,
fa,
01,
ff,
fe,
09,
04,
06,
fd,
03,
04,
06,
00,
01,
fc,
07,
08,
06,
06,
07,
0a,
05,
03,
ff,
f4,
fd,
fe,
f4,
f1,
e6,
e8,
fe,
ff,
fc,
04,
00,
03,
00,
fe,
fe,
0a,
04,
fe,
03,
fa,
02,
08,
03,
04,
fa,
f9,
f8,
e4,
e5,
f8,
f4,
ee,
d9,
f0,
f7,
f5,
fd,
03,
17,
03,
0b,
03,
fd,
f9,
04,
fe,
04,
09,
fc,
00,
04,
05,
01,
01,
f5,
f0,
f0,
f1,
01,
fa,
00,
0a,
0d,
f7,
03,
00,
00,
ec,
fa,
ee,
07,
0f,
02,
04,
04,
06,
09,
06,
04,
06,
fc,
0f,
02,
fe,
fd,
06,
0e,
f7,
f4,
ff,
fe,
13,
08,
f1,
ef,
ff,
ec,
ff,
07,
10,
ff,
fe,
fd,
fd,
01,
ff,
0a,
03,
14,
0c,
0d,
08,
09,
ff,
fc,
f4,
03,
fd,
f7,
f7,
f4,
ef,
f5,
05,
03,
02,
12,
08,
0b,
04,
06,
05,
08,
06,
fd,
13,
1d,
0e,
09,
03,
f2,
f7,
ee,
ec,
f6,
fd,
f0,
f7,
03,
f6,
fa,
02,
08,
0c,
0d,
17,
0b,
12,
04,
01,
fe,
07,
0c,
07,
0a,
08,
01,
f6,
fe,
fc,
fa,
f5,
f1,
f8,
01,
04,
03,
06,
fb,
0c,
0d,
0e,
07,
25,
0f,
0a,
01,
fa,
fb,
fe,
0c,
08,
fc,
03,
18,
01,
07,
08,
fc,
f4,
fd,
fc,
f7,
05,
06,
0b,
0a,
11,
16,
08,
0c,
16,
1f,
07,
fe,
fe,
02,
ff,
06,
05,
ee,
ec,
01,
f1,
f9,
f6,
e9,
f5,
f6,
f5,
04,
00,
fe,
01,
fc,
f6,
00,
f4,
f1,
06,
08,
0d,
04,
02,
f9,
01,
fd,
ff,
f0,
f9,
f6,
f2,
fc,
06,
fa,
03,
f0,
eb,
ff,
fb,
e9,
f7,
ec,
ea,
d9,
e6,
e2,
f5,
06,
04,
fe,
07,
06,
f9,
02,
f4,
f1,
04,
05,
f0,
05,
10,
04,
04,
07,
fd,
fa,
e9,
e1,
e9,
eb,
ff,
e7,
ed,
ed,
f4,
e9,
f7,
ff,
07,
01,
fd,
03,
fc,
14,
14,
13,
04,
0d,
15,
02,
0e,
03,
ec,
f4,
fc,
f6,
f7,
02,
09,
0b,
fc,
ed,
e6,
d8,
f1,
00,
00,
06,
f8,
fb,
03,
29,
16,
14,
15,
12,
0c,
00,
02,
07,
fe,
00,
07,
09,
f9,
f6,
fc,
09,
fe,
f3,
e4,
d3,
f2,
04,
05,
0a,
08,
00,
07,
19,
05,
1f,
1e,
22,
10,
10,
0e,
04,
06,
ff,
01,
f7,
f2,
f8,
f6,
00,
0b,
12,
f3,
e0,
04,
02,
fe,
00,
fe,
f9,
e6,
fa,
00,
0c,
20,
17,
17,
0f,
24,
1e,
05,
08,
f8,
f2,
03,
03,
f9,
08,
05,
09,
07,
e6,
f1,
05,
09,
0a,
03,
00,
e9,
eb,
f1,
06,
fc,
07,
13,
13,
14,
22,
06,
fb,
01,
ff,
0c,
fa,
f4,
f2,
f0,
0b,
f7,
e0,
f1,
07,
04,
00,
04,
fb,
ea,
dc,
cd,
e2,
d6,
e4,
eb,
fe,
f5,
02,
ff,
fb,
03,
02,
f6,
f7,
f9,
f4,
f7,
08,
fa,
ea,
f9,
05,
fc,
fb,
ff,
fb,
e7,
de,
ca,
c1,
b0,
b3,
bd,
c4,
ba,
dc,
e5,
f6,
0e,
0b,
10,
ff,
00,
01,
fd,
fe,
fa,
eb,
fd,
03,
01,
fb,
0b,
0f,
f3,
dd,
d3,
c6,
c1,
ce,
c2,
cf,
cc,
e2,
f2,
fe,
05,
0a,
15,
06,
fa,
0a,
14,
10,
f4,
f8,
fe,
03,
fa,
05,
03,
05,
05,
ec,
e6,
ef,
fb,
f2,
f1,
05,
fd,
fc,
fb,
0a,
0b,
08,
0d,
05,
fa,
12,
13,
1c,
fc,
07,
08,
06,
07,
fd,
ff,
0e,
12,
02,
fa,
0b,
0f,
12,
1a,
18,
06,
07,
09,
04,
09,
0e,
0b,
00,
01,
03,
0b,
11,
ff,
08,
06,
fd,
0a,
05,
07,
07,
1d,
12,
1b,
19,
21,
19,
25,
14,
0e,
14,
0a,
07,
05,
00,
07,
f9,
0c,
fb,
fe,
0c,
01,
09,
0b,
05,
fb,
ff,
01,
00,
15,
1b,
1c,
18,
1c,
1c,
1d,
21,
10,
19,
13,
05,
fd,
f2,
fd,
f9,
04,
fb,
00,
05,
fc,
fb,
00,
fe,
09,
fc,
07,
04,
05,
0f,
0c,
fe,
fc,
f5,
f7,
05,
f6,
ff,
f4,
fb,
ea,
e3,
ef,
f9,
f4,
fe,
07,
01,
07,
05,
fd,
0a,
09,
09,
02,
fe,
fe,
04,
fe,
fb,
f6,
ee,
e6,
ff,
02,
f6,
ec,
e5,
ee,
e0,
ed,
f1,
fa,
01,
fe,
09,
07,
05,
02,
04,
0a,
05,
fe,
05,
ff,
02,
fc,
00,
01,
fe,
09,
0a,
fb,
01,
fb,
ff,
01,
fb,
fc,
fe,
0a,
fa,
01,
03,
08,
03,
07,
04,
08,
03,
06,
0b,
00,
00,
09,
06,
fb,
06,
fb,
ff,
06,
07,
01,
0a,
0b,
09,
fc,
00,
04,
0a,
02,
05,
07,
ff,
fe,
0b,
03,
09,
fb,
00,
09,
02,
04,
f7,
06,
fd,
00,
f8,
f4,
f6,
fd,
fb,
fb,
05,
00,
04,
fe,
01,
08,
fc,
00,
0a,
01,
01,
04,
ff,
04,
ff,
06,
01,
fd,
f9,
fe,
03,
f3,
f4,
ed,
fb,
fb,
e6,
ee,
f4,
f2,
f9,
ff,
fe,
fc,
fc,
fc,
00,
03,
02,
09,
fc,
04,
00,
04,
0a,
ff,
f8,
f3,
ef,
f2,
03,
eb,
e9,
f6,
f0,
eb,
ec,
f0,
f2,
ec,
f8,
f1,
fc,
f9,
02,
07,
04,
0a,
ff,
ff,
0a,
fc,
04,
00,
f8,
f0,
f2,
e7,
e3,
e0,
e9,
f3,
f1,
e4,
e4,
e8,
e1,
fa,
07,
f9,
00,
19,
02,
0c,
fd,
04,
05,
01,
09,
f4,
ed,
ea,
f7,
05,
02,
f7,
f7,
e6,
e2,
ef,
e9,
db,
e4,
db,
d9,
ed,
f4,
01,
01,
01,
05,
03,
0a,
06,
03,
fd,
f8,
f9,
f8,
e6,
e8,
fb,
ef,
ec,
f1,
fd,
01,
06,
f5,
ef,
f4,
ee,
ea,
e9,
f9,
01,
f9,
08,
02,
0c,
02,
fe,
fd,
02,
03,
ed,
ea,
ee,
e6,
f4,
fa,
f9,
fd,
03,
0f,
06,
f9,
ff,
ff,
03,
00,
02,
fa,
03,
02,
01,
01,
0e,
09,
09,
fc,
04,
fa,
e7,
f1,
f2,
fc,
04,
03,
ea,
f9,
fd,
02,
03,
01,
01,
fc,
04,
01,
05,
09,
08,
0c,
0f,
14,
fd,
03,
0a,
07,
01,
03,
ec,
f8,
0f,
09,
fe,
f6,
f6,
0d,
0a,
ff,
f8,
04,
fa,
03,
05,
0e,
08,
fc,
f0,
fa,
08,
10,
fb,
02,
fb,
0b,
09,
fb,
fc,
fd,
0b,
0f,
0c,
16,
0c,
12,
08,
0b,
fc,
0a,
07,
fb,
0c,
0c,
00,
f1,
f2,
ff,
0c,
15,
11,
00,
05,
09,
ff,
01,
f5,
ef,
0a,
01,
18,
15,
08,
15,
14,
06,
09,
13,
0e,
0b,
09,
10,
fe,
e9,
f4,
f7,
ef,
0b,
fc,
fe,
00,
0b,
00,
ff,
f1,
f0,
02,
0e,
17,
07,
0b,
16,
19,
08,
00,
0d,
07,
03,
07,
04,
ed,
ef,
ec,
dd,
d5,
fe,
07,
00,
09,
03,
03,
f3,
fc,
ef,
fd,
12,
16,
0f,
14,
0a,
11,
00,
fe,
08,
0a,
08,
ff,
00,
fb,
ed,
ed,
cd,
e3,
02,
fc,
0a,
ff,
ff,
09,
ff,
00,
f3,
01,
18,
10,
11,
09,
09,
0d,
fd,
f5,
08,
12,
14,
13,
00,
01,
ee,
e9,
e7,
f3,
f4,
f6,
02,
09,
fe,
05,
0a,
03,
00,
10,
0b,
0a,
ff,
12,
05,
fc,
ed,
f3,
11,
0a,
14,
14,
f6,
ec,
ee,
03,
fe,
fe,
fc,
09,
fd,
05,
05,
00,
07,
ff,
08,
11,
19,
1b,
fd,
ff,
fd,
02,
fb,
e9,
03,
1d,
18,
0a,
f4,
ff,
03,
06,
fd,
f3,
fc,
04,
fd,
04,
05,
07,
f6,
fe,
14,
0f,
1a,
17,
0e,
01,
fe,
f7,
0e,
02,
17,
14,
05,
f6,
f6,
00,
0c,
0d,
fe,
fb,
fb,
ff,
fe,
fc,
01,
09,
f7,
05,
15,
22,
14,
13,
06,
f2,
f7,
ff,
0d,
13,
fd,
f3,
eb,
e7,
f8,
1a,
03,
f9,
01,
f6,
f8,
00,
05,
07,
08,
fe,
fc,
04,
01,
00,
fc,
f3,
f4,
f4,
f3,
f2,
f7,
ff,
f0,
ec,
ed,
ef,
02,
fd,
fb,
ed,
f8,
05,
f9,
fe,
fb,
fd,
05,
06,
f7,
f7,
e1,
e7,
ef,
e9,
f1,
ed,
e8,
ed,
e6,
e9,
d5,
e5,
fc,
f5,
fa,
e5,
e2,
ee,
fd,
06,
0a,
fe,
05,
0a,
04,
fc,
fe,
fb,
ea,
d7,
d2,
e1,
ee,
e5,
e5,
f5,
e6,
d7,
e4,
ed,
ea,
eb,
ef,
ef,
ee,
f7,
fb,
07,
fd,
fe,
06,
0a,
fb,
ff,
02,
f4,
e4,
e1,
d7,
f4,
f5,
fc,
f5,
fc,
dd,
e9,
e4,
ea,
e8,
ef,
f0,
ef,
f3,
fc,
0f,
13,
0a,
0a,
ff,
09,
09,
03,
f9,
f9,
f4,
f0,
fc,
01,
f9,
fa,
f6,
f3,
e6,
ed,
df,
ee,
e9,
dc,
f1,
ef,
fe,
18,
15,
12,
0a,
09,
fc,
fe,
03,
03,
02,
0d,
11,
f9,
02,
05,
f7,
f3,
f0,
e2,
e8,
ed,
de,
e8,
e8,
fb,
fd,
04,
16,
27,
15,
07,
06,
09,
02,
fd,
00,
00,
05,
04,
0f,
00,
02,
fe,
ea,
eb,
f5,
ec,
ea,
f7,
f4,
0c,
00,
07,
02,
13,
1c,
10,
08,
02,
02,
07,
07,
03,
01,
01,
fc,
0b,
0c,
05,
06,
00,
05,
07,
05,
1d,
24,
29,
11,
0c,
06,
02,
06,
14,
11,
05,
0b,
fd,
02,
0a,
fe,
01,
00,
00,
0a,
08,
fc,
ff,
05,
02,
01,
ff,
0b,
0a,
06,
07,
00,
04,
07,
03,
0c,
06,
02,
06,
07,
fd,
05,
fc,
01,
fc,
05,
f7,
02,
f7,
02,
01,
fc,
01,
06,
04,
f7,
fd,
07,
00,
00,
ff,
fc,
fd,
ff,
05,
fc,
fd,
00,
fc,
06,
05,
ff,
fa,
01,
06,
01,
02,
fa,
f9,
02,
05,
08,
03,
01,
03,
04,
ff,
01,
04,
07,
08,
09,
fe,
09,
07,
fd,
ff,
06,
fc,
03,
00,
03,
02,
07,
06,
f9,
07,
06,
06,
00,
03,
04,
03,
01,
0e,
10,
0d,
14,
20,
13,
06,
0d,
01,
0b,
00,
fb,
06,
03,
06,
05,
fd,
06,
01,
ff,
06,
fd,
ff,
09,
fa,
03,
fc,
08,
0a,
07,
16,
07,
23,
27,
29,
1c,
0d,
09,
00,
01,
02,
fc,
05,
fd,
fd,
05,
ff,
fb,
fc,
f1,
f6,
07,
05,
03,
04,
06,
ff,
0d,
07,
13,
14,
0b,
18,
28,
1f,
11,
0d,
f7,
02,
04,
01,
fe,
ff,
06,
fb,
ef,
ea,
fc,
f7,
0a,
03,
fe,
f7,
fa,
ff,
00,
14,
19,
19,
1a,
1f,
26,
18,
1c,
13,
0c,
00,
06,
03,
06,
fe,
f6,
f5,
f9,
00,
00,
07,
02,
fe,
fa,
0a,
f6,
04,
10,
19,
1b,
19,
1d,
2b,
1a,
11,
04,
18,
0e,
fc,
fc,
f9,
03,
fe,
01,
fb,
00,
fa,
ff,
10,
fd,
00,
0f,
06,
02,
0f,
0d,
09,
1e,
18,
1e,
11,
08,
f2,
f2,
fc,
fe,
03,
06,
ff,
fe,
07,
01,
ed,
fc,
fd,
ff,
06,
06,
f4,
0a,
01,
f9,
fa,
ea,
ed,
e8,
e7,
d8,
de,
dc,
cb,
e7,
e9,
fc,
00,
f8,
05,
fd,
fe,
03,
00,
f6,
f8,
fc,
05,
fc,
00,
06,
fd,
ed,
e5,
cb,
b5,
a7,
a7,
9b,
b0,
9f,
b7,
cb,
e4,
fe,
fe,
fd,
01,
00,
09,
00,
06,
02,
06,
04,
08,
04,
fc,
f1,
ec,
f0,
ec,
dd,
e1,
c7,
c0,
93,
9d,
9a,
a1,
c3,
d7,
f4,
fe,
fc,
05,
fd,
04,
03,
09,
07,
0d,
02,
f5,
fb,
03,
fd,
fd,
04,
07,
03,
10,
08,
0a,
df,
cf,
c5,
c2,
d1,
e7,
f6,
fa,
fc,
02,
06,
01,
09,
05,
fc,
0c,
f9,
0e,
fb,
fa,
03,
fc,
f5,
f8,
fa,
0f,
14,
18,
0e,
03,
f2,
eb,
df,
f2,
f0,
00,
04,
ff,
05,
fa,
08,
02,
f2,
10,
0b,
f3,
fc,
01,
ff,
05,
f9,
f8,
04,
00,
f6,
04,
13,
14,
04,
02,
0d,
06,
fa,
f9,
f7,
06,
00,
07,
0d,
07,
f1,
0c,
07,
ff,
01,
0a,
08,
fb,
ef,
f5,
fb,
01,
fa,
06,
0e,
12,
0e,
0d,
0d,
19,
f6,
ee,
01,
03,
fb,
03,
fa,
f6,
fa,
04,
fb,
fb,
09,
04,
f7,
03,
ef,
f8,
01,
06,
02,
0a,
08,
0c,
0d,
fd,
11,
1f,
07,
f9,
fd,
fe,
01,
f6,
08,
f8,
f9,
fd,
03,
f7,
f4,
f4,
ff,
f9,
f0,
02,
00,
01,
0b,
04,
08,
fa,
ff,
03,
09,
0c,
06,
f1,
f6,
fe,
fb,
f7,
0b,
03,
03,
05,
03,
00,
00,
fa,
02,
09,
fd,
00,
f6,
fe,
01,
07,
0b,
01,
08,
09,
fa,
0f,
f6,
fb,
f7,
fb,
fc,
f9,
00,
06,
01,
03,
ff,
04,
fc,
01,
f4,
f8,
f8,
0a,
07,
0a,
0e,
01,
fa,
0c,
09,
01,
00,
07,
ff,
f9,
03,
ff,
f8,
07,
06,
15,
08,
03,
fa,
04,
fd,
f7,
08,
15,
04,
02,
05,
07,
fc,
ff,
f3,
00,
01,
01,
fb,
0a,
fc,
f3,
fd,
ff,
00,
06,
0d,
18,
15,
f7,
f6,
07,
04,
ff,
ff,
01,
09,
07,
0d,
01,
07,
05,
06,
ff,
fb,
fd,
06,
04,
05,
06,
06,
fb,
fa,
02,
f9,
0c,
08,
f7,
ef,
ee,
fd,
ff,
fd,
0f,
0a,
0d,
09,
03,
04,
04,
fa,
0e,
09,
03,
f5,
fe,
02,
02,
fe,
03,
fe,
00,
00,
f8,
fd,
f6,
ee,
ee,
fb,
04,
f6,
03,
0b,
04,
09,
04,
fc,
fb,
00,
fd,
f5,
03,
fe,
ed,
03,
01,
fb,
05,
f9,
f7,
00,
fd,
fe,
f5,
ea,
ff,
fd,
04,
01,
f6,
fa,
fb,
08,
f9,
f8,
01,
00,
fc,
03,
fc,
05,
fa,
07,
06,
00,
00,
fd,
f8,
02,
06,
09,
0c,
05,
08,
10,
fd,
05,
fe,
02,
07,
0e,
03,
04,
08,
07,
06,
00,
f6,
f7,
f8,
03,
07,
f7,
fb,
fb,
f9,
07,
f9,
fc,
01,
13,
12,
13,
10,
17,
1f,
14,
0d,
1f,
0b,
0e,
0b,
16,
05,
07,
06,
fe,
fd,
fa,
fc,
f7,
05,
01,
f7,
f7,
fb,
02,
0a,
05,
0e,
09,
0e,
11,
07,
19,
1d,
1b,
0a,
0b,
11,
10,
07,
01,
08,
f7,
fc,
03,
fd,
fb,
f7,
04,
ff,
03,
00,
f9,
fc,
05,
fb,
fc,
05,
fd,
03,
ff,
04,
02,
fc,
fc,
04,
fd,
04,
01,
fd,
fd,
fb,
03,
05,
fe,
00,
0b,
0c,
0b,
05,
07,
06,
02,
fd,
04,
09,
0a,
07,
09,
0a,
04,
0b,
05,
03,
02,
01,
ff,
07,
0d,
07,
06,
02,
02,
03,
08,
07,
02,
07,
04,
05,
0b,
01,
0c,
ff,
09,
04,
06,
04,
06,
ff,
fd,
0a,
0b,
07,
02,
07,
05,
fe,
ff,
08,
03,
03,
01,
09,
01,
03,
0a,
0d,
0c,
06,
00,
01,
01,
ff,
ff,
03,
00,
03,
03,
fb,
fa,
fb,
00,
03,
00,
fd,
00,
09,
05,
04,
07,
04,
01,
01,
01,
fc,
f6,
ee,
f2,
f4,
ee,
f3,
e9,
d9,
e6,
f2,
ea,
f1,
00,
f5,
f5,
f6,
02,
01,
01,
0b,
00,
0c,
02,
09,
0b,
08,
03,
fb,
f1,
f2,
e1,
e1,
ea,
e6,
e6,
eb,
f7,
f6,
dd,
ff,
17,
10,
06,
03,
fd,
f3,
fd,
04,
ff,
0b,
01,
07,
ff,
fd,
ff,
f0,
f6,
ec,
ed,
d7,
d3,
e6,
ec,
f5,
f5,
06,
e9,
e9,
03,
f9,
05,
07,
fe,
fe,
f0,
fc,
fc,
0b,
0d,
01,
0b,
05,
09,
09,
f3,
f8,
f4,
e9,
ed,
ec,
d5,
e5,
f2,
0a,
f6,
04,
f8,
02,
fd,
08,
0b,
00,
fa,
09,
01,
ff,
06,
0f,
18,
0a,
13,
0b,
05,
ff,
18,
0d,
eb,
e3,
f2,
f2,
e8,
06,
0d,
fb,
ff,
02,
08,
1a,
13,
fd,
02,
05,
0a,
0a,
04,
0d,
18,
15,
1b,
0f,
1a,
10,
22,
08,
fb,
ed,
f5,
fe,
08,
fc,
08,
13,
03,
02,
08,
09,
19,
0e,
18,
13,
06,
03,
0d,
0f,
14,
26,
12,
1b,
1a,
10,
0e,
02,
ef,
f4,
fc,
08,
1e,
20,
1b,
15,
02,
01,
0e,
02,
11,
1c,
1a,
07,
0c,
0c,
02,
0c,
0e,
0f,
05,
0e,
07,
03,
0c,
08,
de,
e2,
f3,
0a,
2a,
1c,
17,
10,
1c,
0b,
17,
08,
01,
23,
25,
05,
02,
00,
0d,
14,
17,
0a,
fd,
fe,
01,
05,
01,
f6,
ef,
eb,
f6,
12,
19,
08,
04,
0a,
00,
08,
fa,
f4,
ee,
00,
1b,
05,
02,
03,
0f,
14,
11,
fb,
f8,
f6,
16,
0f,
0d,
f9,
e4,
e1,
e6,
fc,
0f,
01,
fb,
ee,
df,
e7,
e4,
e3,
dc,
e9,
06,
08,
0b,
0d,
05,
12,
06,
f5,
ff,
fc,
0b,
0b,
00,
f8,
de,
d8,
e6,
01,
07,
00,
f2,
f7,
dd,
f3,
e8,
e6,
d2,
f1,
01,
fe,
0b,
05,
07,
0f,
0a,
09,
03,
01,
03,
0a,
f5,
f0,
e6,
ee,
f5,
01,
01,
01,
ff,
ff,
0e,
06,
f1,
f3,
fa,
f6,
fa,
03,
05,
03,
0b,
0a,
0a,
ff,
f4,
0a,
09,
fd,
fd,
ef,
f1,
f5,
fa,
0b,
02,
f4,
0d,
15,
0f,
0c,
0e,
12,
05,
f3,
f5,
08,
03,
0b,
03,
06,
04,
f6,
e7,
f9,
f9,
f5,
f5,
ed,
f2,
f7,
ff,
0c,
fd,
06,
0d,
12,
0d,
12,
11,
f9,
f8,
f2,
f1,
00,
0b,
07,
03,
ff,
fa,
fa,
f0,
ec,
eb,
e6,
e8,
fc,
fc,
f6,
07,
0e,
01,
06,
00,
00,
f5,
fb,
f5,
e9,
f0,
f4,
fa,
06,
01,
0e,
08,
09,
fc,
f0,
f3,
f3,
f7,
f4,
04,
01,
08,
00,
13,
ff,
f4,
ee,
f0,
e9,
ec,
fa,
e1,
de,
ec,
ee,
03,
02,
08,
09,
01,
07,
01,
f2,
e3,
ed,
f9,
02,
ff,
f8,
fe,
09,
09,
f8,
f5,
e9,
ea,
d9,
dc,
e3,
d4,
cd,
e4,
fb,
08,
0c,
06,
fe,
06,
04,
fe,
eb,
e1,
fe,
f6,
f6,
f3,
f4,
06,
0a,
fb,
ff,
fb,
e8,
f1,
e0,
d7,
ce,
d9,
ea,
e8,
f4,
04,
01,
0d,
09,
09,
04,
f5,
f3,
fd,
fd,
01,
f3,
f4,
fa,
f5,
07,
fc,
fd,
f4,
f3,
e2,
e2,
d6,
e2,
ec,
e7,
f0,
fc,
fd,
0c,
04,
00,
05,
ff,
fa,
04,
05,
04,
0e,
04,
fa,
04,
fc,
fd,
fe,
0e,
0c,
01,
f5,
f1,
ed,
e7,
f7,
f7,
fa,
ff,
0b,
0c,
0c,
05,
04,
fd,
00,
01,
09,
11,
fa,
f7,
08,
0e,
03,
0a,
06,
13,
11,
0a,
ff,
fd,
f3,
ea,
f1,
ef,
f6,
09,
04,
05,
04,
ff,
0c,
fe,
fa,
05,
0e,
f8,
e4,
f2,
f0,
f6,
09,
f7,
f4,
02,
fb,
f3,
f6,
ef,
eb,
f7,
f3,
03,
f6,
01,
07,
0a,
02,
0b,
ff,
02,
0e,
08,
f0,
f2,
ee,
fd,
f6,
e8,
fc,
f9,
ef,
f1,
f2,
ef,
f8,
f1,
ee,
f7,
00,
0b,
0d,
04,
ff,
0a,
0b,
03,
05,
05,
fe,
fd,
f1,
f4,
f9,
01,
04,
e7,
e9,
e3,
fb,
e5,
f4,
ff,
02,
07,
07,
03,
04,
00,
05,
08,
03,
00,
03,
01,
03,
ff,
03,
0a,
02,
08,
fb,
fd,
05,
0b,
fb,
02,
11,
fc,
fb,
0e,
0c,
10,
02,
09,
03,
0a,
09,
ff,
01,
03,
05,
09,
01,
06,
00,
01,
0a,
03,
fe,
05,
04,
07,
01,
05,
01,
00,
07,
07,
06,
0c,
06,
05,
04,
fd,
08,
0b,
06,
fe,
0c,
07,
0b,
08,
06,
02,
06,
07,
04,
ff,
00,
fd,
00,
01,
0a,
05,
03,
06,
0a,
fe,
04,
07,
0a,
03,
08,
0b,
0a,
09,
0a,
fe,
07,
0b,
fe,
fe,
fe,
07,
0c,
02,
fe,
00,
f6,
01,
00,
06,
0d,
07,
05,
00,
01,
fb,
fd,
08,
0b,
0c,
fd,
08,
fd,
02,
05,
09,
02,
fe,
fc,
00,
09,
03,
00,
ee,
e7,
00,
00,
f1,
f7,
f8,
07,
00,
f2,
f2,
f5,
fe,
04,
05,
0c,
fe,
08,
ff,
06,
ff,
0b,
00,
03,
fd,
ff,
f6,
e8,
ee,
f8,
f5,
f7,
02,
fe,
fd,
fe,
09,
10,
02,
04,
fe,
fa,
00,
00,
04,
08,
01,
0a,
03,
06,
fe,
04,
f6,
f8,
df,
d0,
d5,
dd,
ee,
f6,
f6,
eb,
e9,
eb,
f9,
ff,
f4,
fb,
f3,
ea,
f4,
f6,
05,
ff,
0b,
08,
ff,
04,
fe,
01,
ed,
e1,
df,
ea,
f0,
06,
14,
15,
17,
04,
08,
17,
22,
07,
f8,
f1,
e5,
e9,
f1,
fd,
00,
03,
ff,
06,
0a,
0a,
04,
f3,
ee,
e1,
e7,
f4,
0b,
14,
19,
25,
2b,
13,
13,
15,
14,
13,
0b,
01,
e8,
eb,
dc,
e7,
fb,
08,
0b,
ff,
03,
fa,
fa,
e8,
e9,
f1,
03,
02,
04,
06,
0e,
1a,
1f,
13,
0e,
09,
12,
02,
05,
f4,
f2,
d9,
db,
f5,
06,
07,
0a,
02,
00,
02,
ee,
e6,
fc,
f9,
04,
07,
fc,
02,
00,
06,
10,
16,
02,
fc,
09,
00,
ef,
f2,
eb,
d4,
eb,
f5,
fd,
09,
03,
0d,
0d,
f7,
f5,
e7,
ff,
01,
11,
09,
f4,
f0,
fa,
fc,
0e,
ff,
fc,
f6,
fd,
0c,
05,
01,
fb,
d6,
e8,
f7,
f8,
0a,
0a,
0d,
0c,
05,
00,
fa,
02,
10,
15,
fe,
fb,
00,
f1,
fd,
13,
04,
f8,
05,
0f,
10,
20,
1c,
09,
e3,
e3,
f3,
02,
fe,
ff,
01,
10,
11,
1f,
06,
14,
0f,
07,
ff,
f6,
eb,
df,
f1,
01,
07,
01,
00,
0b,
05,
0a,
13,
f9,
fc,
e5,
fd,
00,
07,
07,
07,
03,
07,
23,
0d,
05,
0e,
0d,
fe,
ff,
eb,
d5,
fc,
06,
f9,
f7,
fc,
04,
08,
10,
08,
fc,
e4,
dd,
f2,
01,
02,
02,
0c,
0a,
14,
13,
ff,
03,
02,
07,
00,
f9,
f1,
e8,
00,
09,
09,
f4,
fc,
02,
00,
04,
f7,
e9,
da,
df,
fc,
00,
09,
0d,
0b,
0b,
fe,
04,
f8,
ff,
f8,
01,
e7,
eb,
f6,
f5,
fc,
02,
fa,
06,
04,
f8,
f7,
fa,
eb,
f1,
db,
dc,
fa,
03,
05,
02,
05,
0b,
fa,
06,
fd,
ff,
fd,
f6,
f6,
f7,
fb,
f0,
06,
0a,
f4,
01,
ef,
eb,
ee,
e5,
fa,
fd,
d5,
d5,
e9,
05,
fd,
06,
0b,
fc,
07,
f9,
f1,
f6,
ff,
fc,
fb,
f5,
f4,
f8,
0d,
10,
08,
f0,
ed,
fa,
f2,
ed,
ec,
ed,
de,
d5,
e9,
09,
fe,
02,
05,
07,
fc,
fa,
e5,
eb,
eb,
e6,
fc,
09,
fc,
fc,
0d,
13,
fe,
e4,
fd,
ff,
08,
0a,
01,
e8,
dc,
d9,
fb,
00,
ff,
02,
0c,
06,
f1,
ef,
e0,
e9,
f9,
f0,
f7,
07,
09,
0f,
13,
04,
f4,
f4,
f0,
fd,
04,
f9,
eb,
e7,
f2,
fb,
04,
0c,
0c,
0b,
06,
02,
02,
e8,
d4,
db,
e7,
f1,
e9,
fa,
00,
0b,
fb,
0c,
f8,
00,
f8,
f0,
fe,
ea,
eb,
e4,
f5,
0d,
08,
0a,
05,
01,
01,
fa,
fd,
ef,
f2,
eb,
e2,
dc,
ec,
01,
f7,
f7,
f2,
ff,
02,
f3,
e9,
f7,
f8,
01,
f2,
ed,
f3,
0f,
0c,
03,
01,
09,
01,
00,
01,
f4,
0a,
e8,
ee,
e7,
f1,
f4,
eb,
ee,
ee,
ff,
03,
f9,
fd,
f6,
ed,
ed,
e8,
03,
08,
17,
05,
05,
02,
0c,
00,
08,
f6,
0a,
02,
f7,
f0,
ee,
f3,
f4,
ef,
f5,
f1,
02,
01,
01,
14,
f7,
f3,
f6,
07,
17,
08,
0b,
00,
04,
02,
fe,
08,
0a,
fa,
0d,
0f,
f5,
fd,
fe,
eb,
ed,
e5,
e0,
e5,
ed,
fd,
e9,
fa,
01,
f8,
16,
0b,
11,
09,
fd,
07,
fe,
09,
06,
05,
00,
03,
09,
13,
02,
04,
1c,
1a,
ff,
02,
18,
03,
05,
09,
0d,
f9,
07,
17,
25,
21,
09,
05,
06,
06,
fd,
fd,
04,
0c,
08,
0c,
03,
06,
03,
19,
1e,
24,
1e,
0d,
13,
15,
28,
29,
1e,
1f,
16,
1a,
17,
13,
09,
fe,
ff,
0b,
0b,
ff,
07,
01,
0c,
0a,
08,
fe,
02,
07,
01,
02,
0b,
01,
0a,
09,
0e,
07,
05,
02,
07,
0f,
06,
10,
09,
04,
0a,
fd,
00,
09,
ff,
08,
01,
07,
02,
02,
fb,
ff,
02,
05,
03,
00,
01,
08,
07,
04,
fc,
ff,
07,
09,
fe,
05,
ff,
06,
00,
fb,
f9,
01,
04,
fd,
08,
05,
06,
05,
fa,
00,
05,
05,
f9,
fb,
04,
f7,
06,
fd,
01,
05,
02,
f8,
02,
fa,
fd,
00,
00,
07,
fd,
08,
05,
04,
07,
fc,
fa,
02,
05,
05,
01,
0c,
00,
00,
fa,
f9,
f6,
f4,
fc,
fb,
f7,
eb,
ff,
fc,
f1,
fd,
09,
03,
03,
04,
ff,
fc,
fe,
ff,
08,
fc,
05,
07,
0f,
0c,
02,
08,
04,
f0,
eb,
e7,
e5,
ed,
ec,
f4,
ec,
f1,
03,
ff,
fd,
07,
02,
06,
08,
ff,
06,
06,
07,
0a,
03,
00,
fc,
10,
ff,
09,
03,
f6,
02,
f5,
ed,
ed,
f5,
f5,
fe,
fb,
fe,
16,
10,
0c,
08,
00,
ff,
03,
fa,
0a,
03,
05,
02,
0a,
06,
15,
09,
06,
05,
02,
fc,
03,
ff,
fa,
f8,
fc,
f3,
fb,
00,
12,
00,
f3,
fa,
f9,
fd,
08,
02,
03,
00,
fe,
08,
fb,
02,
1d,
14,
0a,
09,
01,
fb,
01,
07,
03,
fc,
03,
f5,
fe,
ed,
f0,
00,
ee,
00,
05,
fb,
fe,
08,
02,
fb,
04,
01,
fc,
0a,
0c,
09,
07,
00,
0b,
fa,
eb,
fe,
08,
fc,
02,
0a,
11,
09,
ff,
f2,
fb,
00,
fe,
06,
05,
fd,
09,
0e,
fc,
f6,
ff,
09,
09,
12,
09,
0c,
11,
18,
0c,
f7,
ff,
03,
0b,
0e,
0b,
1c,
20,
07,
05,
06,
01,
02,
00,
04,
05,
06,
06,
00,
f4,
09,
0e,
0a,
0b,
22,
18,
16,
0f,
05,
0f,
0b,
03,
04,
06,
14,
1d,
21,
16,
11,
0c,
fe,
09,
0b,
0e,
fd,
0e,
0d,
ff,
12,
15,
10,
0e,
09,
0f,
0c,
15,
0c,
11,
0c,
01,
fe,
02,
fc,
07,
0f,
21,
11,
fc,
05,
00,
00,
fb,
f3,
f8,
fe,
02,
0d,
11,
05,
fb,
e2,
d3,
e4,
ef,
ed,
f4,
e8,
f6,
f7,
e4,
ed,
e9,
f0,
09,
06,
fd,
01,
02,
03,
e9,
ea,
e2,
d7,
e7,
f6,
e8,
e9,
d9,
da,
ca,
c8,
d3,
ed,
e4,
e6,
e2,
dc,
e5,
ce,
cd,
e9,
01,
09,
fe,
ff,
00,
05,
df,
cf,
bf,
b9,
ac,
b6,
d8,
de,
cf,
d9,
e4,
e5,
e4,
f2,
f3,
e4,
e7,
e8,
ec,
d9,
e7,
00,
0e,
0f,
0b,
07,
07,
fb,
e1,
d1,
b2,
a5,
ab,
ab,
c7,
e2,
e5,
f0,
f6,
f3,
ee,
fd,
ff,
f6,
f9,
f1,
ea,
f4,
ef,
f6,
10,
11,
04,
03,
07,
06,
e8,
d9,
cc,
cb,
d8,
eb,
f5,
f6,
ff,
07,
05,
01,
f6,
f8,
f5,
fb,
f2,
f8,
00,
f7,
f0,
05,
19,
1e,
0b,
fb,
04,
fe,
ea,
dd,
f0,
17,
0a,
06,
10,
14,
01,
0b,
07,
f6,
00,
09,
08,
fd,
08,
08,
23,
09,
11,
11,
2d,
22,
0d,
fc,
07,
06,
ec,
01,
13,
22,
1e,
0f,
0d,
f9,
01,
09,
fb,
fc,
06,
0b,
09,
ff,
01,
0d,
0b,
05,
08,
0f,
28,
16,
fc,
04,
03,
f8,
02,
0f,
23,
24,
20,
14,
11,
15,
0f,
0d,
0e,
07,
05,
00,
05,
fd,
ff,
fe,
fe,
f4,
03,
13,
17,
0c,
fc,
07,
04,
f7,
06,
0d,
17,
17,
23,
1e,
15,
10,
0c,
0e,
13,
14,
0c,
02,
04,
f7,
fd,
fe,
f3,
fb,
0e,
15,
1c,
0f,
09,
03,
02,
fd,
10,
09,
13,
14,
08,
19,
0e,
0c,
11,
11,
03,
02,
fd,
f5,
f9,
eb,
ea,
ed,
fc,
03,
08,
10,
02,
0a,
fe,
fe,
04,
0a,
09,
0c,
16,
f8,
f1,
fd,
03,
07,
fd,
0b,
fe,
fc,
00,
07,
f9,
fc,
05,
f6,
07,
0f,
17,
14,
04,
fd,
ff,
ff,
fb,
04,
fb,
03,
08,
f7,
ef,
02,
03,
03,
06,
04,
07,
0d,
06,
05,
00,
ff,
07,
01,
06,
13,
0f,
15,
0a,
fe,
fd,
03,
fb,
fe,
fd,
02,
0a,
fd,
f6,
ee,
fe,
05,
01,
01,
f7,
fa,
f8,
fa,
ed,
02,
01,
fa,
01,
05,
00,
02,
05,
01,
07,
00,
fd,
03,
f6,
0a,
0c,
f4,
ef,
f3,
fb,
f3,
fd,
f9,
fb,
00,
f0,
ee,
f9,
f6,
f3,
f5,
fd,
00,
fb,
04,
00,
06,
f9,
fb,
04,
ff,
04,
0b,
fb,
f6,
05,
0a,
08,
fc,
00,
0e,
00,
11,
12,
03,
03,
ee,
eb,
e1,
f1,
ff,
fc,
ff,
06,
0a,
fa,
00,
05,
ff,
fb,
fa,
ec,
f2,
08,
0a,
0e,
0c,
09,
00,
0d,
09,
10,
06,
fd,
f4,
fe,
ee,
ea,
01,
09,
05,
08,
06,
05,
06,
fb,
01,
fe,
04,
fa,
02,
05,
00,
ff,
fe,
07,
ff,
06,
08,
0a,
ff,
06,
fd,
01,
f3,
f5,
fc,
03,
08,
09,
07,
05,
0a,
08,
fd,
0a,
05,
02,
02,
0b,
0a,
04,
01,
00,
09,
00,
ff,
00,
07,
0b,
06,
07,
fe,
fe,
00,
ff,
01,
ff,
02,
ff,
07,
05,
05,
08,
fd,
01,
04,
fe,
09,
00,
0c,
0f,
0a,
03,
0a,
fd,
03,
0b,
0e,
07,
06,
05,
fd,
06,
fe,
05,
02,
0a,
01,
0a,
02,
03,
fd,
0b,
06,
ff,
09,
0c,
0b,
17,
15,
0e,
17,
10,
08,
11,
16,
13,
15,
08,
0a,
0c,
fc,
00,
00,
09,
05,
ff,
0a,
01,
04,
07,
00,
04,
03,
0a,
0a,
0a,
f6,
fb,
03,
fa,
fb,
02,
18,
0d,
0b,
15,
19,
16,
09,
fa,
ff,
ff,
0a,
06,
fe,
fc,
07,
fc,
ff,
f5,
f4,
ff,
04,
00,
0f,
0d,
08,
f7,
09,
fe,
fb,
fb,
fc,
0f,
0f,
21,
16,
05,
00,
08,
0b,
00,
0b,
02,
f9,
e6,
e3,
ea,
02,
02,
06,
05,
fc,
f1,
fa,
fa,
06,
01,
f4,
fa,
f6,
fd,
08,
12,
0f,
13,
0b,
03,
0b,
06,
09,
03,
ed,
e7,
d9,
01,
0d,
06,
f2,
ec,
f9,
dd,
e5,
e5,
eb,
ff,
e8,
f4,
f2,
e1,
08,
12,
1c,
13,
01,
01,
07,
fe,
fd,
f9,
ef,
e0,
e1,
01,
12,
0c,
08,
f9,
dd,
db,
db,
e9,
f0,
fc,
ee,
ee,
ed,
07,
14,
09,
13,
1c,
0c,
07,
08,
02,
06,
fb,
ef,
e0,
f3,
08,
0d,
13,
01,
f6,
f0,
e3,
df,
f3,
f1,
fa,
e1,
f0,
05,
13,
01,
02,
13,
21,
06,
fc,
fe,
fe,
05,
fe,
f0,
d0,
f7,
0d,
11,
11,
03,
01,
f3,
db,
d8,
f0,
fe,
f8,
f9,
10,
12,
0b,
f9,
12,
21,
1a,
fc,
f7,
ff,
06,
04,
f7,
f5,
d9,
ef,
08,
0b,
20,
18,
08,
ee,
db,
d3,
0f,
f8,
f8,
f1,
04,
fb,
f6,
ff,
0e,
21,
10,
02,
01,
fd,
09,
02,
fb,
e4,
df,
f5,
05,
04,
1c,
1b,
0d,
00,
e1,
ed,
01,
fd,
ec,
f1,
f7,
de,
ea,
d8,
f3,
01,
03,
01,
02,
02,
0a,
05,
f8,
e2,
e6,
0f,
0d,
0c,
08,
0d,
1c,
15,
ef,
eb,
f7,
02,
f3,
f1,
e7,
eb,
eb,
e3,
fa,
08,
f8,
ff,
fc,
ff,
02,
fd,
f2,
e6,
f7,
ff,
03,
08,
0d,
0f,
18,
1b,
fd,
ef,
07,
01,
00,
02,
f9,
fc,
ff,
00,
fb,
fb,
ee,
ee,
01,
08,
09,
fc,
06,
f5,
00,
05,
05,
f7,
0a,
05,
20,
1c,
fd,
f6,
f9,
ff,
0d,
fc,
07,
09,
11,
1d,
08,
ff,
e9,
fc,
05,
fc,
0b,
0a,
05,
fb,
f3,
02,
0b,
0b,
08,
0f,
16,
16,
0c,
04,
f5,
00,
02,
fb,
f5,
f8,
12,
14,
0a,
e9,
eb,
fa,
0b,
ff,
00,
05,
0a,
fc,
ed,
f7,
f8,
0f,
06,
08,
09,
18,
07,
0d,
0a,
00,
fc,
fd,
00,
ff,
00,
03,
fe,
f2,
f3,
f9,
fc,
09,
fe,
fe,
fc,
f6,
f8,
fd,
06,
01,
fe,
0a,
0b,
09,
10,
05,
01,
06,
0a,
04,
f8,
ff,
fe,
04,
00,
f4,
fc,
ff,
08,
ff,
06,
06,
f9,
f3,
f7,
07,
fe,
fb,
fd,
0a,
02,
09,
0f,
02,
fd,
ff,
fe,
fe,
f5,
f9,
f1,
ea,
fd,
f8,
fd,
05,
09,
0c,
08,
fd,
fa,
ea,
f9,
09,
07,
fd,
06,
06,
18,
0e,
0f,
01,
ff,
f4,
00,
fc,
ff,
08,
f6,
00,
01,
fd,
01,
08,
0a,
ff,
0b,
0a,
00,
e5,
ed,
e9,
fb,
00,
0a,
13,
22,
1f,
09,
09,
0e,
f5,
fa,
07,
04,
06,
fe,
02,
fb,
ff,
09,
06,
0b,
06,
07,
09,
fe,
fa,
db,
dd,
f0,
02,
0a,
0c,
14,
16,
0e,
10,
0d,
f7,
06,
04,
01,
00,
03,
00,
04,
00,
fd,
0a,
fd,
04,
0c,
08,
fc,
fe,
e5,
dc,
e3,
ec,
ef,
00,
04,
16,
0f,
07,
13,
14,
0a,
0c,
06,
fb,
fb,
00,
f7,
fc,
00,
06,
01,
ff,
fd,
09,
06,
fd,
f8,
eb,
e0,
e7,
e9,
ef,
ed,
02,
06,
14,
1d,
22,
15,
07,
f0,
ed,
ea,
06,
0b,
ff,
07,
07,
0c,
04,
03,
00,
07,
06,
f4,
f5,
eb,
e9,
f3,
ec,
06,
02,
03,
04,
fe,
0b,
eb,
ef,
f4,
ee,
f4,
fb,
0a,
0a,
09,
08,
ff,
0c,
fd,
ff,
ff,
00,
fb,
f2,
e1,
f2,
f0,
f3,
f1,
f3,
f0,
e7,
e7,
fe,
ef,
f6,
01,
fc,
fb,
07,
06,
02,
03,
0b,
04,
fe,
ff,
fe,
05,
0a,
03,
fb,
f8,
ee,
f2,
e7,
ea,
f6,
ef,
df,
ec,
ef,
ee,
f8,
f0,
fc,
ff,
06,
02,
02,
08,
09,
02,
04,
03,
03,
fd,
fe,
0b,
ff,
03,
02,
01,
fb,
02,
01,
fd,
05,
00,
02,
fe,
05,
05,
0c,
fc,
05,
05,
09,
05,
03,
08,
00,
09,
fd,
fe,
0c,
01,
fe,
fe,
0c,
03,
fd,
03,
00,
ff,
00,
0a,
07,
09,
05,
01,
01,
ff,
fe,
fd,
06,
08,
0b,
04,
03,
03,
07,
03,
01,
02,
fc,
fe,
01,
05,
00,
08,
02,
0f,
ff,
0a,
fe,
01,
fe,
01,
ff,
04,
0c,
08,
09,
06,
01,
01,
02,
fd,
09,
02,
00,
06,
04,
09,
ff,
07,
00,
0b,
0d,
04,
01,
fc,
0a,
fe,
02,
16,
04,
12,
0c,
0a,
06,
05,
09,
fd,
06,
00,
0c,
0b,
02,
08,
02,
03,
fa,
f2,
f0,
f0,
fd,
09,
f7,
f3,
fd,
05,
09,
16,
11,
0e,
0b,
11,
10,
08,
00,
0a,
07,
fe,
06,
0c,
fe,
fb,
f1,
eb,
eb,
ef,
fa,
fa,
ff,
fc,
ea,
e9,
05,
03,
fe,
fb,
00,
02,
f9,
04,
ff,
06,
08,
08,
02,
03,
0a,
03,
f6,
f5,
e0,
e1,
e8,
ee,
00,
08,
fd,
f1,
fc,
fd,
04,
05,
08,
0a,
04,
ff,
fc,
02,
09,
0c,
0d,
0b,
ff,
09,
06,
ff,
f4,
e8,
d1,
f3,
f3,
fc,
f7,
f6,
fa,
fc,
f5,
fc,
f8,
f6,
fd,
04,
00,
fe,
03,
05,
1c,
25,
0c,
05,
09,
09,
07,
02,
ec,
f3,
ec,
fe,
06,
fa,
04,
00,
f7,
03,
f8,
00,
fe,
08,
05,
06,
15,
0f,
09,
12,
1c,
23,
14,
09,
08,
07,
08,
fd,
ef,
ec,
ef,
ef,
f8,
04,
f8,
02,
f8,
f7,
fd,
02,
11,
11,
1b,
1b,
2a,
2c,
2a,
29,
35,
2e,
19,
04,
0a,
06,
ff,
f6,
f3,
f3,
f4,
ec,
eb,
f9,
f8,
fa,
ff,
f8,
f4,
f9,
02,
08,
08,
09,
0f,
16,
04,
05,
1a,
18,
04,
fe,
0a,
01,
00,
00,
fe,
f0,
e5,
05,
fb,
05,
05,
f8,
f9,
f2,
d8,
d5,
d8,
ca,
d2,
ce,
d9,
dd,
c7,
c2,
e5,
03,
03,
0c,
0b,
0a,
fc,
fa,
f7,
ef,
f7,
fc,
02,
fb,
04,
f7,
fa,
f4,
de,
cf,
ca,
b1,
9e,
9e,
a7,
a8,
b3,
bd,
d3,
03,
0c,
fd,
02,
07,
06,
fd,
04,
f3,
fe,
f9,
06,
f7,
ff,
05,
09,
03,
f8,
f9,
f6,
f0,
ce,
a7,
93,
ab,
b0,
c9,
d5,
f6,
fe,
07,
09,
fc,
fb,
04,
05,
06,
0b,
fe,
01,
01,
04,
0b,
08,
00,
00,
04,
07,
15,
03,
f4,
da,
d0,
ca,
c8,
e0,
e8,
f1,
fc,
05,
07,
09,
09,
0c,
14,
0f,
0c,
fa,
05,
04,
00,
00,
fb,
f4,
00,
0d,
0a,
16,
11,
10,
02,
fc,
ee,
f3,
ea,
f2,
05,
05,
ff,
07,
04,
0c,
02,
f7,
12,
10,
0b,
05,
0b,
0f,
fa,
f5,
ef,
0a,
ff,
06,
06,
0c,
0d,
02,
f8,
f2,
f7,
f5,
02,
03,
01,
00,
06,
f9,
fa,
f8,
fd,
05,
00,
01,
04,
06,
fc,
f0,
05,
0c,
0f,
05,
08,
01,
09,
0d,
f8,
f8,
f9,
ef,
09,
ff,
00,
0a,
ff,
fd,
04,
03,
11,
0b,
03,
0f,
09,
01,
fd,
f7,
05,
00,
0f,
15,
03,
09,
fb,
0b,
01,
f7,
f4,
fe,
09,
02,
04,
02,
0c,
0d,
07,
10,
02,
02,
08,
fd,
05,
0c,
fd,
01,
05,
0f,
09,
07,
00,
05,
f6,
f3,
0a,
f9,
05,
00,
ff,
06,
07,
08,
00,
0a,
08,
0a,
f9,
05,
00,
fe,
09,
08,
09,
06,
0d,
04,
07,
02,
04,
ff,
05,
f2,
0b,
13,
fa,
03,
02,
0c,
0c,
fe,
f7,
f9,
01,
13,
f8,
fd,
01,
02,
05,
08,
f3,
ff,
03,
04,
08,
06,
ff,
04,
ff,
05,
15,
14,
0f,
09,
05,
09,
ff,
09,
fc,
0a,
fb,
f7,
f9,
0c,
02,
fd,
0d,
07,
0a,
07,
0d,
07,
03,
13,
06,
09,
02,
07,
1d,
11,
0e,
0b,
0c,
fd,
04,
05,
07,
0a,
fb,
f1,
fc,
fe,
06,
08,
fe,
03,
fe,
09,
14,
0f,
fe,
04,
07,
0b,
10,
01,
13,
07,
0b,
00,
08,
01,
00,
05,
02,
16,
19,
04,
fc,
ff,
08,
03,
00,
fc,
fa,
05,
06,
03,
f7,
fd,
f6,
fb,
08,
03,
0c,
0b,
12,
01,
fd,
fe,
06,
04,
fe,
fe,
fb,
02,
fd,
fa,
08,
fe,
00,
fd,
01,
04,
0e,
0f,
0d,
1a,
0d,
14,
fc,
fc,
0a,
0b,
00,
08,
07,
07,
08,
05,
ff,
fb,
05,
ff,
f7,
04,
f4,
fa,
f9,
01,
07,
ee,
f5,
00,
05,
0e,
05,
06,
03,
0c,
0f,
0a,
0a,
fe,
ff,
07,
04,
fd,
08,
04,
05,
02,
f8,
f3,
f3,
fe,
ee,
f7,
f5,
ee,
f6,
f3,
ec,
ee,
f0,
04,
0a,
0b,
03,
ff,
fd,
ff,
0b,
02,
04,
02,
00,
0b,
02,
00,
08,
06,
08,
0a,
ff,
06,
01,
01,
05,
00,
09,
ff,
08,
05,
fb,
fe,
fd,
05,
ff,
fe,
06,
fd,
00,
ff,
08,
0b,
07,
ff,
0a,
0b,
02,
0a,
06,
fe,
02,
fe,
06,
08,
fc,
01,
04,
0a,
00,
03,
04,
00,
00,
02,
02,
01,
05,
03,
00,
09,
0a,
02,
01,
fc,
fe,
03,
01,
04,
ff,
02,
05,
0b,
0a,
fe,
ff,
00,
04,
07,
01,
02,
fc,
01,
fc,
07,
fe,
00,
fe,
0a,
02,
0a,
fe,
08,
01,
fb,
06,
f8,
fa,
02,
fc,
fb,
0a,
fa,
fd,
05,
02,
03,
01,
02,
0a,
02,
07,
0a,
0a,
08,
09,
02,
04,
fd,
f5,
03,
f6,
f4,
f7,
f5,
f4,
f4,
f7,
f4,
fd,
fc,
f4,
fb,
fe,
03,
09,
fe,
01,
07,
0b,
07,
03,
07,
fc,
ff,
fb,
f0,
f1,
f3,
f9,
01,
00,
08,
0e,
0b,
04,
07,
ef,
ee,
ff,
f7,
fd,
09,
08,
0b,
02,
fd,
0a,
04,
08,
02,
08,
fa,
fd,
fb,
fc,
04,
f3,
eb,
f8,
f2,
ea,
eb,
e5,
db,
e5,
f1,
ee,
ed,
f4,
f1,
fb,
08,
fd,
08,
03,
01,
fc,
03,
14,
05,
01,
06,
0f,
0b,
0d,
f4,
f6,
e6,
e6,
ec,
02,
00,
07,
12,
f6,
e8,
01,
f2,
eb,
fc,
fd,
0c,
03,
03,
01,
06,
15,
00,
05,
0f,
17,
06,
ff,
f6,
f2,
07,
00,
05,
00,
0b,
0d,
1c,
0d,
02,
0a,
fd,
ed,
f5,
06,
ff,
0b,
04,
09,
03,
15,
0b,
16,
0e,
16,
16,
0a,
0f,
07,
06,
01,
10,
02,
07,
06,
0a,
07,
06,
01,
06,
03,
fa,
ed,
02,
05,
fc,
0d,
0d,
07,
10,
14,
1b,
0e,
08,
11,
03,
03,
15,
17,
0f,
0d,
f4,
09,
05,
0b,
05,
f7,
fb,
f4,
f2,
fa,
05,
00,
fd,
07,
09,
05,
19,
0e,
0a,
fa,
07,
0b,
05,
14,
11,
25,
25,
04,
f5,
f0,
f2,
ff,
05,
00,
f3,
ee,
fc,
fc,
04,
05,
09,
0a,
0d,
18,
19,
0e,
01,
06,
0e,
fb,
0c,
17,
0f,
1f,
1e,
00,
ec,
f1,
04,
02,
05,
00,
fe,
f2,
f1,
02,
0b,
07,
09,
0a,
06,
17,
19,
0d,
f7,
0d,
03,
ff,
f8,
fc,
e5,
eb,
f1,
fe,
f7,
fc,
0c,
f7,
fc,
fe,
00,
f5,
e6,
00,
07,
03,
06,
fd,
0d,
10,
1d,
0b,
00,
fb,
fa,
ed,
ee,
ec,
da,
d5,
fb,
f8,
05,
fd,
08,
fe,
0a,
0d,
07,
f3,
ef,
10,
09,
ff,
fd,
01,
08,
fe,
f5,
fc,
f6,
ee,
f2,
ea,
f9,
ee,
e7,
ef,
11,
0a,
fe,
01,
05,
0d,
07,
07,
11,
07,
fb,
0c,
01,
06,
fe,
00,
07,
ff,
ee,
ef,
fe,
ec,
f6,
f9,
fa,
e9,
ec,
0b,
0d,
04,
f4,
0b,
11,
07,
10,
17,
10,
fc,
fb,
00,
00,
fc,
01,
08,
02,
fd,
fc,
ef,
f8,
06,
04,
ff,
f6,
ef,
f2,
fc,
02,
08,
04,
08,
0d,
07,
fc,
08,
02,
ff,
fa,
f9,
05,
0a,
03,
04,
07,
fb,
fb,
f5,
ed,
0f,
11,
07,
fc,
ed,
f5,
f1,
11,
04,
01,
0d,
0a,
06,
0f,
01,
09,
00,
01,
f8,
08,
06,
ff,
ff,
02,
f6,
f3,
f9,
f1,
07,
0b,
00,
fa,
e9,
db,
04,
17,
0b,
f6,
f8,
fc,
f7,
00,
f9,
f8,
ec,
f1,
fc,
ff,
04,
ff,
08,
0c,
f6,
fa,
eb,
eb,
e7,
ec,
dd,
ea,
da,
ed,
fd,
11,
02,
f6,
f0,
ed,
f4,
ef,
db,
da,
f3,
05,
0b,
00,
05,
05,
0b,
05,
fe,
ef,
e8,
de,
e4,
e5,
d0,
d8,
e8,
02,
0e,
0b,
04,
fe,
f0,
e2,
e6,
e0,
d8,
ea,
f9,
00,
0d,
fc,
04,
07,
02,
06,
fd,
ee,
e8,
e1,
dc,
e7,
ed,
f1,
f8,
08,
0a,
06,
01,
05,
f1,
e9,
f5,
eb,
f4,
ee,
f6,
fd,
0c,
00,
05,
fe,
07,
fe,
fc,
fa,
fb,
ed,
f0,
f2,
ff,
0b,
f5,
fd,
fc,
fe,
11,
05,
06,
e6,
f2,
f1,
e8,
f5,
f7,
fb,
00,
09,
00,
07,
09,
fb,
f8,
f8,
03,
f8,
fa,
fc,
04,
04,
f9,
fc,
fb,
fc,
fc,
fe,
fa,
ee,
e9,
e9,
ef,
f5,
f8,
fc,
03,
07,
0c,
00,
0c,
02,
0b,
0a,
16,
06,
05,
03,
f7,
01,
09,
fc,
f3,
e7,
00,
f3,
ee,
ed,
ed,
fa,
f3,
ee,
fa,
00,
06,
0c,
09,
fd,
01,
08,
fc,
04,
0e,
05,
1e,
10,
03,
f9,
0a,
1a,
fd,
09,
19,
0b,
06,
08,
09,
0b,
02,
f5,
02,
08,
fe,
02,
fd,
09,
08,
0a,
06,
03,
ff,
01,
1d,
1c,
22,
1a,
0b,
fd,
0f,
26,
1a,
15,
0f,
17,
21,
13,
13,
01,
05,
05,
08,
06,
ff,
04,
fd,
08,
09,
01,
fd,
05,
0e,
05,
0a,
14,
00,
0c,
13,
09,
11,
07,
15,
09,
0f,
02,
00,
0a,
04,
06,
08,
05,
07,
fc,
fb,
ff,
fe,
fb,
04,
02,
01,
02,
06,
ff,
03,
02,
07,
02,
05,
ff,
09,
04,
04,
06,
fa,
06,
09,
07,
08,
fc,
09,
04,
fb,
0a,
09,
01,
0a,
03,
0a,
fc,
fb,
06,
04,
fd,
ff,
0a,
0a,
fc,
ff,
04,
04,
fe,
09,
fd,
08,
fd,
fa,
04,
ff,
08,
00,
03,
08,
fd,
ff,
09,
0d,
08,
0c,
10,
13,
15,
23,
1c,
21,
15,
0f,
0e,
12,
0d,
0f,
0c,
08,
01,
07,
09,
09,
05,
08,
fd,
04,
fb,
07,
07,
09,
0f,
0d,
14,
16,
0d,
0d,
0c,
03,
0d,
0d,
10,
0e,
fc,
02,
06,
07,
ff,
fc,
fb,
fb,
ff,
05,
ff,
08,
08,
00,
0c,
06,
12,
12,
11,
fc,
0b,
0f,
12,
13,
15,
05,
06,
12,
0e,
f2,
fd,
f2,
f7,
ff,
00,
05,
01,
06,
04,
06,
05,
05,
0b,
0c,
f7,
eb,
fa,
f7,
03,
0a,
04,
05,
06,
fe,
00,
06,
02,
09,
fd,
ed,
f8,
01,
06,
02,
01,
00,
00,
f6,
03,
f7,
02,
f6,
ee,
e3,
f1,
f9,
f6,
f7,
ef,
fb,
fc,
06,
fd,
fa,
f8,
fa,
fb,
01,
f2,
01,
fc,
06,
ff,
05,
f8,
f9,
00,
f6,
f3,
f5,
fc,
fc,
f2,
eb,
fb,
f9,
ff,
09,
fd,
fb,
fb,
fd,
fd,
f5,
01,
ea,
e6,
f2,
fd,
04,
05,
02,
05,
01,
f7,
fe,
ff,
f6,
f3,
f5,
f2,
f9,
fa,
fe,
f5,
f6,
09,
08,
fb,
04,
07,
0e,
ff,
d5,
da,
f6,
07,
05,
08,
f9,
04,
f4,
fb,
f4,
fd,
fc,
01,
06,
03,
02,
f3,
ee,
ee,
fc,
f8,
03,
01,
01,
0d,
0f,
f8,
cd,
d5,
f6,
00,
05,
09,
fa,
f9,
f0,
03,
01,
ee,
f3,
f9,
f7,
02,
08,
f9,
ed,
f7,
00,
07,
0c,
12,
1b,
0d,
04,
e8,
c8,
c9,
eb,
fe,
02,
05,
01,
f8,
f2,
fe,
02,
ea,
ec,
f6,
01,
fa,
03,
fa,
f6,
13,
0d,
15,
18,
20,
17,
0f,
f9,
da,
d9,
d6,
f2,
fa,
ff,
fc,
fe,
fe,
f3,
f9,
f8,
fe,
f3,
e7,
08,
f6,
06,
03,
0f,
22,
1a,
15,
23,
0c,
04,
ea,
e4,
e5,
f2,
fb,
f1,
f8,
fe,
08,
fd,
f8,
fb,
f6,
f7,
00,
06,
ff,
fe,
f5,
ff,
09,
20,
26,
26,
19,
10,
00,
fa,
dc,
d3,
ea,
f3,
f1,
fd,
f9,
06,
09,
06,
fc,
02,
ec,
f7,
00,
08,
08,
06,
ee,
05,
0a,
16,
18,
13,
19,
fe,
ec,
d3,
d6,
e4,
eb,
e4,
f9,
03,
07,
00,
09,
04,
09,
07,
f9,
f4,
ff,
02,
0c,
00,
f9,
fb,
05,
1a,
12,
03,
00,
e2,
db,
df,
de,
f5,
fe,
f1,
f3,
00,
08,
05,
0a,
fc,
00,
07,
f9,
e7,
f8,
04,
00,
08,
0f,
0a,
05,
0d,
0a,
e8,
f7,
e4,
ed,
ec,
f8,
fd,
ff,
07,
03,
0d,
05,
07,
02,
fb,
0f,
02,
fe,
e9,
ef,
09,
0e,
05,
0f,
ff,
f5,
fc,
f9,
ed,
f0,
f1,
f6,
f6,
01,
07,
05,
05,
00,
f3,
02,
ff,
fb,
06,
0a,
10,
fa,
fc,
fb,
00,
03,
0a,
ed,
ec,
df,
ef,
f7,
f1,
f9,
fe,
03,
ff,
fe,
fe,
06,
03,
f5,
ff,
08,
01,
fb,
fb,
f7,
0a,
fb,
ec,
f0,
08,
ee,
f7,
f6,
e5,
d2,
ef,
fd,
02,
17,
04,
0c,
11,
0e,
05,
0e,
0e,
fc,
01,
fe,
fd,
04,
02,
01,
13,
09,
fa,
f5,
03,
fa,
fe,
fb,
fd,
f7,
f8,
04,
11,
0a,
fb,
14,
15,
15,
0f,
f9,
01,
05,
07,
07,
00,
04,
03,
05,
16,
13,
00,
04,
01,
f6,
fd,
06,
0a,
0e,
0b,
02,
10,
06,
07,
11,
14,
08,
05,
00,
f6,
00,
fd,
02,
00,
06,
fb,
01,
09,
1b,
1b,
10,
0e,
01,
fc,
06,
04,
fa,
fd,
08,
fd,
02,
00,
0c,
12,
18,
09,
fa,
f3,
f8,
06,
02,
02,
05,
0a,
03,
00,
fe,
0c,
f4,
07,
14,
09,
fc,
fa,
06,
00,
03,
06,
0d,
08,
10,
12,
16,
10,
fa,
f8,
ff,
00,
00,
08,
03,
00,
02,
04,
f3,
e7,
e4,
f0,
fb,
00,
05,
02,
f6,
04,
fd,
02,
0d,
01,
01,
fd,
07,
10,
00,
fc,
08,
00,
fd,
fb,
06,
06,
ff,
f8,
fb,
f1,
fa,
e9,
03,
03,
fa,
ef,
fe,
06,
f7,
f0,
fc,
06,
00,
fb,
0c,
ff,
ff,
03,
01,
03,
05,
fe,
fa,
05,
fc,
fc,
fd,
06,
f9,
05,
06,
08,
00,
f5,
fa,
fe,
02,
09,
0c,
08,
04,
f7,
0a,
fd,
fc,
fc,
08,
fe,
00,
07,
02,
09,
05,
02,
fd,
fb,
04,
02,
08,
fa,
00,
04,
06,
02,
04,
fd,
ff,
06,
f7,
fb,
0a,
ff,
fe,
03,
06,
03,
09,
02,
fe,
fe,
01,
00,
07,
06,
08,
08,
09,
fa,
00,
01,
08,
02,
05,
01,
fa,
02,
02,
fd,
0a,
fb,
fb,
fc,
fa,
00,
fd,
08,
06,
06,
09,
fb,
fd,
09,
08,
03,
06,
04,
01,
ff,
05,
fb,
0a,
fb,
fc,
08,
fd,
fe,
00,
fb,
01,
01,
00,
02,
fc,
00,
01,
fa,
fc,
08,
fa,
00,
fd,
0a,
07,
05,
fd,
fa,
ff,
04,
ff,
fa,
f8,
08,
04,
07,
fa,
03,
09,
fa,
fa,
fa,
fe,
01,
06,
ff,
08,
08,
07,
fc,
05,
05,
04,
f6,
fb,
f9,
fc,
fe,
fc,
ff,
f5,
00,
0b,
03,
03,
fe,
0a,
02,
05,
02,
03,
09,
fe,
09,
fe,
02,
fe,
ff,
f8,
01,
f9,
03,
08,
07,
ea,
f3,
ef,
f4,
f5,
0d,
12,
03,
f8,
07,
0e,
09,
00,
06,
ff,
01,
02,
09,
08,
02,
02,
0e,
02,
f3,
00,
04,
02,
00,
f9,
f8,
ef,
ef,
e9,
fb,
09,
01,
10,
04,
0b,
0e,
00,
fe,
04,
02,
08,
04,
0a,
03,
05,
f3,
f2,
fa,
14,
10,
0b,
0c,
0e,
13,
0e,
14,
09,
14,
0c,
ff,
0b,
14,
01,
fc,
09,
fe,
00,
02,
04,
fa,
05,
fd,
fc,
ed,
ff,
09,
14,
0d,
0e,
13,
1d,
24,
26,
1b,
0a,
11,
0d,
02,
fd,
f3,
eb,
de,
ec,
f1,
04,
fd,
04,
05,
07,
03,
fd,
fb,
f4,
f5,
05,
0b,
08,
14,
0d,
1e,
21,
20,
14,
02,
f6,
f2,
eb,
ec,
f1,
d9,
da,
f1,
ff,
04,
05,
fe,
08,
0e,
0c,
f6,
0f,
fe,
0e,
0f,
06,
0e,
16,
11,
14,
0c,
fa,
fe,
ff,
fe,
ff,
e1,
e6,
d4,
f2,
fd,
05,
07,
fa,
fa,
04,
10,
05,
0e,
09,
09,
09,
10,
fd,
06,
0c,
06,
f6,
dc,
f9,
f8,
fe,
00,
08,
02,
f0,
ed,
06,
01,
0a,
06,
04,
fd,
02,
18,
13,
0f,
0e,
fd,
0d,
03,
f6,
06,
f0,
ec,
eb,
f2,
01,
08,
fa,
05,
09,
00,
11,
0f,
02,
09,
07,
fd,
03,
fb,
06,
05,
0e,
02,
06,
06,
fe,
f6,
ff,
ef,
da,
08,
0c,
04,
07,
03,
03,
f4,
05,
fa,
15,
1c,
f7,
ff,
fe,
fe,
09,
08,
05,
07,
fd,
ef,
f7,
0e,
fd,
f1,
fb,
fd,
07,
1c,
0e,
09,
00,
02,
f9,
f5,
ff,
fe,
03,
fe,
fa,
fe,
f5,
02,
05,
03,
ff,
fc,
fa,
e2,
ed,
fe,
f9,
f9,
03,
01,
0e,
10,
02,
01,
05,
fb,
f4,
f9,
0c,
ff,
02,
02,
f9,
f9,
fb,
07,
fe,
fe,
03,
f8,
f7,
d8,
e8,
fd,
fc,
04,
11,
03,
03,
00,
fb,
07,
00,
fd,
01,
03,
0f,
17,
05,
07,
fb,
eb,
02,
fc,
00,
02,
06,
07,
ee,
db,
e9,
00,
06,
13,
1d,
10,
0f,
fa,
f4,
fa,
f4,
f4,
f6,
f6,
f4,
0e,
09,
fe,
fb,
e4,
f3,
05,
07,
02,
fb,
fe,
ee,
df,
d7,
ec,
f3,
fb,
12,
10,
12,
0e,
f8,
fe,
f2,
ee,
03,
00,
09,
06,
06,
ff,
e7,
ed,
fe,
fd,
fc,
09,
09,
02,
fb,
e1,
c7,
be,
b2,
c5,
ef,
f3,
ea,
f3,
ed,
f5,
ef,
fa,
f9,
fe,
0b,
01,
fc,
ef,
e5,
f8,
fb,
ff,
fc,
fa,
07,
05,
f7,
e9,
c8,
c0,
aa,
a3,
a3,
aa,
c5,
d0,
df,
eb,
f9,
f9,
ff,
15,
04,
04,
fe,
ff,
f4,
fc,
f7,
ff,
04,
ff,
fc,
09,
0f,
00,
e2,
de,
cf,
c6,
b9,
b7,
c7,
db,
eb,
eb,
f3,
fa,
fc,
0d,
07,
08,
00,
07,
0d,
0e,
fa,
07,
fb,
05,
0c,
12,
10,
07,
05,
06,
fb,
f3,
03,
f0,
05,
fb,
f5,
fb,
08,
e9,
ef,
ff,
fd,
fd,
fe,
fb,
0d,
06,
f9,
0a,
05,
06,
00,
0d,
09,
0e,
0c,
11,
0f,
0c,
28,
18,
06,
f5,
f9,
f6,
04,
fa,
ea,
e8,
fb,
ee,
04,
07,
fc,
03,
fa,
08,
02,
03,
02,
04,
08,
0e,
15,
0a,
08,
0c,
1a,
18,
0c,
0b,
f9,
fc,
f0,
f4,
e0,
e0,
fe,
ec,
06,
0d,
0d,
06,
03,
03,
fe,
fc,
08,
10,
18,
1f,
1b,
1d,
10,
16,
18,
09,
05,
02,
03,
f2,
e9,
ef,
e9,
df,
fb,
00,
0c,
07,
03,
03,
08,
07,
fc,
fe,
ff,
fa,
0e,
12,
1d,
24,
42,
2b,
0f,
05,
16,
0a,
fd,
fd,
09,
ff,
17,
1f,
11,
0c,
0c,
0f,
05,
04,
02,
fb,
06,
fe,
ff,
ff,
06,
ff,
07,
15,
15,
1d,
26,
29,
2d,
36,
44,
29,
2b,
40,
3b,
26,
17,
0f,
0c,
04,
04,
08,
08,
ff,
fb,
04,
fc,
fa,
07,
fb,
0a,
fd,
fe,
08,
06,
01,
0a,
02,
0a,
fd,
00,
ff,
0f,
01,
04,
ff,
00,
08,
03,
06,
04,
fb,
08,
0a,
06,
0a,
ff,
fe,
fd,
02,
02,
ff,
00,
01,
0b,
03,
0a,
04,
06,
08,
fc,
00,
fd,
0b,
06,
00,
fd,
08,
05,
ff,
fd,
ff,
05,
fc,
02,
08,
08,
05,
06,
06,
07,
09,
04,
06,
03,
f6,
01,
09,
06,
00,
06,
fc,
01,
07,
03,
fe,
07,
04,
02,
fb,
00,
04,
ff,
05,
ff,
0d,
11,
16,
10,
09,
09,
0a,
06,
04,
0b,
1a,
fc,
fa,
08,
07,
00,
0b,
09,
04,
0b,
fb,
fc,
05,
0a,
06,
ff,
0c,
0e,
0c,
19,
25,
20,
21,
0d,
02,
07,
01,
13,
05,
e9,
fc,
0d,
0a,
07,
fe,
07,
09,
07,
07,
03,
fd,
02,
07,
04,
08,
0a,
12,
16,
1e,
15,
0e,
07,
f3,
fa,
ed,
fa,
03,
08,
02,
0d,
f9,
f0,
f1,
f8,
08,
fe,
fd,
06,
06,
fc,
ff,
0e,
fd,
0e,
0a,
09,
00,
07,
f3,
f7,
f5,
f9,
01,
07,
06,
03,
fc,
00,
f3,
f4,
fd,
05,
09,
0e,
07,
01,
03,
00,
05,
13,
08,
0a,
00,
fe,
f4,
e0,
f3,
e0,
e5,
e0,
ed,
f9,
f4,
df,
e1,
e6,
fa,
f1,
fc,
06,
04,
08,
06,
0b,
04,
05,
fe,
0d,
fa,
ff,
fa,
04,
f7,
e8,
f3,
e1,
ee,
f2,
f2,
fe,
fc,
e5,
e2,
f7,
f8,
01,
f3,
fc,
ff,
00,
03,
06,
06,
09,
f9,
05,
0b,
fa,
f3,
f7,
f8,
f8,
e2,
e7,
ee,
f5,
f1,
f7,
f1,
e1,
00,
fb,
ed,
eb,
f0,
e6,
f1,
f9,
04,
08,
fe,
ff,
01,
f5,
00,
f3,
f5,
ec,
ee,
f0,
eb,
f0,
ec,
f1,
f3,
f6,
ec,
e4,
fa,
fa,
fb,
f3,
e0,
dc,
e6,
f6,
06,
00,
03,
00,
f7,
fa,
09,
f5,
fd,
fc,
f0,
ed,
f0,
f6,
f0,
e3,
ef,
f3,
fe,
f5,
f8,
01,
f5,
f1,
df,
ed,
ef,
f7,
08,
04,
fd,
fd,
04,
f5,
fb,
e2,
f1,
fb,
ef,
fa,
e6,
f1,
e2,
e8,
df,
01,
f4,
fd,
06,
fd,
06,
fb,
f0,
e3,
f9,
f8,
fd,
09,
06,
00,
00,
db,
ed,
da,
f4,
fd,
f4,
eb,
ff,
f1,
f0,
f3,
ed,
02,
f7,
f1,
ff,
fa,
06,
ff,
f0,
fd,
07,
08,
08,
fd,
07,
0a,
07,
e1,
f7,
f4,
fa,
fe,
fb,
05,
07,
0e,
0e,
fb,
fd,
07,
00,
fe,
00,
fa,
01,
fb,
08,
1b,
15,
05,
0e,
fd,
00,
fe,
0d,
fa,
fc,
06,
08,
11,
18,
0a,
15,
1e,
0b,
01,
03,
09,
02,
02,
fb,
ea,
fa,
13,
0d,
11,
17,
0e,
fd,
01,
09,
04,
0d,
0e,
0c,
12,
0c,
0f,
0b,
16,
21,
1f,
15,
09,
10,
1c,
19,
01,
0f,
f2,
03,
0f,
0b,
0b,
20,
0f,
ff,
fe,
00,
03,
09,
03,
06,
13,
14,
0e,
11,
15,
1f,
0f,
0d,
11,
1c,
28,
22,
12,
13,
0f,
13,
0a,
0d,
17,
25,
19,
01,
02,
0a,
06,
0c,
07,
09,
0f,
04,
0b,
12,
09,
09,
fb,
05,
08,
18,
15,
11,
1e,
15,
1b,
20,
08,
0a,
10,
27,
12,
fd,
fc,
01,
05,
07,
0f,
09,
06,
14,
16,
03,
fa,
fd,
14,
09,
0c,
0e,
1a,
18,
1f,
1a,
0c,
14,
04,
12,
1c,
23,
07,
09,
07,
0a,
00,
fe,
09,
04,
f5,
02,
07,
fa,
01,
0a,
02,
fe,
03,
1d,
14,
0e,
15,
05,
0c,
0c,
0a,
04,
0b,
06,
0d,
09,
0a,
01,
fd,
01,
10,
07,
f1,
fb,
01,
fd,
fb,
00,
fe,
f1,
ff,
0a,
02,
00,
03,
f6,
f5,
ff,
05,
f5,
f8,
f5,
01,
05,
02,
09,
01,
09,
08,
fc,
f8,
f7,
09,
03,
fb,
04,
00,
fd,
fd,
ea,
f9,
ee,
f1,
f0,
fc,
fe,
fb,
f5,
e6,
ff,
08,
08,
07,
03,
fe,
02,
f9,
ff,
ef,
f9,
fe,
fd,
02,
09,
01,
f2,
ed,
f3,
f4,
e7,
e3,
ea,
f4,
fd,
f4,
ec,
e1,
f9,
05,
05,
07,
0a,
07,
02,
f4,
f3,
e9,
f5,
ec,
ee,
f0,
f5,
fa,
ef,
ec,
f1,
f3,
e8,
f5,
e8,
f7,
fe,
f4,
dd,
e1,
fa,
01,
00,
07,
fe,
0a,
f6,
00,
f3,
f2,
f3,
e3,
d6,
d9,
eb,
dc,
ea,
ee,
f5,
fc,
f7,
ee,
e7,
ee,
f1,
ea,
e4,
0a,
01,
fc,
09,
fe,
04,
02,
01,
04,
f6,
06,
f9,
f7,
dc,
e8,
f1,
e9,
ea,
ef,
f9,
f7,
ed,
e5,
e6,
e7,
e8,
f3,
fe,
04,
08,
04,
09,
fe,
fc,
01,
03,
09,
fc,
fc,
01,
f9,
f5,
f2,
e7,
f3,
f6,
e6,
eb,
f2,
f6,
f1,
f4,
f1,
fd,
00,
03,
04,
02,
0a,
00,
07,
06,
02,
fd,
fc,
05,
04,
fe,
f6,
08,
05,
fd,
ff,
00,
f9,
07,
04,
06,
08,
00,
02,
0a,
fd,
0a,
07,
01,
fd,
08,
05,
fe,
05,
04,
0a,
06,
03,
fa,
08,
09,
ff,
01,
01,
01,
06,
03,
fb,
04,
fd,
04,
05,
fe,
07,
02,
fe,
09,
07,
07,
fc,
fb,
fa,
07,
06,
fd,
05,
03,
fd,
01,
fc,
01,
08,
04,
fa,
ff,
03,
fd,
fa,
00,
f9,
fa,
03,
02,
fe,
03,
06,
fe,
ff,
03,
04,
04,
07,
01,
03,
fb,
fe,
08,
fa,
ff,
00,
0f,
04,
f4,
f3,
fb,
01,
ec,
f0,
f4,
fd,
f9,
03,
09,
00,
00,
fa,
00,
02,
04,
fe,
fd,
fd,
08,
05,
14,
1d,
20,
19,
1d,
18,
fe,
07,
01,
f8,
fa,
fa,
ef,
e9,
f5,
fb,
05,
01,
00,
05,
fa,
ff,
02,
06,
0a,
06,
05,
1b,
24,
26,
16,
08,
06,
0a,
08,
05,
05,
fe,
fe,
fc,
ea,
f5,
f3,
fd,
fa,
fb,
05,
fd,
fb,
fc,
02,
ff,
f4,
08,
07,
14,
00,
17,
13,
0f,
0c,
12,
07,
0f,
fc,
0b,
07,
fd,
03,
fe,
00,
03,
f8,
0a,
00,
fc,
09,
00,
05,
05,
ff,
07,
00,
fc,
ea,
e9,
fa,
f7,
0d,
08,
08,
fd,
fc,
04,
fe,
fa,
ff,
05,
f2,
04,
fa,
07,
fa,
f9,
03,
fb,
0c,
13,
0a,
12,
f9,
fa,
e9,
e8,
f4,
ec,
f9,
05,
12,
0a,
01,
06,
08,
06,
04,
05,
ff,
fc,
02,
00,
fd,
05,
07,
fc,
00,
0c,
0b,
f6,
f3,
fa,
ee,
f3,
da,
e2,
e2,
08,
1a,
23,
0d,
03,
00,
00,
03,
f9,
fc,
ee,
ef,
05,
f9,
00,
fd,
06,
0c,
f8,
f8,
e0,
d3,
d9,
cd,
d4,
c3,
d0,
e3,
e8,
ff,
13,
11,
05,
fd,
0b,
fd,
fa,
fa,
e8,
f1,
04,
fb,
08,
07,
06,
ff,
f0,
e5,
cf,
ba,
c3,
cd,
c2,
e1,
e2,
e0,
dc,
ed,
fe,
08,
03,
05,
07,
08,
04,
f2,
f1,
ee,
03,
02,
fa,
0a,
05,
fa,
ea,
e5,
d0,
d1,
e3,
dd,
e2,
f8,
fb,
f9,
ef,
de,
e9,
f4,
ff,
1a,
fc,
fc,
01,
f7,
f5,
f7,
04,
fd,
09,
05,
fd,
f8,
e5,
d9,
e8,
f8,
06,
06,
0e,
16,
17,
0d,
ff,
e8,
e3,
f1,
03,
03,
f3,
f9,
fe,
f4,
07,
0a,
03,
00,
03,
fe,
08,
07,
f0,
fb,
0a,
17,
0d,
12,
15,
0d,
09,
06,
f2,
e6,
f1,
f6,
08,
fa,
fa,
f1,
02,
0a,
10,
03,
00,
07,
00,
08,
04,
03,
fc,
0f,
20,
22,
14,
13,
06,
fd,
04,
06,
03,
df,
ea,
09,
f9,
f6,
fe,
fd,
05,
0b,
10,
03,
04,
fc,
fb,
09,
00,
08,
0e,
1d,
16,
02,
07,
03,
07,
00,
fb,
fa,
f9,
df,
f5,
09,
00,
08,
fb,
00,
02,
0e,
1b,
0c,
0f,
03,
fd,
03,
08,
11,
19,
1f,
fe,
f7,
fa,
06,
f8,
05,
0e,
03,
f8,
f5,
0b,
1b,
1f,
0e,
12,
12,
16,
06,
03,
10,
04,
09,
04,
09,
0a,
0d,
1c,
14,
f2,
f7,
fc,
f5,
02,
07,
0c,
01,
fe,
fb,
13,
14,
10,
15,
fc,
03,
0c,
e9,
eb,
02,
fe,
00,
fb,
fb,
fd,
1b,
1d,
0c,
ff,
11,
06,
00,
fd,
f0,
fd,
f6,
f9,
0c,
11,
09,
0d,
04,
ed,
02,
fe,
ea,
f6,
0c,
ff,
04,
fb,
01,
09,
18,
18,
13,
10,
08,
03,
f6,
07,
03,
fe,
03,
04,
16,
06,
10,
04,
f3,
00,
ff,
08,
f6,
e9,
fe,
fb,
02,
09,
ff,
05,
24,
27,
12,
05,
12,
0f,
08,
08,
06,
0b,
01,
fe,
07,
02,
05,
04,
04,
08,
07,
00,
f8,
f1,
05,
00,
09,
08,
fa,
0f,
1e,
0a,
f9,
f8,
f9,
fb,
00,
fa,
06,
fd,
04,
f9,
12,
0b,
fb,
01,
0b,
fc,
0b,
1b,
0e,
fa,
02,
fc,
05,
02,
02,
0d,
14,
07,
fa,
02,
06,
07,
f8,
0d,
10,
06,
0a,
0a,
0c,
11,
03,
00,
0e,
05,
0d,
1b,
06,
07,
0b,
03,
03,
09,
ff,
02,
00,
fd,
fe,
06,
12,
11,
0f,
14,
0d,
03,
06,
09,
09,
fe,
01,
ff,
04,
08,
1b,
15,
0f,
00,
fa,
fb,
02,
09,
fe,
05,
ff,
07,
f9,
f2,
f6,
f9,
ea,
e9,
e9,
f1,
fe,
f4,
fa,
fa,
f1,
03,
fe,
fc,
13,
04,
06,
06,
00,
fa,
02,
fb,
00,
03,
ff,
08,
fa,
f4,
f9,
e1,
dd,
cc,
d2,
d9,
d6,
db,
e4,
ee,
fa,
ff,
f7,
fc,
01,
fb,
00,
fe,
03,
09,
08,
fc,
06,
09,
00,
04,
fa,
03,
fb,
01,
ff,
f4,
f4,
f0,
f4,
f2,
fd,
fd,
f6,
04,
fe,
03,
08,
08,
fb,
05,
fe,
fb,
01,
00,
03,
02,
06,
06,
fa,
fa,
fb,
04,
09,
fc,
02,
01,
05,
04,
03,
07,
ff,
09,
01,
fa,
06,
07,
07,
02,
04,
04,
fe,
06,
06,
02,
03,
03,
05,
01,
0b,
06,
0c,
01,
08,
03,
0a,
03,
02,
07,
02,
0c,
06,
0b,
04,
04,
ff,
08,
09,
0b,
07,
05,
05,
09,
0e,
07,
ff,
ff,
09,
0d,
01,
0a,
0e,
0e,
0b,
02,
0d,
0a,
04,
fe,
03,
0d,
0e,
0c,
00,
0b,
0b,
0d,
01,
0d,
05,
09,
ff,
05,
01,
04,
05,
03,
08,
0b,
09,
08,
16,
1b,
1a,
18,
17,
0d,
fa,
02,
00,
03,
0c,
0d,
08,
01,
06,
07,
06,
0b,
0a,
04,
02,
06,
03,
01,
f9,
ff,
12,
16,
03,
0d,
18,
14,
02,
02,
f9,
ea,
e3,
03,
03,
05,
02,
fe,
0d,
05,
02,
0d,
07,
05,
0a,
0b,
07,
06,
fe,
00,
fc,
fd,
03,
04,
1a,
16,
1a,
fc,
0c,
07,
fd,
fe,
01,
fb,
f7,
02,
fc,
ff,
0c,
01,
0a,
02,
fc,
03,
06,
f5,
f1,
fd,
03,
fc,
f9,
ff,
09,
04,
fa,
f4,
fa,
f3,
03,
0b,
0e,
f4,
f6,
fd,
fe,
00,
0e,
0c,
0f,
05,
f9,
fa,
fc,
fc,
08,
fb,
f5,
04,
f3,
04,
07,
0f,
0f,
09,
f9,
f0,
fd,
05,
f8,
f2,
01,
0e,
00,
01,
08,
07,
fe,
02,
fa,
e0,
eb,
fa,
01,
ff,
07,
06,
08,
00,
02,
18,
18,
00,
06,
f8,
fb,
ff,
01,
da,
ee,
05,
09,
01,
08,
0b,
07,
06,
ff,
e8,
e9,
f7,
0b,
18,
11,
fd,
eb,
fe,
05,
22,
09,
f9,
07,
02,
fc,
f2,
e4,
e0,
df,
0c,
06,
09,
08,
06,
05,
fd,
ff,
ea,
fa,
fc,
03,
08,
04,
06,
d8,
ec,
08,
24,
0a,
fc,
f6,
eb,
f8,
ed,
f8,
eb,
04,
09,
04,
07,
06,
01,
02,
04,
04,
ff,
09,
04,
06,
f8,
f4,
ee,
d0,
e4,
0a,
1e,
08,
f4,
eb,
ef,
f1,
f0,
f8,
f0,
05,
06,
07,
0b,
ff,
0a,
03,
fe,
fd,
05,
f8,
f9,
f5,
e6,
dc,
e5,
d4,
ea,
15,
08,
06,
f2,
f3,
ef,
f3,
f2,
ea,
fc,
01,
04,
0b,
00,
03,
0c,
0a,
09,
06,
ec,
e9,
f0,
fa,
da,
e3,
e8,
e2,
e9,
07,
07,
08,
fe,
f4,
f1,
e9,
e2,
f0,
fe,
f9,
05,
00,
05,
0d,
00,
0a,
fd,
fc,
e2,
da,
d7,
cd,
d7,
e6,
ef,
fb,
ed,
f4,
03,
11,
13,
ea,
f1,
e4,
e6,
e7,
f0,
ff,
fe,
04,
0d,
0d,
05,
0b,
f9,
ec,
d8,
c3,
d2,
d9,
f1,
06,
fb,
f4,
f8,
f6,
11,
07,
0b,
d4,
d1,
df,
da,
ea,
ef,
fd,
05,
05,
fe,
05,
0d,
07,
f7,
ea,
e1,
cf,
f3,
18,
17,
12,
fa,
01,
ff,
ff,
10,
03,
bf,
b9,
b4,
d7,
d0,
dd,
e9,
f6,
03,
0d,
fe,
0d,
0a,
08,
04,
f1,
db,
dd,
f9,
19,
10,
04,
0c,
0a,
f6,
f7,
07,
cf,
b0,
af,
c6,
d4,
de,
e1,
f8,
0a,
0d,
0d,
00,
05,
05,
01,
fd,
ea,
f0,
f3,
01,
08,
0d,
11,
12,
05,
f5,
f3,
d3,
bf,
b2,
d0,
dd,
ed,
fa,
00,
0d,
21,
09,
0d,
ff,
fe,
0e,
08,
ff,
e0,
f5,
09,
10,
0d,
17,
15,
26,
fd,
eb,
d5,
ca,
d4,
df,
fe,
14,
17,
24,
11,
24,
19,
06,
08,
06,
ff,
0d,
fb,
ff,
d9,
fd,
03,
09,
1d,
20,
24,
20,
05,
e2,
d3,
ed,
03,
04,
02,
17,
19,
1b,
14,
15,
1c,
14,
09,
0a,
ff,
08,
06,
0e,
06,
ff,
08,
16,
12,
16,
25,
19,
fd,
ea,
f0,
13,
27,
1e,
15,
14,
06,
09,
1d,
27,
22,
10,
06,
03,
03,
06,
02,
08,
28,
01,
00,
0c,
13,
12,
0a,
03,
fb,
f5,
fb,
05,
14,
17,
2b,
1f,
0f,
13,
1a,
22,
19,
08,
0b,
0d,
03,
03,
06,
0d,
30,
0b,
01,
00,
fb,
fe,
fa,
ff,
05,
fc,
e4,
f3,
f6,
16,
13,
21,
2d,
20,
16,
1c,
10,
01,
02,
0a,
0e,
0c,
f4,
fe,
1c,
11,
eb,
fb,
f9,
02,
09,
1f,
06,
ee,
f0,
f4,
f3,
0b,
01,
0c,
18,
1b,
19,
0f,
08,
0b,
0c,
05,
0c,
04,
f5,
f6,
fb,
02,
f2,
f9,
fd,
ea,
09,
18,
fd,
07,
f0,
f0,
f2,
fa,
f9,
02,
0d,
14,
03,
05,
0e,
07,
04,
05,
0d,
06,
00,
09,
ff,
0f,
15,
12,
07,
f6,
00,
fd,
04,
02,
01,
ff,
f9,
e6,
e6,
fd,
07,
04,
05,
0e,
0b,
0d,
0a,
02,
08,
09,
00,
0e,
03,
07,
fe,
ff,
0c,
fa,
09,
07,
03,
fe,
fc,
03,
f9,
fe,
0c,
02,
02,
0b,
0d,
07,
06,
0c,
03,
0d,
0b,
07,
02,
0d,
04,
02,
04,
07,
fe,
08,
05,
09,
06,
02,
04,
04,
0c,
fd,
08,
0d,
09,
02,
09,
09,
0a,
07,
ff,
05,
02,
08,
0b,
00,
03,
0a,
02,
05,
00,
05,
00,
fc,
fc,
07,
02,
05,
09,
05,
0a,
06,
fc,
08,
fc,
07,
03,
fc,
02,
0a,
00,
00,
08,
05,
07,
00,
06,
03,
07,
07,
02,
02,
09,
03,
0a,
04,
fe,
0a,
0f,
0d,
00,
02,
fe,
0b,
0a,
00,
05,
09,
0a,
00,
00,
fd,
fc,
0a,
0f,
19,
1d,
1a,
1f,
19,
21,
15,
1d,
16,
19,
0f,
11,
13,
09,
05,
03,
05,
00,
07,
0a,
0b,
09,
07,
03,
00,
08,
15,
0f,
0b,
19,
0c,
06,
04,
0d,
f0,
fe,
06,
09,
f0,
fe,
06,
11,
04,
0d,
05,
08,
01,
09,
04,
06,
00,
02,
00,
16,
14,
07,
08,
15,
1d,
0c,
06,
01,
01,
f7,
fd,
f9,
fe,
f1,
eb,
e7,
eb,
fe,
f3,
03,
fe,
04,
03,
06,
03,
fe,
0e,
07,
06,
fc,
fd,
fb,
02,
f3,
fd,
f4,
ff,
f7,
f8,
f8,
f8,
f6,
02,
fb,
f7,
fa,
fe,
f8,
03,
0b,
03,
fc,
fb,
0a,
07,
f0,
fd,
f0,
e5,
d6,
f7,
08,
f5,
f4,
ef,
f7,
f4,
fe,
05,
ed,
dc,
f2,
ed,
eb,
f2,
f9,
0a,
04,
04,
fc,
06,
f5,
f9,
e4,
de,
ec,
e3,
e9,
05,
03,
f8,
ee,
f0,
f9,
f0,
f6,
ec,
e9,
e5,
eb,
db,
d4,
e7,
00,
02,
01,
00,
01,
0a,
fa,
f3,
e8,
f1,
ed,
e3,
f3,
13,
01,
f8,
f7,
fa,
f4,
ec,
ff,
ed,
e9,
ff,
e4,
dc,
c6,
d7,
f6,
f6,
00,
fd,
03,
fd,
fa,
fb,
f2,
ed,
f6,
f3,
f2,
01,
01,
01,
f0,
06,
01,
f4,
ec,
ee,
ec,
ff,
e9,
ef,
c8,
db,
f1,
f9,
fe,
05,
07,
0b,
f8,
ee,
fd,
e9,
f5,
fd,
ec,
ec,
fd,
eb,
f2,
fd,
01,
02,
fd,
de,
e1,
f3,
f6,
f9,
fe,
e7,
f4,
fb,
ff,
04,
fc,
01,
f3,
07,
fb,
ec,
f7,
e7,
e5,
ec,
ea,
d3,
e8,
f9,
eb,
f4,
f1,
f2,
f3,
04,
07,
02,
00,
07,
fe,
fc,
01,
fc,
0a,
03,
f8,
08,
f1,
d7,
df,
e4,
da,
e8,
ef,
dc,
ed,
00,
f2,
f6,
f3,
f9,
f6,
fe,
11,
0c,
06,
16,
1a,
ff,
07,
fd,
02,
00,
0b,
f8,
f2,
e8,
e6,
f5,
ed,
ea,
ec,
f2,
0f,
04,
02,
f7,
f4,
f7,
13,
fb,
10,
00,
17,
10,
11,
0a,
07,
fe,
02,
00,
0d,
ff,
ec,
f2,
ff,
04,
fd,
02,
f6,
fc,
19,
19,
12,
01,
ee,
06,
07,
f9,
0a,
10,
10,
06,
15,
0d,
06,
fd,
fa,
01,
10,
00,
fa,
01,
02,
fd,
01,
f3,
f9,
06,
31,
19,
07,
02,
fd,
fd,
03,
fe,
ff,
00,
03,
09,
27,
0e,
04,
fb,
01,
fd,
10,
fd,
fa,
17,
01,
ff,
09,
07,
09,
02,
13,
28,
1d,
08,
00,
03,
f5,
f4,
0b,
06,
09,
25,
29,
16,
07,
00,
01,
0b,
14,
0a,
ff,
0f,
05,
08,
f8,
07,
fe,
03,
11,
22,
0e,
09,
01,
03,
f5,
f6,
0b,
fa,
02,
fc,
21,
12,
fd,
fe,
05,
fd,
0e,
11,
0a,
0c,
16,
0b,
fe,
05,
f6,
0f,
09,
15,
18,
10,
0e,
08,
01,
ff,
0b,
01,
11,
1c,
27,
03,
0c,
04,
fd,
03,
fa,
0e,
0f,
fc,
06,
f6,
0c,
03,
1a,
12,
07,
16,
1c,
21,
1a,
14,
07,
08,
0a,
0d,
17,
1d,
22,
0b,
fe,
fc,
01,
0c,
07,
19,
17,
01,
0a,
fd,
03,
0c,
11,
0d,
0f,
17,
13,
15,
12,
20,
15,
11,
0d,
0b,
19,
11,
06,
0d,
fe,
02,
00,
fc,
08,
1a,
0c,
02,
0b,
0c,
09,
17,
06,
05,
12,
0d,
09,
fa,
fc,
0c,
1b,
15,
0c,
0d,
10,
ff,
07,
05,
02,
fd,
fd,
04,
08,
0b,
0f,
f7,
fa,
fd,
08,
02,
e8,
e1,
e9,
e3,
eb,
e1,
e8,
0a,
08,
0b,
00,
fc,
ef,
f3,
05,
fb,
07,
0b,
00,
03,
03,
f9,
fd,
f5,
ee,
f0,
ec,
ea,
ea,
e5,
d8,
d5,
e4,
e9,
e9,
e7,
f5,
01,
07,
03,
f8,
e7,
fc,
01,
02,
09,
fe,
ff,
f8,
f7,
f0,
f5,
e0,
e7,
e1,
e6,
d3,
d4,
c4,
be,
d3,
e9,
e0,
e9,
d9,
eb,
f0,
ee,
f4,
04,
ff,
fe,
00,
08,
08,
03,
07,
01,
05,
fd,
f2,
ed,
dd,
e7,
e5,
e1,
d2,
d5,
de,
df,
e2,
eb,
e8,
f7,
f5,
fa,
fa,
fc,
01,
04,
03,
03,
fe,
03,
05,
09,
08,
fb,
fc,
05,
01,
fe,
f4,
02,
ed,
ed,
f8,
ff,
f5,
ff,
fd,
fd,
fa,
fe,
04,
05,
08,
00,
0b,
06,
fe,
fb,
09,
04,
03,
00,
07,
00,
fd,
09,
00,
08,
fd,
01,
ff,
04,
02,
05,
fd,
fc,
09,
fd,
06,
fc,
05,
03,
ff,
05,
06,
05,
0b,
00,
09,
0c,
ff,
ff,
08,
02,
05,
fd,
0a,
04,
06,
02,
08,
05,
02,
07,
02,
08,
fd,
02,
ff,
08,
ff,
0b,
07,
0a,
00,
fe,
04,
fe,
fb,
06,
07,
ff,
05,
f6,
fc,
0c,
05,
ff,
fc,
04,
0a,
0b,
0b,
ff,
0a,
06,
fe,
06,
fd,
07,
01,
00,
05,
0a,
09,
f9,
fd,
fb,
f6,
f6,
f4,
e8,
ef,
f9,
02,
fb,
fd,
f4,
fb,
03,
03,
03,
04,
0a,
ff,
fe,
fd,
08,
01,
01,
03,
07,
03,
fb,
eb,
ea,
e4,
f2,
f4,
de,
dc,
e6,
e6,
f4,
f7,
f1,
f5,
fd,
fe,
fb,
ff,
06,
07,
02,
05,
09,
06,
06,
00,
0a,
fb,
f4,
f0,
f4,
e8,
eb,
ec,
09,
08,
fc,
fc,
f0,
01,
09,
06,
10,
06,
0e,
13,
09,
04,
fd,
01,
04,
02,
08,
04,
fa,
04,
06,
f8,
f6,
f9,
f7,
07,
01,
0e,
05,
07,
f6,
fa,
f9,
03,
02,
00,
f6,
07,
0b,
04,
03,
0b,
09,
04,
09,
fe,
fa,
02,
ff,
07,
fe,
f6,
fc,
fc,
03,
0a,
0e,
0a,
0d,
f3,
ed,
f8,
fe,
fd,
ee,
05,
fc,
05,
08,
05,
0d,
06,
08,
03,
ef,
00,
01,
f9,
fd,
03,
0a,
05,
09,
0a,
03,
03,
0c,
0a,
fc,
f4,
05,
fc,
f6,
01,
f9,
05,
fe,
00,
03,
05,
09,
0c,
ff,
02,
05,
f3,
03,
fe,
08,
0b,
fa,
f9,
12,
03,
06,
f5,
04,
fa,
f7,
02,
f7,
fa,
ed,
fd,
08,
08,
03,
01,
02,
06,
00,
05,
fa,
09,
08,
07,
03,
06,
ef,
ef,
01,
fc,
05,
0f,
06,
fd,
08,
f8,
f6,
f3,
e6,
ed,
01,
fc,
02,
07,
fe,
09,
f6,
0f,
03,
0c,
08,
0f,
08,
04,
f4,
ed,
e0,
f1,
0d,
14,
0b,
fb,
01,
04,
01,
f4,
dc,
fb,
ff,
01,
0c,
ff,
11,
0b,
02,
12,
14,
12,
07,
05,
1c,
06,
fe,
fc,
e7,
fa,
02,
1c,
0d,
ff,
11,
10,
0e,
f9,
d8,
ed,
03,
07,
06,
08,
05,
0f,
17,
12,
12,
06,
0f,
fb,
07,
0e,
05,
f6,
eb,
fe,
01,
19,
05,
03,
0a,
01,
18,
05,
dd,
fa,
03,
ff,
ff,
0c,
01,
05,
26,
19,
08,
06,
06,
ff,
fc,
07,
0a,
ea,
de,
e4,
09,
18,
02,
04,
0d,
0b,
16,
ee,
dd,
ff,
00,
0c,
05,
0c,
0d,
10,
1b,
0c,
f5,
06,
09,
01,
06,
00,
fe,
e7,
d9,
d9,
08,
16,
0c,
04,
0a,
0a,
16,
f7,
ee,
f7,
06,
03,
06,
0b,
0b,
09,
08,
fd,
09,
03,
00,
f6,
0e,
05,
f2,
ef,
c6,
d9,
fc,
20,
02,
04,
10,
ff,
0b,
f5,
ee,
f8,
08,
ff,
00,
00,
05,
f9,
f6,
04,
07,
18,
17,
fe,
fd,
07,
07,
e8,
cd,
d9,
09,
1f,
12,
01,
04,
f4,
06,
f4,
f8,
00,
0d,
03,
07,
02,
fd,
f2,
f1,
fd,
04,
0a,
0d,
fd,
06,
0b,
0b,
eb,
d3,
fb,
14,
1e,
14,
fa,
f5,
04,
07,
fd,
07,
fb,
06,
0c,
0d,
07,
09,
f0,
f8,
01,
03,
06,
04,
13,
1e,
1d,
0a,
d8,
e9,
ff,
24,
16,
09,
f9,
03,
0a,
f7,
e7,
e9,
ef,
08,
02,
0a,
06,
09,
fe,
ff,
08,
01,
0a,
07,
02,
08,
02,
ee,
d4,
f1,
08,
11,
08,
00,
07,
fa,
ea,
f2,
ef,
04,
f9,
06,
01,
01,
01,
0d,
05,
f8,
03,
0a,
fe,
f5,
e5,
df,
e0,
d2,
d4,
ef,
0a,
0a,
03,
fa,
02,
fd,
e6,
e5,
f3,
0e,
05,
07,
03,
04,
00,
ff,
fc,
f5,
05,
02,
fb,
f8,
dc,
e0,
da,
ec,
eb,
f4,
04,
07,
f9,
02,
02,
0b,
fd,
f5,
fe,
18,
fa,
06,
fd,
00,
08,
05,
05,
fb,
f1,
f7,
f3,
f1,
e4,
ed,
ed,
ff,
07,
0a,
0e,
09,
10,
08,
fe,
0f,
f9,
05,
0a,
10,
0b,
03,
0a,
08,
0a,
fd,
fb,
f7,
f4,
f2,
ee,
e9,
de,
ee,
fb,
03,
fd,
17,
13,
11,
18,
03,
01,
09,
10,
07,
0b,
09,
08,
09,
05,
04,
08,
fc,
ff,
f9,
f8,
e2,
d4,
e3,
e5,
ed,
fc,
f7,
eb,
f9,
00,
11,
10,
f2,
f0,
14,
13,
0f,
07,
f6,
02,
03,
fe,
06,
07,
ff,
0c,
03,
00,
ea,
df,
e9,
ef,
e9,
02,
f2,
f1,
04,
f3,
fb,
f2,
08,
0c,
1e,
1a,
01,
fa,
03,
03,
06,
0d,
fd,
03,
02,
04,
06,
03,
0d,
0b,
0d,
21,
13,
15,
10,
07,
21,
0a,
09,
11,
0f,
06,
0a,
1b,
0e,
00,
fe,
02,
01,
06,
06,
fd,
09,
09,
fe,
0c,
02,
0b,
0f,
0a,
0a,
04,
07,
01,
08,
11,
02,
0d,
07,
10,
0d,
07,
08,
00,
0d,
00,
08,
0b,
fa,
fa,
fc,
00,
07,
ff,
fe,
07,
08,
06,
08,
fa,
fa,
03,
fb,
ff,
06,
09,
00,
fa,
fd,
09,
00,
fa,
fd,
fc,
ff,
fc,
ff,
09,
fe,
00,
06,
fa,
fd,
01,
08,
03,
01,
ff,
05,
fe,
00,
fe,
05,
0a,
fb,
01,
01,
fd,
fc,
fe,
fb,
08,
fc,
06,
08,
00,
09,
07,
fc,
06,
04,
08,
fb,
08,
03,
05,
fd,
07,
01,
08,
02,
06,
fc,
fa,
04,
06,
04,
04,
07,
fd,
06,
05,
fe,
fd,
f9,
07,
01,
03,
fc,
fb,
08,
07,
05,
07,
07,
06,
06,
ff,
04,
fa,
fe,
01,
01,
09,
08,
04,
09,
fd,
03,
fb,
fb,
06,
04,
01,
fc,
07,
01,
07,
fb,
07,
01,
fc,
ff,
f8,
fd,
ff,
f9,
04,
09,
06,
fe,
fd,
fb,
fd,
06,
05,
fe,
02,
00,
02,
f9,
08,
ff,
fb,
01,
04,
06,
fb,
fe,
f9,
f9,
f9,
fa,
04,
f7,
fd,
fb,
04,
01,
fe,
08,
fb,
fe,
fa,
01,
04,
09,
fc,
fc,
0a,
03,
fc,
05,
07,
ff,
fb,
fa,
fc,
03,
f9,
06,
fa,
01,
07,
fb,
f9,
fb,
fc,
fc,
fa,
fd,
ff,
08,
00,
02,
ff,
03,
05,
03,
00,
01,
06,
f9,
07,
fd,
04,
05,
ff,
fe,
04,
fd,
01,
06,
fd,
fc,
06,
08,
09,
fa,
07,
05,
fc,
07,
fd,
06,
02,
04,
fc,
fe,
fb,
03,
f8,
ff,
01,
fe,
fc,
00,
ff,
fa,
fc,
fd,
fa,
fe,
fd,
fb,
fb,
fc,
00,
08,
01,
fd,
fb,
03,
08,
fa,
07,
08,
01,
03,
01,
f7,
fb,
fd,
fa,
00,
04,
00,
03,
fa,
05,
fb,
05,
06,
fb,
fa,
07,
08,
01,
03,
03,
ff,
05,
04,
f9,
ff,
fb,
03,
f6,
f7,
f7,
fc,
f9,
fe,
fb,
04,
06,
02,
fb,
02,
f8,
fe,
00,
fa,
09,
07,
05,
05,
09,
fe,
03,
ff,
01,
fc,
07,
f9,
fb,
06,
fa,
00,
f8,
fb,
06,
03,
ff,
fb,
05,
06,
00,
fd,
02,
05,
04,
09,
09,
06,
fc,
01,
03,
ff,
05,
07,
fd,
fc,
f8,
00,
04,
06,
00,
04,
f7,
ff,
fe,
fb,
06,
04,
fb,
fa,
fe,
04,
05,
06,
08,
fc,
02,
fe,
fe,
02,
01,
fb,
01,
04,
06,
fd,
05,
fd,
f9,
06,
fd,
fd,
fe,
06,
fb,
fd,
02,
fc,
04,
08,
04,
00,
00,
fa,
fb,
ff,
06,
09,
01,
01,
07,
00,
fc,
05,
fc,
fa,
ff,
f9,
f8,
fa,
fe,
01,
fb,
f8,
ff,
09,
ff,
fb,
fe,
09,
03,
00,
09,
02,
03,
0a,
01,
00,
08,
04,
fc,
05,
fc,
f8,
06,
f9,
fb,
fd,
ff,
fe,
05,
05,
fa,
fa,
f9,
08,
00,
fd,
fc,
03,
04,
06,
08,
09,
fc,
00,
fc,
fd,
ff,
03,
fb,
fa,
fc,
02,
fe,
04,
f7,
02,
05,
05,
fb,
fc,
01,
01,
06,
08,
01,
ff,
06,
fc,
fe,
03,
00,
06,
ff,
ff,
01,
fe,
fc,
04,
03,
fd,
f9,
fc,
04,
04,
fc,
05,
01,
01,
fe,
02,
00,
04,
fa,
01,
fb,
fa,
f9,
00,
01,
01,
00,
fb,
f9,
fd,
f9,
fe,
00,
ff,
f7,
07,
06,
fb,
f8,
01,
03,
ff,
fd,
02,
fd,
fd,
04,
02,
05,
08,
01,
04,
07,
fa,
03,
04,
fc,
05,
fb,
fa,
04,
02,
fe,
f8,
03,
01,
fa,
01,
07,
05,
fd,
01,
fe,
07,
05,
00,
01,
fc,
00,
06,
fa,
02,
06,
02,
03,
fc,
fe,
f7,
fa,
00,
01,
04,
fa,
01,
fb,
fc,
fe,
fc,
03,
03,
07,
06,
03,
05,
04,
fa,
fe,
fb,
fd,
03,
06,
04,
fb,
00,
04,
00,
f8,
00,
02,
00,
06,
06,
fa,
07,
fa,
fd,
05,
02,
08,
06,
00,
09,
fc,
03,
04,
08,
0a,
05,
fb,
05,
04,
fe,
04,
00,
fe,
01,
ff,
fd,
00,
ff,
fc,
fb,
04,
fe,
02,
09,
07,
06,
06,
07,
fc,
09,
fc,
fd,
ff,
09,
03,
01,
03,
f7,
f7,
01,
fd,
03,
f9,
06,
fa,
05,
06,
fd,
09,
06,
fe,
fe,
08,
ff,
02,
05,
05,
fd,
08,
04,
04,
fe,
02,
fe,
04,
02,
04,
fe,
04,
05,
01,
00,
fc,
fd,
06,
fd,
fe,
06,
fd,
fb,
03,
05,
fa,
03,
fb,
05,
06,
04,
09,
ff,
fd,
03,
04,
fd,
fc,
fe,
05,
06,
fe,
08,
fb,
01,
04,
fc,
09,
fe,
06,
02,
fd,
09,
01,
03,
09,
fa,
08,
fd,
fb,
06,
ff,
fb,
fd,
06,
05,
01,
06,
04,
fb,
03,
07,
01,
01,
09,
ff,
09,
09,
08,
04,
04,
04,
fa,
fe,
fd,
00,
fd,
ff,
fc,
fc,
04,
09,
fe,
fc,
ff,
ff,
fa,
09,
07,
07,
fd,
fc,
09,
fd,
fb,
fb,
04,
00,
fd,
08,
fd,
02,
06,
06,
08,
01,
06,
01,
03,
fd,
07,
04,
03,
01,
05,
fa,
08,
08,
06,
01,
fa,
00,
fb,
fe,
08,
01,
0a,
fe,
fe,
fb,
05,
05,
06,
09,
07,
fb,
02,
09,
08,
05,
fc,
f9,
0b,
01,
0a,
01,
ff,
05,
09,
ff,
05,
05,
00,
03,
04,
09,
ff,
08,
01,
05,
fb,
07,
09,
04,
05,
0f,
08,
05,
0d,
07,
13,
09,
0f,
0a,
01,
f6,
f8,
f8,
ff,
ff,
09,
fb,
fb,
ff,
0a,
09,
01,
00,
02,
07,
08,
08,
14,
25,
35,
2e,
23,
18,
15,
15,
15,
06,
ec,
f9,
f9,
f3,
05,
08,
06,
fd,
07,
02,
00,
05,
08,
06,
fc,
0e,
05,
fe,
18,
2d,
22,
13,
20,
12,
0e,
03,
05,
03,
02,
f2,
f1,
e2,
f0,
f3,
03,
fc,
fb,
fa,
07,
02,
fb,
02,
08,
01,
13,
16,
15,
13,
1b,
0b,
11,
12,
00,
09,
02,
06,
04,
fe,
ec,
e3,
d5,
ef,
fa,
fa,
07,
03,
ff,
09,
ff,
07,
12,
12,
0c,
0f,
fe,
04,
0a,
08,
11,
21,
0b,
fe,
00,
f7,
02,
01,
f6,
f1,
dc,
e5,
ed,
01,
08,
00,
ff,
fb,
03,
0b,
2c,
19,
1b,
13,
0a,
0e,
13,
14,
06,
0c,
0e,
ff,
fc,
f9,
fd,
0e,
f9,
e5,
d2,
d7,
f0,
f5,
ff,
fa,
fc,
05,
01,
1d,
3b,
13,
06,
10,
09,
ff,
00,
e7,
ea,
f8,
01,
13,
0c,
0e,
01,
08,
f2,
e3,
e0,
cf,
e8,
f9,
06,
fd,
fb,
01,
02,
10,
1a,
0f,
ed,
e3,
d2,
c7,
bc,
aa,
c9,
e1,
01,
0c,
1c,
0d,
0f,
0a,
f3,
e2,
e9,
d3,
e9,
fa,
f9,
05,
fb,
fc,
09,
0c,
00,
dc,
b7,
aa,
8e,
91,
b0,
d0,
e6,
f0,
fa,
05,
13,
04,
fa,
fa,
ff,
ef,
dc,
e8,
e6,
fb,
f9,
ff,
07,
02,
05,
06,
e7,
c5,
a0,
9c,
a4,
d4,
f7,
0c,
0a,
00,
0f,
03,
06,
ff,
ee,
00,
f1,
da,
d7,
ec,
f6,
0a,
06,
ff,
fa,
04,
00,
f9,
e7,
c6,
b5,
d6,
ec,
0f,
21,
1d,
12,
06,
05,
04,
ff,
f2,
f3,
01,
ec,
e9,
eb,
ef,
11,
11,
03,
fd,
fd,
f9,
01,
01,
e6,
de,
f7,
06,
1a,
23,
23,
08,
05,
07,
0a,
fb,
05,
03,
05,
fa,
f9,
fb,
ea,
fa,
0e,
16,
07,
04,
01,
03,
fb,
ff,
03,
fe,
0a,
15,
1d,
07,
fc,
fe,
fb,
05,
05,
fd,
f9,
02,
f3,
f5,
07,
15,
fb,
02,
05,
0a,
12,
05,
03,
04,
07,
01,
0f,
0d,
11,
01,
fa,
fd,
f1,
f2,
fa,
02,
03,
fc,
06,
f2,
f5,
f9,
fb,
fe,
05,
0a,
17,
0f,
06,
fb,
00,
fb,
0a,
13,
0a,
fa,
04,
03,
f8,
01,
f6,
fb,
fe,
0c,
04,
f3,
fc,
fa,
fe,
03,
f2,
06,
07,
12,
17,
17,
07,
0b,
00,
05,
10,
1b,
03,
f1,
f9,
fa,
fe,
01,
fc,
fd,
fc,
0f,
05,
f0,
03,
fa,
fd,
04,
fb,
fb,
0e,
08,
03,
10,
0b,
ff,
fe,
fc,
05,
0f,
0f,
08,
0a,
04,
0f,
0d,
02,
f7,
02,
fb,
f7,
ff,
15,
08,
08,
0d,
0c,
17,
1f,
0b,
05,
0c,
05,
00,
06,
fd,
06,
0b,
f6,
09,
05,
03,
fb,
f9,
fd,
f5,
fa,
f6,
f8,
04,
07,
13,
0c,
08,
11,
16,
1c,
05,
04,
0b,
06,
fc,
ff,
fa,
02,
0a,
f4,
09,
0d,
06,
fc,
0c,
fa,
fb,
fe,
f6,
05,
fc,
f1,
ec,
08,
0e,
0a,
0e,
0b,
fe,
02,
05,
00,
03,
03,
fd,
06,
0f,
08,
f5,
03,
fe,
f5,
f1,
00,
f9,
fd,
00,
f6,
f7,
fd,
fe,
02,
0b,
fd,
fa,
06,
04,
06,
06,
fe,
fc,
08,
01,
0f,
16,
05,
0c,
0a,
fc,
00,
fe,
0b,
07,
fc,
02,
f9,
01,
fc,
fe,
fd,
fb,
fc,
f5,
01,
fc,
06,
f7,
fa,
fb,
fb,
fe,
00,
0c,
0f,
0b,
09,
09,
08,
08,
15,
0d,
fb,
fa,
05,
ff,
ff,
e5,
f4,
f8,
e8,
05,
0d,
0f,
08,
f8,
ff,
09,
06,
fc,
0a,
02,
07,
08,
08,
04,
0b,
06,
06,
09,
fe,
02,
15,
05,
fe,
0a,
f7,
01,
03,
09,
0c,
04,
02,
08,
00,
09,
09,
fb,
08,
04,
01,
05,
0e,
1a,
1e,
19,
19,
03,
04,
14,
11,
ff,
fe,
09,
0a,
08,
02,
f9,
fa,
04,
fe,
09,
ff,
fd,
00,
fd,
01,
00,
03,
01,
fc,
fb,
fe,
fd,
fd,
07,
ff,
ff,
fc,
fc,
fc,
fe,
fb,
05,
02,
f8,
02,
fb,
08,
03,
02,
fd,
03,
03,
04,
fc,
fe,
fc,
fc,
fb,
f9,
09,
f8,
fe,
01,
fd,
fd,
05,
ff,
ff,
06,
ff,
01,
07,
00,
fb,
08,
fb,
fa,
fe,
02,
08,
fb,
fd,
09,
08,
04,
fb,
06,
01,
fb,
08,
fc,
03,
fd,
08,
02,
ff,
06,
09,
01,
07,
fe,
fd,
fd,
fa,
08,
03,
fc,
fa,
06,
02,
fc,
01,
fe,
03,
ff,
fe,
fd,
ff,
03,
06,
05,
0c,
01,
00,
fd,
fc,
fd,
00,
09,
fa,
07,
05,
05,
06,
06,
08,
04,
00,
04,
01,
fe,
05,
09,
04,
fc,
ff,
07,
0f,
05,
17,
13,
14,
0b,
09,
04,
08,
ff,
03,
08,
fa,
01,
fa,
ff,
04,
02,
05,
fc,
08,
00,
08,
fe,
04,
00,
ee,
ed,
f7,
f2,
f5,
03,
ff,
01,
f9,
0a,
03,
04,
fe,
09,
fe,
01,
05,
fd,
ff,
01,
0a,
05,
fe,
08,
0a,
03,
07,
08,
05,
01,
04,
f4,
0a,
03,
06,
06,
fc,
ee,
fd,
f4,
fe,
f7,
06,
01,
f9,
fc,
03,
07,
01,
0a,
15,
16,
00,
ef,
fd,
fb,
fd,
05,
0a,
0b,
15,
0d,
04,
f6,
fa,
00,
f4,
06,
09,
05,
05,
0a,
02,
02,
06,
06,
04,
05,
19,
14,
f8,
f2,
f9,
03,
0a,
fd,
0a,
09,
0d,
0f,
fd,
02,
fd,
f9,
f5,
f8,
0d,
10,
1b,
06,
06,
00,
05,
03,
ff,
0b,
0d,
07,
00,
e6,
fc,
02,
01,
06,
09,
12,
fc,
f9,
fa,
e6,
f3,
f8,
f2,
00,
fe,
0b,
1d,
12,
01,
05,
00,
fa,
09,
fe,
06,
01,
fc,
f3,
fc,
0b,
fa,
02,
ff,
fa,
f2,
df,
ed,
de,
de,
ef,
e5,
f3,
fb,
16,
2a,
11,
03,
fc,
fa,
05,
f9,
03,
e8,
fa,
0e,
06,
ef,
f5,
eb,
ef,
fd,
f9,
fe,
e7,
e4,
d5,
db,
e5,
e5,
07,
09,
30,
33,
11,
0b,
05,
07,
04,
fe,
fc,
e7,
e9,
00,
05,
ee,
ed,
f4,
00,
19,
1c,
0d,
07,
fa,
ed,
02,
ef,
f9,
f8,
11,
2f,
30,
08,
fb,
ff,
fb,
05,
02,
f5,
ee,
e3,
ee,
ed,
ee,
ef,
05,
12,
26,
2b,
14,
04,
06,
03,
fa,
fe,
e9,
e0,
f5,
f9,
04,
fe,
fa,
05,
01,
fd,
05,
f4,
f2,
e8,
fc,
fc,
0c,
12,
22,
1f,
1d,
0e,
03,
f4,
f9,
ed,
e6,
fb,
ef,
de,
d1,
d2,
f5,
08,
fc,
05,
ff,
f7,
03,
ef,
fc,
fa,
04,
0f,
0d,
1a,
09,
11,
08,
0b,
f5,
f3,
e5,
e8,
ee,
06,
f2,
ed,
e7,
df,
e7,
fc,
07,
01,
09,
f9,
02,
f4,
f5,
f2,
f9,
01,
08,
03,
04,
06,
f5,
0b,
f6,
f7,
e7,
f2,
f7,
ff,
05,
f5,
f8,
ef,
f3,
fe,
ff,
fa,
ff,
09,
06,
f6,
e6,
e1,
da,
de,
e4,
e6,
f9,
03,
fb,
f4,
e0,
f0,
f0,
04,
ff,
06,
01,
05,
0a,
02,
f9,
02,
fb,
04,
06,
fc,
03,
01,
e9,
cb,
bd,
b3,
bc,
b6,
ca,
d7,
e9,
f1,
ea,
ea,
f0,
fd,
05,
0a,
12,
0d,
11,
1d,
fc,
07,
ff,
ff,
04,
07,
12,
fa,
ff,
ea,
d8,
de,
c6,
b0,
b6,
c0,
e4,
fd,
f8,
fc,
ed,
f2,
0b,
fe,
13,
03,
10,
14,
ed,
04,
fa,
ff,
01,
fb,
0f,
06,
14,
14,
08,
16,
fd,
ea,
df,
da,
fc,
06,
10,
fa,
ef,
fb,
f8,
ed,
05,
fe,
0b,
0b,
00,
fc,
fe,
05,
05,
05,
0c,
11,
0a,
1f,
1a,
21,
28,
14,
0d,
0e,
13,
18,
14,
08,
f1,
ff,
f6,
f4,
02,
0c,
20,
1c,
ff,
07,
fd,
fc,
02,
fc,
09,
04,
04,
11,
11,
21,
17,
0a,
11,
18,
0c,
12,
0a,
10,
0b,
05,
fe,
f8,
00,
20,
1c,
ff,
03,
08,
06,
06,
09,
01,
03,
01,
f7,
00,
10,
0c,
04,
0b,
0d,
10,
08,
16,
13,
fb,
f8,
08,
07,
0d,
11,
13,
0c,
fe,
f7,
05,
ff,
04,
fa,
fc,
01,
07,
08,
fb,
04,
fc,
05,
0a,
0a,
01,
02,
fe,
04,
08,
04,
08,
0a,
10,
08,
05,
0e,
02,
00,
07,
fb,
02,
09,
fa,
fe,
0b,
0a,
fd,
fb,
04,
13,
0a,
0d,
13,
02,
03,
0f,
09,
fa,
f5,
f1,
05,
fc,
fc,
f8,
04,
01,
fa,
01,
ff,
01,
03,
04,
f9,
00,
06,
07,
11,
1a,
05,
06,
fd,
f9,
02,
f1,
e6,
ef,
f8,
fd,
f5,
fe,
ff,
03,
07,
06,
ff,
01,
fa,
fb,
fd,
06,
ff,
fe,
07,
02,
0a,
0b,
ec,
f2,
f0,
fb,
f7,
e8,
f0,
f8,
fb,
fd,
f3,
fd,
05,
fa,
fe,
02,
fe,
02,
fa,
04,
09,
02,
09,
fa,
fb,
fc,
05,
f8,
fd,
f5,
fb,
f9,
f9,
ff,
fe,
06,
02,
f6,
08,
02,
04,
fd,
fe,
fb,
fb,
fd,
06,
fe,
fa,
04,
ff,
fc,
08,
f9,
f9,
06,
06,
fe,
08,
fc,
fd,
00,
fe,
06,
f9,
07,
06,
fc,
fc,
03,
01,
fa,
08,
08,
0a,
07,
fe,
ff,
00,
06,
08,
03,
fc,
fe,
00,
fe,
08,
04,
fe,
ff,
fe,
fe,
07,
ff,
fd,
04,
03,
fd,
06,
04,
05,
07,
ff,
fc,
09,
0b,
0b,
08,
0b,
06,
fc,
05,
fc,
fb,
05,
ff,
00,
0b,
07,
06,
00,
05,
02,
00,
01,
09,
fe,
01,
09,
03,
07,
00,
09,
fe,
ff,
fc,
fd,
08,
07,
05,
03,
03,
01,
01,
f6,
fd,
fc,
ff,
fc,
02,
fe,
f8,
fd,
02,
07,
06,
05,
0a,
09,
ff,
01,
03,
03,
fd,
01,
07,
f6,
fb,
fb,
f2,
e4,
d9,
de,
e7,
f1,
f3,
fa,
f7,
f7,
00,
fc,
07,
ff,
00,
06,
fe,
fe,
ff,
02,
fe,
fb,
07,
06,
fe,
fa,
01,
f8,
fd,
04,
10,
10,
0c,
fa,
04,
0c,
fe,
f2,
ed,
f7,
f6,
05,
06,
02,
0a,
06,
06,
fd,
ff,
02,
03,
00,
f6,
f6,
fd,
fe,
0d,
16,
11,
19,
0d,
0d,
15,
0b,
fe,
fb,
02,
ea,
e8,
f2,
0b,
fd,
09,
ff,
01,
09,
04,
f8,
fd,
f6,
e9,
ee,
ef,
ee,
03,
02,
07,
10,
1c,
1e,
1d,
0c,
fd,
04,
0c,
01,
05,
fd,
f9,
02,
08,
06,
04,
0a,
f9,
01,
f8,
e4,
de,
e3,
fb,
fa,
f5,
fb,
f5,
00,
14,
18,
20,
11,
fd,
06,
06,
ff,
06,
06,
ff,
fa,
fb,
04,
05,
00,
00,
fb,
eb,
fd,
f7,
fa,
0f,
0e,
11,
08,
02,
ee,
ee,
f6,
01,
13,
0e,
03,
0b,
0e,
08,
11,
00,
ff,
09,
fd,
01,
09,
02,
ef,
f0,
fe,
fa,
09,
08,
0b,
0a,
0d,
08,
e9,
d9,
e0,
01,
0a,
1a,
18,
0a,
07,
09,
f6,
f8,
01,
fc,
02,
06,
fd,
f3,
f6,
f2,
fd,
0a,
05,
fa,
fb,
06,
06,
f9,
eb,
d5,
e6,
09,
12,
0b,
0c,
0a,
11,
0a,
e9,
ee,
fd,
fb,
09,
06,
03,
f3,
e7,
fd,
03,
14,
14,
fe,
00,
12,
01,
fa,
ef,
ed,
f8,
04,
f7,
00,
01,
0b,
09,
0c,
fa,
f9,
06,
04,
08,
01,
fc,
fe,
ed,
f7,
07,
06,
f6,
03,
02,
04,
04,
0b,
00,
00,
fe,
06,
02,
0d,
05,
13,
06,
12,
ff,
ff,
01,
09,
05,
fd,
05,
fe,
f7,
f1,
fa,
fa,
fa,
fd,
09,
03,
fd,
0b,
13,
07,
01,
03,
fd,
0c,
1e,
08,
1d,
10,
f7,
02,
02,
05,
01,
07,
fb,
05,
06,
07,
fb,
fd,
f1,
f3,
09,
0d,
fa,
13,
0d,
05,
f0,
07,
0a,
0b,
0d,
0b,
ff,
03,
eb,
ff,
01,
00,
0a,
0a,
06,
00,
0d,
ff,
f2,
f5,
f5,
09,
0c,
f5,
04,
01,
12,
07,
f6,
01,
fd,
ff,
f9,
0a,
14,
07,
ed,
01,
fa,
ff,
fc,
03,
ff,
07,
00,
fc,
ff,
f8,
06,
04,
06,
ff,
05,
0a,
06,
0e,
0d,
05,
ea,
f0,
02,
09,
09,
fa,
ee,
fb,
f8,
05,
00,
ff,
0b,
02,
0a,
f9,
fb,
0c,
16,
11,
f8,
f7,
06,
07,
f8,
0a,
17,
08,
dc,
e0,
f4,
02,
fb,
09,
fb,
f5,
fd,
ff,
02,
03,
02,
04,
f7,
10,
05,
07,
00,
fa,
f4,
f1,
ec,
f5,
e1,
f5,
06,
fc,
e2,
e1,
e1,
f8,
ff,
09,
02,
fa,
09,
04,
0a,
07,
04,
01,
02,
0b,
09,
f8,
ff,
f9,
ea,
df,
e8,
f3,
ea,
f4,
00,
04,
03,
e8,
e6,
ed,
02,
0d,
f9,
ff,
ff,
06,
fd,
05,
0d,
07,
04,
07,
02,
03,
f0,
f8,
f9,
ec,
f7,
05,
f1,
fe,
fe,
0d,
fc,
f5,
e5,
fc,
fe,
08,
00,
f8,
fb,
06,
ff,
fc,
0b,
05,
09,
ff,
03,
f7,
fe,
01,
f8,
fb,
fb,
0a,
ec,
f9,
f8,
fa,
e2,
f0,
eb,
f3,
03,
f8,
ef,
00,
05,
03,
fc,
0a,
07,
09,
fd,
ea,
09,
fe,
ff,
0c,
ff,
16,
12,
06,
fc,
f7,
e4,
e3,
e6,
e4,
dc,
db,
f6,
f8,
ff,
ff,
fd,
fe,
02,
06,
04,
05,
f1,
e3,
e8,
07,
0e,
0c,
10,
13,
13,
18,
0f,
fe,
00,
f0,
f2,
ec,
e8,
f8,
03,
00,
f9,
02,
fa,
0b,
0b,
08,
fd,
02,
05,
f0,
eb,
f1,
fb,
fc,
00,
03,
00,
11,
01,
0d,
1b,
03,
11,
f9,
fc,
fb,
10,
07,
fb,
00,
09,
0a,
04,
09,
01,
02,
09,
00,
01,
ff,
f7,
eb,
03,
f5,
e3,
fc,
1a,
06,
06,
0f,
0c,
fc,
fc,
fc,
fa,
fd,
fc,
05,
07,
03,
0b,
02,
0a,
02,
01,
0b,
05,
0f,
0b,
06,
00,
03,
f7,
f8,
0c,
f4,
f2,
08,
05,
03,
fe,
04,
fd,
02,
09,
03,
07,
06,
09,
06,
fc,
03,
04,
00,
fd,
ff,
07,
00,
03,
05,
08,
04,
08,
0a,
02,
fd,
04,
02,
0c,
fd,
fe,
09,
fe,
08,
fe,
06,
0d,
09,
01,
09,
06,
05,
fe,
01,
03,
0c,
01,
ff,
00,
09,
ff,
fe,
06,
ff,
08,
05,
0e,
03,
ff,
01,
06,
03,
0e,
00,
fe,
0a,
04,
0b,
08,
09,
0b,
03,
00,
02,
03,
fd,
09,
08,
02,
09,
04,
07,
0a,
07,
05,
0b,
07,
0b,
0b,
01,
04,
0c,
05,
03,
03,
00,
0b,
0b,
00,
fb,
03,
04,
06,
01,
fd,
03,
02,
06,
07,
fd,
08,
09,
0b,
03,
06,
ff,
0d,
07,
0c,
08,
03,
0b,
0b,
02,
07,
01,
fd,
04,
f7,
00,
f6,
fe,
f1,
eb,
f6,
e7,
f7,
03,
04,
fd,
00,
04,
0d,
09,
0d,
00,
02,
07,
00,
0a,
06,
fe,
fe,
06,
06,
01,
f9,
f8,
f3,
f4,
f9,
e8,
d8,
df,
e8,
e7,
f4,
f5,
f6,
07,
07,
0e,
02,
09,
08,
0a,
02,
07,
03,
02,
03,
0b,
0d,
12,
10,
1c,
07,
fc,
ff,
ec,
f8,
ff,
fc,
f4,
f5,
e2,
e3,
e0,
f4,
fc,
07,
0c,
06,
08,
ff,
0b,
06,
0b,
00,
0a,
12,
0c,
16,
13,
0c,
08,
0b,
04,
06,
08,
10,
13,
03,
f6,
00,
fa,
f4,
e8,
02,
08,
ff,
04,
0a,
0a,
0d,
0a,
07,
ef,
02,
fe,
f8,
ff,
06,
f4,
10,
0f,
fe,
ff,
02,
09,
fa,
07,
ff,
fc,
04,
06,
04,
10,
08,
09,
0b,
ff,
05,
11,
07,
f3,
ff,
0e,
0e,
11,
00,
0f,
ff,
fc,
fd,
09,
fc,
fc,
07,
ff,
05,
ff,
04,
05,
04,
11,
01,
00,
0d,
0b,
0f,
12,
0e,
06,
14,
15,
10,
07,
05,
01,
05,
12,
09,
04,
fa,
0d,
08,
05,
00,
fd,
05,
ed,
00,
ff,
03,
07,
03,
0e,
0f,
0e,
01,
03,
08,
f9,
04,
06,
07,
02,
07,
05,
ef,
f8,
00,
01,
06,
10,
09,
ff,
fa,
f7,
ef,
ff,
fd,
ff,
07,
05,
0b,
15,
0a,
01,
0e,
01,
0d,
01,
0a,
05,
fc,
eb,
f3,
05,
13,
18,
12,
08,
14,
08,
03,
fa,
f2,
fb,
fa,
05,
0d,
0c,
0f,
0a,
fb,
fa,
05,
07,
03,
f5,
ff,
f0,
e6,
ed,
04,
1c,
19,
18,
17,
0e,
07,
05,
f9,
f8,
e9,
f6,
fd,
03,
0c,
06,
10,
02,
11,
05,
0a,
0c,
fc,
fa,
f8,
fa,
f0,
ff,
0c,
12,
17,
0d,
0d,
18,
14,
06,
f3,
e0,
e0,
f4,
fe,
0a,
0a,
04,
06,
08,
08,
f2,
06,
0f,
fe,
fe,
ff,
f7,
ff,
fd,
08,
19,
0d,
1a,
19,
13,
0e,
f0,
e1,
d3,
db,
fa,
ff,
03,
0b,
00,
07,
fc,
fc,
e3,
ed,
ef,
f7,
ff,
0b,
12,
07,
02,
08,
1f,
12,
13,
16,
1b,
0f,
ff,
e7,
e6,
de,
e8,
fc,
ff,
05,
0b,
09,
ff,
fc,
e9,
f7,
fb,
06,
03,
03,
04,
09,
02,
04,
14,
0d,
11,
0b,
0b,
0e,
f6,
ce,
d1,
dc,
eb,
fd,
ff,
ff,
0d,
03,
03,
f6,
ee,
e5,
f8,
00,
01,
07,
07,
03,
07,
11,
19,
08,
06,
0b,
03,
f9,
e8,
cd,
d7,
e0,
fa,
04,
fd,
04,
02,
0d,
f8,
fa,
ec,
d4,
ce,
de,
d6,
e9,
ef,
fa,
00,
00,
0f,
02,
03,
00,
f1,
ea,
f0,
d8,
d6,
e2,
05,
04,
02,
04,
08,
0a,
01,
0d,
f9,
e8,
d8,
cc,
cb,
d6,
d7,
e4,
ea,
f9,
f6,
fc,
f2,
ec,
f9,
e5,
d8,
dd,
d1,
e8,
fc,
05,
09,
08,
05,
09,
07,
07,
fa,
f0,
e8,
d8,
de,
db,
db,
e0,
eb,
ee,
e5,
f8,
ef,
e4,
e8,
dc,
e6,
e4,
df,
f3,
02,
0b,
06,
0d,
01,
ff,
0a,
04,
07,
f3,
f0,
fb,
f8,
ef,
e7,
f6,
ea,
de,
e4,
f2,
e3,
ec,
de,
e7,
e9,
f2,
eb,
00,
02,
fb,
0c,
0b,
00,
0d,
05,
04,
01,
fc,
0e,
05,
fd,
11,
f1,
ef,
ef,
ef,
ec,
ee,
ea,
eb,
e4,
db,
e1,
e8,
f7,
f6,
01,
0b,
0c,
fe,
0a,
0c,
0d,
08,
0a,
10,
0e,
fb,
f3,
05,
03,
f3,
ed,
ea,
e7,
e6,
ec,
ea,
ee,
f2,
ef,
fc,
fd,
fb,
05,
09,
ff,
07,
0b,
00,
0d,
15,
27,
1f,
15,
00,
f5,
f3,
f1,
ee,
e5,
e5,
ea,
ea,
e8,
eb,
f2,
f5,
ee,
f9,
02,
02,
01,
01,
0d,
06,
05,
06,
03,
17,
23,
16,
12,
09,
ff,
f6,
04,
02,
f4,
f5,
ed,
00,
00,
03,
00,
00,
f9,
fb,
08,
02,
04,
02,
0b,
04,
08,
01,
09,
01,
0b,
0f,
19,
26,
2a,
26,
0d,
0e,
1b,
2e,
1b,
22,
24,
13,
15,
05,
04,
08,
0b,
02,
07,
05,
00,
05,
07,
02,
02,
0d,
01,
07,
11,
07,
02,
0a,
02,
10,
08,
14,
10,
0a,
0f,
15,
08,
0a,
04,
0d,
ff,
04,
07,
00,
00,
07,
fc,
03,
0a,
fc,
0b,
09,
01,
06,
01,
ff,
08,
04,
06,
0a,
02,
02,
fc,
fc,
fe,
fe,
09,
00,
02,
09,
ff,
03,
fc,
09,
fb,
08,
02,
ff,
01,
fd,
01,
09,
09,
08,
ff,
fe,
05,
fc,
fe,
fa,
0a,
07,
00,
01,
05,
06,
04,
06,
04,
01,
05,
08,
02,
05,
fb,
fc,
fb,
06,
ff,
09,
08,
0b,
00,
11,
09,
14,
18,
13,
0d,
03,
01,
02,
0f,
07,
08,
00,
08,
ff,
05,
06,
0b,
05,
02,
0a,
08,
fe,
fe,
07,
0a,
07,
fb,
05,
07,
0a,
ff,
04,
ee,
f9,
07,
f5,
09,
0a,
00,
09,
f8,
03,
01,
0a,
08,
fc,
02,
0a,
01,
fe,
ee,
f5,
fd,
04,
f8,
0b,
12,
0a,
03,
08,
fa,
f3,
08,
0c,
02,
f8,
fe,
fc,
03,
fb,
06,
ff,
05,
ff,
fb,
03,
f8,
f5,
e3,
ee,
04,
fc,
00,
09,
05,
17,
05,
fc,
f4,
f6,
09,
16,
0a,
07,
f4,
f1,
ff,
09,
04,
06,
02,
02,
ff,
f8,
ef,
d9,
e5,
f5,
f0,
f7,
fb,
06,
02,
00,
fd,
e3,
da,
e1,
f9,
fa,
f4,
f8,
04,
fd,
0f,
08,
fe,
07,
00,
07,
f3,
e7,
e8,
de,
fa,
04,
f6,
02,
ff,
02,
04,
0a,
ef,
dc,
e0,
eb,
ed,
ee,
f0,
fb,
fa,
f9,
02,
08,
09,
fe,
05,
00,
01,
ea,
ec,
f1,
ff,
fa,
00,
01,
10,
13,
11,
01,
f5,
d0,
e5,
f3,
fa,
f7,
f4,
f6,
fc,
03,
0a,
06,
05,
05,
fe,
07,
f4,
e2,
e7,
f4,
02,
fb,
f3,
f8,
03,
f9,
fe,
f7,
e9,
da,
ef,
f8,
04,
02,
0b,
05,
0e,
0c,
03,
03,
ff,
07,
01,
00,
f1,
e7,
ee,
ee,
f5,
ec,
f7,
07,
05,
0c,
01,
fc,
ea,
dc,
ea,
02,
0b,
f6,
0c,
08,
08,
09,
02,
fc,
03,
0a,
fc,
fb,
e5,
e2,
f5,
fa,
f3,
ef,
01,
f9,
fa,
0a,
03,
02,
f5,
e9,
e9,
08,
06,
fa,
ff,
00,
0c,
03,
fd,
fe,
08,
00,
01,
fb,
fa,
e1,
dc,
ee,
fa,
fb,
f9,
f2,
05,
0c,
15,
0f,
fb,
f5,
f9,
f5,
03,
04,
0d,
0a,
fc,
08,
ff,
08,
03,
01,
02,
fe,
f3,
e7,
e5,
eb,
f9,
06,
03,
fa,
02,
0d,
1a,
0b,
0b,
fa,
f6,
01,
fc,
0c,
0d,
0b,
fc,
fa,
ff,
09,
00,
00,
05,
05,
0a,
fe,
e6,
f5,
f8,
01,
02,
fe,
0d,
fe,
18,
1f,
0e,
06,
ff,
ff,
f8,
f9,
f1,
0a,
f8,
06,
06,
06,
08,
06,
fd,
fc,
02,
f8,
ed,
f9,
01,
0c,
0a,
07,
0b,
05,
10,
1d,
08,
fd,
f1,
f4,
f2,
e8,
ed,
00,
f6,
f9,
18,
05,
08,
05,
0a,
f9,
ff,
f3,
f9,
07,
04,
08,
0d,
17,
10,
0b,
10,
16,
0e,
11,
05,
f8,
f7,
ec,
fa,
0b,
0a,
0c,
1b,
08,
0a,
fd,
06,
fc,
00,
fc,
03,
16,
06,
06,
19,
18,
0a,
f9,
fd,
06,
08,
06,
01,
02,
01,
02,
09,
05,
01,
08,
19,
fd,
00,
ff,
09,
fe,
fb,
0a,
fe,
12,
1a,
12,
19,
0d,
fe,
05,
07,
0c,
fd,
04,
00,
f9,
06,
0d,
fd,
f4,
08,
13,
09,
08,
0a,
fe,
fa,
fb,
02,
fd,
f3,
08,
04,
ff,
0d,
0d,
fe,
ed,
f6,
02,
04,
05,
09,
fa,
01,
09,
02,
fe,
10,
0e,
0d,
04,
fe,
00,
06,
08,
fb,
01,
f5,
02,
04,
fe,
00,
04,
01,
02,
f1,
08,
02,
00,
02,
0f,
0f,
17,
09,
12,
04,
0d,
fd,
01,
04,
04,
0b,
06,
00,
0a,
05,
02,
02,
fb,
05,
f9,
07,
ff,
0a,
03,
08,
f8,
0f,
0f,
0f,
0d,
12,
0f,
0a,
ff,
0e,
0b,
fe,
04,
fc,
04,
0a,
08,
10,
04,
0f,
07,
ff,
0b,
00,
09,
02,
f1,
f4,
f2,
f8,
fb,
10,
04,
0c,
f9,
07,
04,
07,
ff,
07,
05,
03,
03,
00,
06,
04,
f6,
f3,
fa,
ff,
00,
05,
07,
f9,
fb,
fc,
03,
f1,
f2,
fa,
fd,
f6,
fb,
f7,
ef,
f8,
fe,
08,
01,
fc,
09,
f6,
f6,
f7,
ed,
ed,
fd,
10,
05,
00,
ff,
f8,
f7,
f5,
f8,
d9,
dd,
f6,
e7,
f5,
fc,
ff,
02,
00,
08,
fb,
0a,
07,
02,
04,
00,
ed,
f8,
f0,
ec,
ec,
f2,
e3,
e7,
da,
e0,
e8,
e1,
d2,
e1,
df,
ed,
fe,
00,
fc,
08,
06,
04,
08,
08,
07,
07,
fd,
ff,
05,
fc,
fb,
ef,
ec,
e4,
ef,
eb,
ef,
e0,
e9,
fa,
ea,
ee,
eb,
f8,
f7,
fa,
00,
06,
01,
fd,
01,
ff,
0a,
02,
06,
0b,
fd,
05,
fe,
03,
01,
fd,
f7,
09,
f9,
04,
fc,
03,
02,
07,
fa,
09,
08,
03,
0a,
09,
03,
07,
03,
02,
fb,
fe,
fc,
fc,
fb,
fd,
02,
00,
04,
04,
fe,
06,
fb,
fc,
08,
04,
04,
f9,
06,
fa,
02,
fc,
04,
fc,
fa,
f9,
fa,
fd,
01,
fe,
fe,
02,
07,
fe,
07,
fd,
07,
fd,
fd,
fe,
ff,
fd,
06,
fa,
00,
f9,
fb,
01,
ff,
ff,
01,
fe,
f9,
00,
03,
06,
fc,
fb,
fa,
04,
f9,
07,
03,
06,
fc,
03,
f9,
fb,
03,
fa,
fa,
fc,
fe,
fd,
f7,
fb,
01,
f9,
f9,
fd,
02,
fe,
03,
02,
07,
00,
fc,
fe,
fa,
fe,
fc,
f7,
ee,
ec,
f1,
ee,
f5,
f0,
fa,
f3,
02,
00,
fb,
02,
ff,
ff,
07,
fd,
09,
08,
08,
ff,
ff,
08,
fb,
02,
fc,
04,
fd,
04,
ff,
0f,
14,
19,
01,
06,
0a,
fc,
fc,
ff,
f5,
f8,
fc,
fb,
04,
04,
03,
07,
fb,
07,
02,
fc,
fb,
fa,
f1,
fd,
05,
01,
03,
0b,
0c,
0a,
07,
fe,
ff,
0a,
0a,
06,
01,
17,
06,
04,
fc,
04,
0b,
08,
06,
fe,
06,
ff,
f6,
f8,
02,
fb,
12,
1b,
13,
05,
fc,
08,
ff,
fc,
03,
ea,
fa,
f0,
02,
f6,
f3,
f9,
07,
18,
1b,
ff,
fd,
fe,
02,
fc,
fe,
f8,
0c,
07,
0c,
28,
1d,
16,
10,
fd,
fe,
e6,
02,
fa,
00,
fc,
fc,
fb,
02,
04,
1d,
24,
1c,
fa,
fd,
05,
fd,
fd,
fe,
f3,
00,
1a,
0a,
09,
1a,
0f,
12,
08,
f7,
e0,
fc,
07,
fb,
01,
ff,
03,
ff,
0b,
20,
30,
15,
10,
08,
fa,
f9,
ff,
04,
fb,
07,
0f,
04,
12,
0b,
0b,
0b,
08,
f4,
e0,
dd,
fe,
02,
f5,
fe,
06,
ff,
08,
21,
25,
28,
0b,
fd,
02,
07,
f7,
f7,
fb,
f9,
10,
fc,
01,
0a,
06,
0f,
1a,
0c,
e7,
dd,
e9,
f2,
f4,
f4,
f8,
03,
14,
1a,
25,
1e,
12,
fd,
01,
07,
06,
fb,
f3,
fd,
0b,
03,
07,
0d,
0a,
14,
2d,
23,
07,
e9,
eb,
06,
f8,
02,
f6,
07,
0d,
18,
24,
2a,
10,
ff,
05,
00,
03,
03,
f6,
03,
00,
05,
07,
fd,
01,
16,
27,
2e,
0b,
f2,
f0,
00,
ff,
02,
02,
fc,
e5,
05,
18,
10,
0b,
fd,
ff,
fa,
00,
00,
f3,
f0,
f4,
fa,
07,
09,
06,
10,
13,
17,
06,
00,
02,
fc,
06,
0e,
05,
f2,
f8,
f4,
fb,
fb,
0b,
ff,
01,
07,
02,
f8,
f3,
db,
e5,
d9,
f4,
ef,
00,
08,
f6,
0b,
08,
0a,
03,
11,
fd,
fe,
fa,
fa,
f2,
ee,
f3,
f0,
fe,
08,
ff,
fc,
fc,
03,
f8,
d7,
d0,
e1,
e9,
fc,
02,
f1,
06,
05,
03,
04,
f6,
f9,
05,
f3,
ee,
ed,
ee,
f5,
fd,
fb,
fb,
f9,
05,
fa,
00,
05,
01,
e1,
f2,
e1,
f1,
fc,
00,
fb,
11,
10,
03,
09,
f6,
07,
f6,
fd,
ed,
f5,
ef,
0e,
02,
f8,
f7,
ff,
ff,
fe,
06,
f9,
05,
08,
12,
01,
f8,
01,
ff,
05,
03,
02,
fb,
eb,
ef,
eb,
f2,
f9,
ee,
fc,
03,
1b,
12,
f2,
fb,
fc,
fb,
fb,
06,
06,
0c,
1a,
28,
12,
0e,
08,
0a,
0a,
09,
05,
f8,
fa,
e7,
f6,
f7,
ff,
f5,
f5,
08,
21,
0c,
ef,
00,
fd,
fc,
fd,
08,
fc,
f8,
1d,
1a,
07,
19,
06,
09,
02,
02,
f8,
f3,
ff,
e3,
ef,
f5,
fa,
f5,
03,
0e,
1f,
0b,
f2,
ff,
04,
08,
fa,
fb,
f4,
f0,
00,
1a,
16,
1a,
0a,
08,
08,
0c,
fc,
f3,
05,
ee,
f4,
ff,
fd,
f2,
fa,
10,
0f,
f8,
fb,
f9,
04,
03,
fd,
02,
fe,
f4,
f3,
10,
07,
02,
13,
03,
0a,
f7,
fd,
fe,
f9,
f0,
f5,
f5,
ed,
06,
00,
12,
07,
f1,
08,
01,
06,
02,
05,
fe,
fb,
fb,
e5,
f0,
fa,
f7,
fd,
f6,
0d,
0e,
0c,
0c,
04,
fc,
ef,
f0,
00,
f8,
01,
0c,
02,
05,
07,
00,
f9,
fd,
05,
fa,
09,
fe,
eb,
f2,
ea,
f6,
f7,
03,
06,
1a,
12,
10,
00,
0f,
01,
fa,
fc,
fa,
fd,
08,
0a,
06,
04,
fd,
fa,
01,
02,
fd,
04,
f0,
ea,
eb,
ec,
f3,
03,
0c,
0f,
1d,
18,
12,
03,
1b,
0e,
11,
16,
00,
f6,
f8,
08,
00,
01,
ff,
04,
06,
fb,
fb,
fe,
f8,
ea,
ed,
e8,
e8,
f0,
01,
00,
f8,
0b,
13,
29,
2e,
25,
22,
10,
0b,
0a,
fe,
00,
09,
f9,
06,
07,
08,
fd,
07,
02,
02,
fb,
f1,
e8,
ee,
f1,
f1,
fc,
06,
f0,
f1,
fa,
fb,
00,
04,
fb,
ff,
01,
fe,
fc,
03,
f9,
f9,
01,
fd,
03,
02,
fa,
fc,
08,
00,
ff,
fd,
03,
01,
03,
fd,
03,
04,
06,
f8,
02,
fd,
fe,
fa,
01,
f9,
fc,
00,
03,
04,
06,
f9,
fd,
02,
fb,
fd,
fe,
05,
04,
fe,
fd,
03,
03,
08,
07,
ff,
00,
05,
03,
05,
08,
04,
00,
f9,
fd,
05,
08,
04,
fb,
fa,
09,
fe,
ff,
ff,
06,
08,
04,
06,
08,
f9,
fd,
fd,
05,
06,
02,
07,
fa,
ff,
02,
00,
07,
fe,
08,
ff,
01,
02,
08,
ff,
00,
07,
09,
fc,
03,
01,
f9,
f9,
fd,
fd,
01,
fa,
fe,
02,
f7,
fd,
f2,
03,
fa,
06,
fc,
01,
02,
03,
02,
ff,
ff,
07,
08,
09,
fc,
07,
06,
03,
fe,
f6,
f6,
f4,
02,
fb,
f5,
e8,
ee,
eb,
f5,
f2,
fc,
f1,
f9,
fd,
f6,
05,
08,
03,
f9,
00,
f9,
00,
08,
ff,
f4,
02,
fa,
f8,
f5,
ed,
f7,
f5,
02,
05,
1c,
13,
22,
22,
18,
0a,
f7,
fa,
f6,
f4,
f7,
02,
03,
fe,
01,
08,
06,
f3,
e9,
f1,
f2,
02,
06,
00,
03,
07,
13,
0c,
03,
03,
0a,
1b,
0d,
06,
08,
0f,
0e,
03,
fc,
04,
04,
fd,
ff,
05,
02,
fb,
fc,
f5,
04,
0e,
0a,
07,
04,
11,
12,
0c,
f5,
fb,
05,
04,
11,
ff,
0e,
10,
00,
01,
01,
06,
02,
07,
02,
0a,
ff,
fb,
f7,
06,
10,
0c,
16,
16,
1d,
0f,
1a,
08,
f9,
0d,
0b,
0e,
16,
10,
0b,
0a,
02,
fe,
07,
00,
08,
ff,
07,
05,
fa,
fb,
05,
05,
05,
0b,
0d,
11,
12,
1a,
11,
1c,
16,
0e,
13,
10,
11,
03,
00,
06,
06,
f6,
f8,
08,
05,
fd,
00,
04,
f8,
08,
16,
05,
15,
fa,
07,
0e,
0b,
12,
13,
11,
0f,
06,
0d,
1c,
0c,
0c,
03,
08,
0d,
fc,
fc,
fd,
07,
03,
fe,
02,
03,
11,
0d,
00,
f8,
06,
0b,
0f,
0f,
10,
ff,
e2,
ef,
ff,
0f,
18,
08,
13,
0d,
06,
09,
00,
fe,
0c,
fb,
02,
07,
0a,
fd,
0d,
06,
05,
01,
f9,
0c,
10,
0c,
f7,
ca,
b3,
cb,
e9,
ff,
00,
f7,
fd,
02,
fd,
fc,
f6,
ff,
07,
02,
fc,
06,
08,
03,
fe,
fa,
05,
10,
10,
05,
0d,
06,
ee,
bb,
bb,
da,
ea,
04,
f8,
e3,
ed,
f4,
fd,
f5,
f4,
00,
0b,
fc,
03,
02,
fc,
fd,
fc,
f4,
fb,
0e,
05,
02,
fe,
f4,
ce,
d5,
e5,
e2,
f3,
f9,
ee,
de,
e1,
ec,
ee,
f5,
ff,
fb,
06,
08,
02,
04,
03,
00,
fc,
05,
fe,
02,
fa,
fa,
f4,
d0,
bd,
d6,
f2,
ec,
e7,
ed,
f2,
e0,
eb,
f2,
f1,
f1,
fc,
fb,
02,
06,
fc,
f8,
06,
f5,
fe,
05,
f5,
f9,
ef,
e9,
e3,
cb,
da,
db,
e4,
eb,
f5,
f3,
f4,
e3,
f5,
f6,
ea,
df,
fe,
fa,
0a,
fc,
fb,
08,
02,
fa,
f2,
06,
e7,
f1,
ef,
e6,
e6,
e8,
ec,
ec,
f1,
f9,
fa,
f5,
e7,
e8,
ec,
ef,
e8,
ee,
f1,
01,
00,
05,
fc,
fc,
00,
f5,
f7,
ef,
e7,
e7,
f4,
fb,
0a,
f1,
ef,
e8,
f5,
ee,
f9,
f2,
f6,
f7,
ff,
f6,
ee,
fc,
04,
0d,
02,
04,
ff,
08,
01,
f7,
f2,
e9,
e0,
f8,
f7,
00,
02,
f6,
e6,
ea,
f1,
e8,
e7,
ee,
fa,
fb,
04,
00,
fe,
0a,
03,
0e,
09,
03,
05,
07,
fc,
f3,
f9,
f9,
0b,
01,
f8,
fb,
fe,
fa,
f4,
f4,
f2,
f5,
f1,
f7,
f8,
02,
12,
06,
16,
04,
02,
0c,
0a,
09,
ff,
04,
04,
02,
00,
0e,
06,
04,
03,
fa,
fc,
11,
16,
0c,
0c,
04,
fc,
f2,
e9,
fa,
09,
11,
09,
09,
00,
09,
06,
00,
ff,
fe,
fd,
02,
08,
06,
fb,
f9,
fc,
0a,
11,
1f,
14,
13,
1c,
17,
06,
06,
02,
02,
fc,
0a,
0f,
09,
fd,
06,
fc,
fd,
fc,
08,
ff,
0a,
02,
12,
0c,
01,
19,
1d,
0c,
0f,
07,
15,
11,
15,
13,
13,
07,
02,
02,
fd,
16,
09,
01,
06,
05,
fa,
fa,
f9,
05,
f9,
09,
0a,
15,
17,
08,
1a,
12,
01,
08,
01,
08,
10,
06,
16,
11,
17,
fa,
04,
0a,
09,
0b,
06,
fe,
fb,
f9,
09,
02,
fc,
05,
fe,
00,
01,
02,
fd,
f2,
f2,
f8,
01,
fe,
0c,
06,
19,
18,
0c,
ef,
f5,
0a,
0d,
12,
09,
fe,
04,
fe,
09,
fe,
fc,
01,
fa,
fa,
1a,
21,
12,
02,
07,
13,
09,
10,
1b,
02,
12,
11,
16,
ee,
f6,
03,
fc,
0b,
fc,
fe,
04,
f9,
06,
01,
02,
f8,
ed,
ef,
fa,
19,
07,
f9,
00,
f9,
01,
0c,
14,
0c,
09,
15,
1c,
01,
f8,
fa,
07,
fb,
00,
09,
fe,
03,
06,
fb,
02,
fe,
fc,
fa,
06,
fe,
09,
0c,
05,
0c,
05,
09,
04,
01,
02,
fa,
02,
fa,
03,
02,
ff,
00,
06,
fd,
09,
fe,
00,
06,
f8,
04,
05,
05,
01,
fc,
f9,
05,
01,
05,
04,
fa,
04,
ff,
f7,
ff,
fb,
fc,
fc,
f7,
f9,
05,
fa,
fd,
fe,
05,
03,
fb,
ff,
fb,
ff,
fb,
fc,
ff,
fa,
fd,
04,
02,
fc,
f7,
f5,
06,
fb,
ff,
04,
f8,
00,
02,
06,
02,
fc,
07,
fe,
fe,
01,
f9,
06,
01,
04,
02,
fc,
09,
0c,
18,
17,
11,
07,
09,
f6,
ff,
08,
fb,
f8,
fc,
fc,
05,
05,
00,
fd,
f7,
f7,
01,
01,
01,
ff,
01,
00,
fd,
0b,
0b,
1b,
12,
14,
fe,
fe,
f6,
ed,
f1,
f3,
fd,
f5,
e7,
f3,
fe,
00,
f6,
fa,
02,
05,
04,
fd,
fd,
fa,
01,
02,
01,
04,
1c,
18,
0d,
0e,
10,
03,
f7,
ea,
f7,
01,
04,
fb,
ef,
e5,
ee,
db,
ec,
f2,
fa,
f8,
04,
00,
f9,
fa,
03,
f6,
f6,
08,
09,
fc,
06,
06,
17,
12,
14,
12,
13,
19,
06,
07,
03,
fb,
e8,
d7,
df,
f8,
f9,
f7,
fd,
02,
fc,
f9,
f7,
ec,
ef,
ef,
ea,
eb,
fb,
02,
05,
00,
01,
0f,
15,
0d,
0b,
03,
f9,
f9,
ee,
e5,
df,
fa,
f8,
05,
f9,
fa,
05,
f6,
fa,
e3,
ed,
e6,
f7,
02,
fa,
01,
f9,
fc,
ff,
ff,
07,
f0,
fb,
eb,
e3,
01,
fe,
e6,
f3,
f3,
f7,
fe,
fe,
06,
03,
f8,
fb,
d8,
e9,
e6,
eb,
f3,
f0,
04,
06,
0e,
08,
01,
ff,
f1,
ed,
f1,
ee,
fb,
ee,
f3,
fe,
02,
fb,
06,
03,
05,
f7,
f9,
f7,
e9,
eb,
ea,
e1,
f4,
fd,
f8,
10,
12,
05,
fe,
f3,
fd,
f6,
f5,
fa,
08,
f1,
02,
f9,
fd,
ef,
f0,
06,
01,
02,
fc,
09,
15,
0b,
f0,
ed,
f6,
f4,
00,
0b,
ff,
00,
e6,
e2,
f7,
fb,
04,
ff,
01,
fe,
05,
f1,
e8,
f5,
01,
fc,
03,
02,
03,
0e,
1e,
1a,
fd,
f4,
fc,
fa,
fc,
f0,
e9,
ec,
d4,
e0,
f1,
fc,
0f,
09,
0b,
ff,
0b,
f4,
f0,
fe,
fa,
f7,
f9,
ff,
10,
16,
18,
0a,
01,
f6,
07,
ec,
de,
c8,
d9,
de,
e0,
f6,
ff,
07,
1b,
0a,
0b,
14,
14,
02,
f6,
eb,
04,
f9,
fa,
fa,
09,
1c,
0c,
06,
0f,
0e,
0e,
0a,
da,
c6,
e0,
ec,
00,
0b,
ff,
00,
11,
00,
18,
22,
16,
01,
07,
00,
07,
06,
fc,
fa,
12,
0e,
f6,
13,
05,
14,
1a,
17,
10,
ef,
fd,
fe,
09,
07,
fe,
fe,
03,
fa,
13,
09,
f2,
06,
14,
0a,
fd,
f7,
f9,
fd,
10,
16,
04,
04,
15,
09,
19,
12,
0c,
13,
15,
0e,
09,
02,
06,
f8,
0d,
00,
ff,
ff,
eb,
fc,
0c,
00,
fa,
f7,
03,
f9,
0c,
0c,
12,
05,
fd,
04,
01,
0c,
1e,
18,
12,
0f,
07,
10,
0a,
fa,
fe,
fb,
fa,
04,
ef,
fd,
19,
10,
05,
06,
f7,
01,
08,
0b,
0a,
01,
fe,
00,
03,
0b,
1a,
19,
04,
fb,
11,
0d,
04,
ef,
f8,
f5,
05,
07,
f5,
04,
1a,
0a,
fa,
fb,
02,
f6,
01,
09,
fb,
0d,
02,
06,
14,
13,
14,
13,
03,
01,
0e,
05,
fb,
f3,
f7,
04,
03,
0c,
08,
0c,
10,
00,
07,
04,
03,
fb,
f1,
fa,
ff,
05,
07,
01,
06,
1c,
13,
07,
01,
05,
02,
fd,
08,
05,
0e,
04,
13,
16,
12,
07,
11,
fc,
01,
fa,
fb,
fe,
ff,
0e,
10,
fc,
01,
08,
05,
0f,
fd,
fd,
fd,
07,
14,
ff,
f6,
0d,
08,
03,
10,
0e,
19,
1e,
14,
03,
fb,
fa,
06,
01,
f9,
fe,
03,
0e,
06,
02,
03,
fe,
fe,
fb,
07,
09,
03,
f9,
01,
15,
06,
fb,
fb,
22,
25,
13,
04,
fb,
f8,
fb,
01,
08,
fe,
04,
fa,
11,
0c,
03,
03,
09,
11,
09,
fd,
f9,
f8,
fb,
ee,
11,
09,
08,
12,
26,
19,
0d,
fe,
f9,
05,
00,
fc,
f8,
f8,
f7,
e6,
eb,
fa,
17,
11,
05,
f5,
f9,
ec,
f7,
f6,
fa,
f6,
09,
0e,
15,
23,
33,
13,
0a,
01,
fb,
fb,
06,
fa,
04,
fe,
e4,
d1,
d1,
e5,
ef,
f9,
e9,
f9,
f6,
f2,
f8,
ff,
f7,
f4,
08,
09,
15,
13,
10,
18,
05,
01,
f7,
03,
02,
01,
02,
f4,
fa,
f7,
f6,
f7,
e9,
de,
eb,
fc,
fc,
0b,
09,
07,
06,
f3,
0a,
1c,
19,
15,
05,
fd,
01,
f9,
fe,
fb,
ff,
05,
01,
fe,
fa,
04,
0f,
07,
0a,
f3,
04,
07,
1a,
12,
12,
04,
03,
fa,
fb,
08,
10,
05,
fa,
00,
fd,
04,
f9,
ff,
fe,
fe,
06,
ff,
fe,
f7,
fb,
f8,
ff,
fd,
03,
09,
04,
f8,
02,
fe,
f9,
fd,
f8,
fc,
ff,
f6,
03,
01,
05,
02,
fc,
fd,
05,
fa,
04,
fa,
05,
ff,
04,
05,
02,
03,
ff,
02,
06,
08,
ff,
03,
04,
05,
04,
04,
fc,
00,
fe,
08,
ff,
05,
04,
04,
04,
01,
ff,
0a,
04,
08,
04,
09,
04,
ff,
03,
fc,
06,
fc,
06,
04,
f9,
ff,
00,
ff,
04,
fd,
09,
00,
06,
fe,
fd,
08,
fa,
01,
fd,
fe,
01,
04,
01,
03,
09,
03,
07,
ff,
fd,
f6,
fb,
fb,
01,
02,
fe,
06,
0a,
fc,
fb,
05,
ff,
00,
fb,
fc,
03,
07,
fe,
ff,
04,
0a,
01,
fb,
08,
fa,
fc,
f9,
07,
f9,
f9,
e9,
ec,
02,
0d,
ff,
00,
fb,
fe,
05,
01,
f9,
09,
07,
07,
06,
05,
0a,
06,
fd,
07,
0f,
07,
05,
07,
08,
08,
0d,
f9,
ff,
f9,
fc,
0d,
01,
f5,
f7,
07,
f4,
fc,
08,
07,
09,
fd,
01,
fb,
01,
0c,
16,
13,
0a,
03,
00,
06,
08,
01,
ff,
fb,
00,
07,
08,
fe,
fb,
fb,
f2,
0b,
09,
04,
05,
04,
07,
00,
02,
fb,
04,
0c,
12,
0f,
03,
06,
0a,
fd,
fb,
03,
07,
04,
f6,
00,
fc,
0d,
ff,
04,
fc,
08,
12,
1e,
18,
08,
0b,
07,
09,
fa,
01,
11,
15,
0a,
f5,
f7,
07,
fe,
07,
ff,
ff,
07,
f6,
0e,
08,
0c,
05,
16,
05,
09,
15,
1b,
18,
15,
01,
09,
06,
08,
09,
15,
07,
00,
fe,
01,
11,
04,
fd,
0c,
0c,
04,
01,
0c,
0d,
12,
0e,
16,
1c,
17,
13,
23,
15,
0a,
00,
00,
01,
fd,
0b,
1a,
01,
0d,
03,
00,
04,
f6,
f9,
fc,
07,
04,
f4,
f9,
01,
fd,
05,
0c,
13,
25,
0b,
0e,
14,
fd,
fc,
04,
06,
04,
1a,
0c,
f5,
fd,
fb,
f5,
e0,
f5,
f0,
fa,
f9,
ef,
dd,
e6,
e1,
e5,
e5,
f6,
f8,
00,
fc,
f6,
00,
02,
04,
fd,
00,
00,
0a,
08,
e7,
e5,
e2,
ea,
eb,
f1,
ea,
08,
0b,
f4,
ee,
e4,
dc,
e2,
e1,
dc,
d3,
d8,
e3,
ea,
04,
02,
ff,
fe,
09,
fd,
ff,
06,
ef,
e9,
ed,
f6,
fa,
06,
08,
0c,
0c,
0b,
f8,
f6,
f6,
f1,
d3,
db,
cf,
cf,
dd,
ee,
f5,
fa,
fb,
ff,
08,
fb,
fe,
06,
03,
f4,
f4,
f9,
fe,
03,
09,
15,
1a,
0f,
f5,
02,
fb,
01,
e2,
dc,
d2,
d1,
e5,
ed,
f9,
04,
fe,
05,
03,
fe,
00,
08,
ef,
fd,
ff,
08,
04,
06,
05,
13,
0d,
03,
06,
f7,
f1,
03,
02,
f5,
e9,
f2,
f8,
00,
ff,
fe,
f9,
ff,
09,
fe,
ff,
eb,
e7,
ec,
eb,
fa,
0d,
12,
18,
22,
0f,
0a,
00,
ff,
fd,
ff,
0c,
03,
0b,
11,
0b,
f7,
ff,
01,
06,
fe,
08,
0c,
06,
f1,
dd,
cd,
be,
cc,
f6,
08,
11,
16,
14,
0c,
f6,
fa,
f9,
09,
0b,
00,
0e,
13,
08,
ff,
fd,
02,
04,
fe,
fc,
ff,
0f,
f5,
d1,
b8,
b7,
a1,
99,
9f,
bf,
cc,
dc,
e6,
f7,
f9,
04,
0f,
05,
0f,
0b,
0f,
05,
f3,
f6,
fb,
fd,
06,
02,
0d,
1f,
09,
e4,
ea,
e7,
c6,
9d,
9b,
a5,
ab,
c7,
d7,
e9,
f8,
07,
0f,
0f,
10,
0f,
07,
04,
f0,
fc,
00,
08,
06,
05,
09,
1e,
18,
fc,
fb,
02,
fc,
e4,
e5,
db,
e0,
ec,
e7,
ee,
f8,
ff,
fa,
05,
16,
05,
0b,
0b,
fa,
fc,
08,
00,
04,
02,
04,
16,
11,
12,
0a,
09,
24,
16,
16,
08,
03,
02,
09,
05,
fa,
f7,
fe,
00,
07,
f7,
04,
0a,
fc,
f9,
06,
fa,
08,
02,
00,
10,
13,
09,
14,
19,
12,
0f,
13,
15,
1d,
0d,
0a,
00,
ef,
ed,
f8,
07,
01,
f4,
ff,
03,
fe,
03,
fc,
06,
fa,
fb,
04,
1a,
18,
05,
fc,
09,
f7,
08,
04,
0c,
0b,
0b,
05,
0a,
fd,
f9,
f9,
12,
ff,
05,
02,
01,
fe,
f9,
fc,
06,
fd,
05,
fe,
18,
1d,
23,
12,
0c,
02,
13,
18,
16,
05,
09,
09,
11,
0a,
02,
07,
04,
f9,
f0,
f7,
fb,
04,
05,
06,
00,
ff,
fa,
03,
0c,
10,
19,
1c,
14,
01,
10,
0f,
08,
08,
0e,
07,
00,
fb,
11,
04,
e8,
f5,
02,
f7,
f4,
f9,
07,
03,
fe,
00,
09,
fa,
06,
08,
05,
21,
18,
1f,
0f,
01,
fe,
f8,
f8,
eb,
01,
0a,
03,
06,
0b,
ff,
04,
fc,
03,
fe,
01,
ff,
02,
07,
03,
ff,
09,
09,
fe,
fd,
f8,
fb,
00,
fa,
00,
f7,
fc,
fb,
03,
08,
05,
ff,
08,
fc,
0a,
fa,
07,
fe,
fb,
04,
09,
fe,
03,
fc,
07,
09,
ff,
09,
06,
03,
fe,
07,
02,
fe,
fa,
fa,
0a,
fe,
fc,
06,
ff,
fb,
03,
00,
05,
09,
00,
06,
ff,
fe,
03,
ff,
03,
02,
fa,
ff,
08,
00,
08,
07,
fe,
fd,
03,
ff,
ff,
00,
fb,
06,
fd,
fa,
fa,
fb,
02,
f9,
03,
fb,
00,
fe,
fe,
06,
fe,
03,
06,
04,
04,
00,
fd,
fb,
09,
fa,
ff,
07,
ff,
fa,
09,
ff,
06,
06,
fe,
f9,
ff,
fa,
fc,
fa,
04,
fb,
04,
07,
05,
05,
02,
06,
09,
03,
04,
07,
02,
07,
f9,
ef,
f3,
07,
02,
00,
0c,
09,
02,
09,
05,
08,
02,
04,
fb,
03,
fa,
fa,
05,
fd,
04,
fc,
01,
04,
fd,
03,
ef,
f1,
ec,
e9,
ed,
f5,
06,
10,
18,
0d,
09,
03,
08,
0c,
fa,
08,
06,
f9,
04,
01,
06,
05,
fc,
ef,
e8,
eb,
e1,
e9,
ea,
e7,
eb,
e5,
f1,
f5,
f7,
04,
fa,
f6,
0e,
06,
16,
02,
fd,
06,
02,
fb,
03,
fc,
f7,
ff,
e6,
dd,
db,
ed,
ec,
f1,
03,
f4,
f5,
fd,
eb,
ef,
04,
00,
f5,
07,
12,
13,
13,
0e,
0e,
10,
09,
02,
00,
09,
fe,
f5,
e5,
df,
d6,
df,
f0,
00,
fd,
f7,
07,
0a,
fe,
fc,
06,
00,
11,
08,
02,
1d,
13,
23,
14,
08,
05,
08,
01,
fe,
f9,
ed,
ea,
df,
f1,
e5,
02,
0d,
0f,
08,
09,
0a,
0c,
12,
16,
19,
0e,
09,
14,
0a,
1d,
20,
22,
0a,
04,
06,
fd,
fa,
f8,
dc,
dd,
f2,
fa,
f5,
ff,
f9,
0d,
0c,
0f,
06,
01,
06,
10,
fe,
0f,
19,
16,
fa,
18,
26,
15,
0d,
fc,
08,
07,
02,
f6,
f1,
ea,
ed,
f8,
f6,
ee,
07,
0c,
09,
0c,
01,
ee,
fa,
fd,
00,
f9,
ff,
f9,
fb,
12,
39,
21,
00,
09,
f9,
03,
fd,
fd,
f9,
fd,
00,
06,
03,
06,
0c,
0f,
0f,
06,
f2,
f8,
ec,
e7,
ea,
de,
df,
f7,
ec,
0c,
1d,
11,
06,
02,
fd,
08,
ff,
f6,
f7,
f5,
01,
07,
fd,
07,
0d,
fc,
09,
05,
f3,
e0,
e2,
db,
de,
de,
c2,
d4,
ce,
f4,
00,
fe,
03,
07,
01,
fe,
fb,
fc,
00,
e2,
ff,
01,
04,
01,
fd,
06,
12,
06,
fa,
e8,
e2,
e8,
f4,
f6,
e3,
d6,
d5,
fb,
fd,
f5,
04,
02,
04,
fd,
f9,
00,
f7,
eb,
fa,
09,
fd,
04,
0a,
04,
1b,
fc,
f9,
e8,
d2,
d3,
e9,
f0,
ec,
e9,
fd,
0a,
06,
fe,
fa,
fe,
00,
fc,
03,
fc,
fd,
f7,
ff,
08,
09,
04,
0f,
09,
08,
eb,
e5,
ea,
d9,
e3,
e3,
e9,
eb,
f5,
06,
1a,
10,
00,
fd,
01,
fa,
02,
06,
00,
f6,
f5,
ef,
08,
08,
12,
0f,
12,
fe,
de,
e2,
e4,
ec,
f5,
f8,
eb,
fa,
0c,
03,
12,
21,
0b,
fc,
fe,
fe,
fd,
07,
ff,
f2,
07,
02,
00,
08,
11,
17,
0e,
fb,
e2,
f3,
e9,
e8,
f7,
f3,
f3,
06,
16,
06,
0b,
07,
0a,
09,
01,
05,
08,
03,
04,
f9,
14,
09,
06,
08,
10,
12,
01,
dd,
ea,
f1,
02,
e7,
01,
0c,
0a,
07,
00,
f2,
f0,
fe,
09,
06,
fe,
03,
02,
fc,
fc,
fb,
06,
16,
0d,
0f,
09,
f7,
d9,
d0,
e3,
f1,
ff,
02,
fd,
01,
02,
04,
fa,
f7,
e9,
07,
03,
03,
f8,
07,
05,
06,
fa,
09,
06,
12,
12,
1c,
09,
f8,
fc,
04,
f4,
f6,
fd,
f8,
00,
00,
fd,
05,
02,
f9,
f7,
01,
fe,
00,
fa,
08,
03,
05,
ff,
0c,
17,
0e,
07,
1b,
13,
1f,
1e,
15,
06,
f3,
04,
f4,
fc,
f4,
02,
02,
00,
0a,
03,
f2,
05,
00,
03,
f9,
01,
fe,
02,
0f,
ff,
09,
0e,
10,
0f,
0d,
1c,
1c,
06,
f8,
fe,
02,
fb,
f3,
fb,
01,
09,
1a,
09,
fb,
f9,
08,
fe,
fa,
fc,
f8,
f9,
f8,
fc,
f9,
ff,
08,
00,
0d,
13,
18,
0c,
10,
13,
06,
0c,
07,
ff,
f5,
f5,
04,
05,
ff,
08,
01,
01,
00,
05,
ff,
05,
05,
06,
1f,
0c,
01,
ff,
0c,
0e,
0c,
03,
0c,
09,
0a,
fb,
ff,
fd,
ea,
f8,
09,
fb,
02,
05,
fd,
f9,
07,
07,
08,
05,
03,
fa,
07,
05,
