memory_initialization_radix=16;
memory_initialization_vector=
f6,
e8,
1f,
f5,
ff,
0e,
0d,
11,
43,
18,
26,
ed,
13,
1a,
f1,
19,
e1,
ce,
f2,
0a,
0b,
00,
da,
22,
f5,
e5,
14,
17,
23,
c3,
17,
13,
10,
29,
bb,
08,
e0,
2b,
fd,
f7,
0c,
1e,
06,
27,
0f,
eb,
f0,
09,
07,
31,
16,
36,
f7,
f6,
fd,
2a,
f9,
e4,
c7,
d2,
29,
dd,
ea,
2b,
c1,
f1,
4c,
cc,
fc,
00,
ec,
34,
30,
09,
0f,
1d,
49,
00,
07,
fe,
ec,
d9,
04,
20,
f5,
19,
c6,
16,
e9,
a5,
2a,
06,
f5,
ed,
fd,
04,
2e,
0e,
e1,
05,
c5,
1a,
d3,
e4,
dc,
f9,
13,
e5,
cf,
f2,
28,
f5,
07,
22,
16,
09,
f6,
e9,
eb,
44,
18,
1c,
f2,
fa,
2e,
15,
d1,
2e,
46,
24,
14,
e1,
d9,
f8,
fc,
e8,
e9,
d6,
ea,
1b,
08,
c5,
0c,
c5,
2c,
2f,
2a,
10,
01,
1a,
05,
da,
06,
1d,
1e,
ea,
31,
0f,
cf,
13,
04,
e1,
30,
ff,
02,
df,
13,
e1,
12,
06,
0e,
f5,
19,
0f,
ef,
05,
1c,
d4,
b6,
24,
1d,
b6,
ed,
07,
03,
e6,
ff,
09,
c8,
2e,
25,
06,
dc,
bd,
0c,
01,
01,
0d,
f1,
09,
ee,
f9,
f9,
26,
24,
e9,
ec,
1e,
c3,
05,
e4,
e8,
05,
f6,
b6,
01,
27,
b6,
f1,
1a,
0d,
18,
0e,
2e,
0c,
05,
0d,
2a,
d6,
0f,
0e,
f9,
e7,
19,
08,
b1,
0d,
ea,
22,
ef,
22,
28,
03,
f9,
a7,
e0,
e5,
e8,
fa,
2f,
f7,
fa,
0f,
bc,
11,
07,
c3,
f9,
ee,
0f,
1f,
09,
13,
39,
0d,
0d,
05,
ef,
15,
17,
ee,
5c,
d7,
03,
e9,
d5,
09,
0e,
e1,
11,
03,
02,
d5,
f6,
ee,
fd,
56,
10,
f4,
e7,
02,
ff,
f9,
2e,
f6,
1c,
02,
ed,
26,
18,
2a,
e8,
06,
f7,
fa,
24,
3f,
23,
e2,
54,
0a,
f7,
ef,
0a,
f1,
20,
18,
dc,
05,
0f,
e0,
fa,
dc,
0e,
1d,
1e,
fe,
2f,
0a,
fe,
0e,
f6,
fd,
12,
ec,
43,
f2,
18,
e1,
d7,
06,
f8,
16,
10,
f9,
29,
e0,
0c,
01,
d6,
4c,
fa,
dc,
0a,
da,
e4,
09,
30,
c7,
15,
04,
0e,
21,
28,
00,
e8,
f1,
12,
ff,
2b,
25,
1b,
03,
3c,
0b,
f6,
f2,
05,
eb,
fc,
f4,
e7,
19,
19,
f3,
d9,
ef,
03,
0b,
d7,
f8,
f0,
e5,
ea,
ef,
24,
dc,
cb,
07,
df,
2f,
28,
e7,
17,
e5,
f0,
00,
e0,
1b,
cb,
0d,
1d,
11,
0b,
d0,
2e,
f8,
0d,
01,
2c,
12,
d9,
3d,
22,
c5,
18,
1d,
f9,
fd,
f6,
f0,
18,
25,
fa,
b6,
00,
ee,
b7,
06,
d0,
ed,
1d,
2f,
24,
f9,
e2,
20,
f4,
f7,
02,
0a,
eb,
e7,
c7,
ee,
24,
0d,
02,
fc,
07,
2d,
f9,
17,
c2,
17,
00,
5a,
4f,
c0,
ea,
0c,
25,
ee,
c4,
23,
dd,
2b,
0a,
f6,
0f,
fe,
1f,
14,
14,
14,
2a,
e1,
d6,
cd,
10,
f9,
26,
da,
ed,
d9,
15,
f1,
f1,
e7,
c7,
15,
bb,
f2,
29,
eb,
e9,
f3,
18,
e7,
22,
01,
29,
31,
04,
24,
de,
e8,
04,
ff,
12,
21,
e8,
ea,
23,
0b,
ef,
00,
d6,
2d,
10,
ec,
0d,
0d,
ef,
1c,
00,
fd,
0a,
1a,
02,
d6,
ff,
cd,
ea,
0a,
f3,
f7,
f9,
f2,
f8,
d9,
d6,
0d,
c2,
04,
d7,
f9,
09,
13,
dd,
18,
e2,
b9,
35,
2a,
1c,
96,
0c,
e6,
de,
1c,
f9,
d4,
10,
bb,
f6,
ce,
ae,
fd,
11,
22,
f7,
c0,
f0,
d5,
f8,
cc,
0d,
f3,
d6,
16,
04,
07,
1e,
be,
fe,
cc,
12,
1f,
e6,
14,
06,
03,
f9,
ea,
ff,
fc,
05,
f6,
03,
e9,
0a,
fc,
c4,
16,
37,
d6,
0b,
29,
0c,
11,
15,
02,
22,
17,
02,
ea,
f0,
12,
07,
f9,
bc,
0b,
12,
17,
39,
16,
fa,
fd,
c9,
dd,
23,
0c,
f3,
26,
d2,
0a,
f9,
23,
25,
e4,
d6,
df,
25,
fe,
1a,
c4,
fb,
1e,
db,
20,
f3,
fe,
f7,
00,
14,
d7,
b8,
07,
05,
cd,
fd,
ec,
de,
17,
12,
10,
0a,
20,
c5,
15,
07,
14,
0f,
43,
03,
e3,
0a,
ff,
18,
f0,
0e,
f5,
ce,
b6,
36,
e8,
eb,
ea,
0d,
1e,
0b,
09,
f3,
11,
34,
25,
fa,
0c,
ff,
2b,
11,
1f,
f9,
e0,
13,
35,
07,
ee,
11,
06,
04,
ee,
e8,
53,
03,
c5,
e6,
17,
27,
fc,
e9,
17,
08,
1a,
1a,
ea,
c2,
18,
ec,
f2,
2e,
1e,
ed,
2d,
da,
0d,
b7,
55,
eb,
14,
c0,
2a,
22,
03,
37,
2b,
02,
c3,
00,
fd,
07,
0a,
05,
e2,
20,
fd,
14,
11,
1c,
b1,
04,
08,
c6,
13,
ea,
0a,
0a,
0d,
fe,
ad,
1b,
ee,
f4,
09,
21,
34,
fc,
0e,
12,
16,
fc,
07,
03,
0a,
f7,
32,
08,
e3,
06,
d7,
13,
14,
12,
30,
16,
17,
e6,
08,
05,
05,
23,
27,
01,
d3,
1b,
fc,
fc,
b8,
07,
09,
a9,
f8,
db,
e9,
e8,
c7,
f4,
d9,
e9,
2e,
1c,
d6,
15,
f5,
04,
d3,
cf,
1b,
24,
08,
ed,
36,
0f,
25,
13,
f8,
15,
23,
00,
1c,
25,
df,
14,
02,
fb,
fc,
09,
10,
0a,
07,
05,
ed,
20,
df,
08,
fd,
05,
05,
1d,
ca,
ed,
ef,
0d,
1d,
35,
d0,
0e,
ea,
0a,
0e,
d4,
b9,
eb,
22,
da,
02,
04,
fc,
fc,
05,
12,
e0,
13,
1c,
1a,
0c,
e0,
d5,
1f,
08,
06,
f1,
d5,
f6,
02,
12,
fd,
c3,
fd,
1e,
f8,
11,
12,
20,
03,
c7,
f4,
53,
09,
0d,
0e,
07,
0f,
ff,
07,
fd,
01,
12,
2e,
fc,
10,
28,
e9,
1d,
16,
e1,
3d,
ed,
5a,
d8,
ff,
f3,
3c,
f0,
00,
f6,
d5,
ee,
fa,
16,
c1,
f6,
ff,
e7,
ea,
fe,
e8,
3c,
e2,
de,
08,
33,
00,
f2,
e1,
04,
0f,
ea,
1d,
bb,
ee,
2d,
03,
1e,
02,
00,
ec,
04,
29,
0e,
f4,
e5,
14,
03,
1f,
0c,
cd,
a1,
23,
e8,
fa,
f5,
c2,
1e,
e7,
09,
d4,
e4,
e6,
08,
ca,
04,
b1,
04,
04,
06,
d4,
fe,
00,
0d,
de,
05,
fc,
81,
11,
f6,
09,
02,
2a,
19,
26,
c5,
d3,
e6,
e4,
15,
b1,
21,
05,
f2,
47,
f8,
c8,
de,
1c,
37,
c3,
f5,
09,
08,
16,
b8,
15,
ee,
0f,
e8,
2b,
eb,
ce,
f3,
02,
2c,
fa,
41,
1b,
e6,
f2,
f3,
26,
e4,
2a,
0e,
e5,
f3,
d0,
3f,
e4,
09,
17,
e4,
de,
14,
3e,
06,
1b,
18,
2a,
d4,
09,
14,
eb,
ff,
3a,
f7,
0a,
1a,
32,
f0,
f7,
0e,
1b,
01,
e3,
06,
c7,
e4,
1d,
e2,
e8,
cb,
09,
36,
f2,
ea,
e8,
36,
26,
06,
f2,
13,
02,
09,
da,
06,
01,
e5,
27,
dc,
e9,
11,
21,
15,
13,
12,
d1,
ff,
17,
14,
13,
d8,
f5,
f6,
ed,
14,
13,
ea,
02,
09,
a9,
be,
d8,
2a,
f2,
1b,
26,
00,
11,
14,
e9,
ff,
dc,
1a,
2b,
20,
08,
15,
ed,
e3,
cd,
08,
1b,
a5,
08,
d1,
f2,
14,
d1,
d2,
d5,
fe,
f0,
25,
e9,
e1,
ea,
14,
e5,
0d,
13,
d1,
09,
cd,
fa,
27,
f9,
03,
18,
29,
cd,
51,
11,
1f,
06,
e9,
d1,
2e,
08,
13,
01,
18,
12,
e4,
e5,
ec,
d8,
e2,
21,
ed,
fe,
0a,
e1,
11,
16,
f5,
d0,
4e,
f7,
0e,
0f,
0a,
01,
f9,
eb,
43,
13,
20,
20,
0c,
e5,
09,
e1,
fb,
bd,
e8,
d7,
f5,
e4,
ee,
f5,
05,
f2,
24,
21,
f1,
e5,
cd,
f6,
1b,
22,
c7,
0a,
f4,
38,
fb,
1a,
02,
0e,
ed,
e1,
ec,
19,
20,
07,
06,
1d,
ca,
23,
1f,
d7,
f0,
1f,
ec,
f5,
14,
c4,
13,
e8,
fa,
e3,
d5,
c3,
04,
02,
fd,
40,
fc,
1a,
04,
fa,
2a,
0a,
29,
e2,
fc,
1f,
dc,
f9,
b6,
10,
dd,
eb,
13,
40,
09,
d2,
17,
1c,
fb,
f8,
3b,
01,
0d,
26,
d3,
04,
f5,
27,
ee,
24,
c6,
14,
07,
0e,
d6,
f9,
0d,
17,
f4,
0b,
37,
f3,
c3,
44,
16,
14,
05,
20,
07,
00,
24,
be,
f0,
1b,
ea,
0f,
17,
20,
0a,
2f,
f7,
da,
0b,
23,
cb,
da,
da,
20,
2c,
27,
be,
db,
f2,
d7,
1a,
f9,
f6,
18,
0b,
14,
f7,
f2,
b8,
00,
17,
cd,
17,
e1,
ed,
f7,
2a,
e5,
eb,
40,
f0,
fd,
ec,
ff,
0f,
13,
23,
0d,
f9,
18,
3c,
cf,
e4,
36,
17,
13,
0c,
25,
f5,
0b,
28,
04,
d6,
a4,
d4,
f1,
d6,
2a,
f7,
e2,
13,
2d,
f8,
1c,
34,
c7,
e1,
14,
e4,
04,
03,
e5,
08,
ff,
09,
f6,
09,
c5,
ef,
28,
ef,
ca,
0e,
06,
df,
e6,
c2,
08,
06,
d0,
0b,
1f,
e8,
fd,
12,
20,
f4,
2b,
15,
09,
ee,
27,
fc,
0f,
d0,
05,
1b,
d4,
06,
ea,
0f,
02,
e1,
f2,
fb,
e3,
2d,
e8,
01,
fc,
20,
1a,
e1,
19,
11,
3f,
f1,
00,
da,
28,
4d,
e6,
16,
12,
06,
de,
b9,
ef,
f9,
e6,
cb,
f4,
07,
0b,
11,
1f,
c1,
26,
e8,
09,
f6,
e5,
fd,
f9,
e2,
ce,
eb,
f2,
15,
df,
ef,
9d,
00,
ed,
52,
f5,
22,
17,
16,
e0,
f6,
27,
e4,
e5,
ea,
29,
50,
14,
23,
05,
af,
d9,
3e,
58,
05,
fa,
0d,
0e,
ed,
ce,
0a,
1d,
e6,
ea,
ed,
1e,
16,
0d,
ed,
00,
20,
f4,
38,
10,
2f,
1d,
06,
55,
fd,
ee,
e5,
e0,
15,
a9,
03,
f2,
11,
e4,
28,
15,
e4,
09,
41,
fc,
e7,
2d,
1b,
f6,
f2,
05,
e8,
fc,
17,
01,
1d,
21,
f1,
35,
10,
f0,
fb,
e0,
0a,
2e,
e8,
dc,
f3,
02,
2d,
02,
02,
08,
1b,
1d,
f0,
05,
e0,
41,
21,
e6,
08,
f8,
ec,
db,
b8,
ca,
0e,
10,
c4,
fa,
1a,
06,
09,
0e,
cc,
26,
f5,
28,
1a,
e1,
2b,
15,
e5,
cd,
19,
03,
0b,
f7,
e8,
9f,
fc,
f6,
2c,
e4,
36,
02,
03,
f2,
db,
0d,
ea,
e1,
1a,
10,
42,
1d,
07,
ed,
c8,
ff,
59,
f4,
ed,
f0,
d9,
2f,
2f,
ca,
09,
e3,
27,
05,
07,
d1,
04,
e7,
2b,
41,
11,
f9,
fb,
f4,
1f,
18,
08,
f6,
04,
0d,
20,
0b,
50,
09,
21,
fc,
1f,
00,
09,
1a,
d0,
00,
fd,
04,
f8,
ff,
f9,
00,
03,
08,
fe,
ea,
fc,
05,
ef,
3d,
0e,
0f,
05,
fa,
0b,
d4,
de,
fc,
07,
1f,
df,
07,
c2,
06,
17,
21,
10,
ef,
b7,
ff,
cc,
c8,
fe,
0b,
13,
22,
ce,
05,
d7,
d9,
fb,
f6,
15,
17,
1a,
26,
dd,
f9,
d8,
07,
28,
c4,
e9,
eb,
d9,
e6,
16,
f9,
be,
1f,
f4,
f6,
f8,
1f,
f1,
fb,
fb,
0e,
ce,
07,
13,
e1,
d9,
32,
00,
d8,
ed,
15,
00,
45,
17,
e2,
06,
d6,
dc,
bf,
19,
f5,
f4,
fc,
bc,
28,
ff,
06,
02,
0e,
44,
e4,
19,
02,
fd,
0f,
01,
40,
c4,
15,
13,
3a,
ee,
e7,
13,
00,
03,
04,
08,
fe,
1e,
3b,
e7,
15,
f6,
e8,
f2,
22,
ca,
05,
10,
1f,
d5,
09,
ff,
29,
02,
06,
21,
f3,
fa,
f5,
23,
10,
0e,
16,
26,
26,
14,
04,
f3,
14,
1e,
03,
ee,
3f,
ef,
ff,
24,
e0,
ee,
0a,
28,
09,
c4,
27,
ff,
fa,
f9,
06,
f2,
e7,
1c,
02,
17,
da,
47,
18,
f8,
10,
d5,
13,
bb,
d5,
06,
17,
10,
ee,
09,
fe,
f5,
13,
36,
08,
e5,
07,
25,
15,
1e,
08,
0d,
f9,
e6,
fa,
f0,
f3,
2c,
d2,
f9,
1f,
1f,
e6,
0a,
e7,
1e,
b8,
48,
0f,
f5,
ee,
e6,
55,
1c,
ef,
0c,
e3,
32,
06,
09,
f8,
f5,
23,
06,
1c,
19,
01,
04,
f1,
26,
3d,
0c,
fe,
0d,
11,
e1,
0a,
4e,
f6,
1c,
e7,
00,
f1,
e4,
0b,
ce,
18,
09,
e1,
f1,
09,
db,
07,
1b,
dc,
fb,
ff,
2f,
11,
ec,
73,
3a,
27,
13,
0b,
fb,
e1,
02,
fc,
f2,
25,
57,
2e,
0a,
02,
dd,
05,
05,
c1,
29,
01,
27,
f6,
db,
23,
03,
d3,
20,
0b,
72,
18,
12,
17,
2e,
0e,
ef,
0b,
27,
e8,
2a,
ef,
e9,
e6,
1d,
0d,
1c,
e5,
1b,
27,
de,
dc,
22,
0e,
de,
2f,
05,
18,
ef,
15,
e7,
da,
f0,
1d,
18,
bb,
05,
2e,
05,
d5,
db,
b6,
e0,
1a,
13,
21;
