memory_initialization_radix=16;
memory_initialization_vector=
FFFFFF52,
0000006E,
00000018,
00000103,
000000A0,
FFFFFF43,
000000EA,
FFFFFF36,
00000033,
00000183,
000000CC,
0000000B,
FFFFFF53,
FFFFFEF9,
0000004A,
000000B3,
0000000B,
000000A6,
000001B0,
0000007B,
00000061,
0000014B,
FFFFFF44,
00000088,
FFFFFFC8,
000001F0,
FFFFFF8C,
FFFFFF80,
0000005F,
00000077,
0000002F,
00000005;
